#version: 0.2
i n
Ġ t
e r
o n
Ġ a
r e
a t
s t
e n
o r
Ġt h
Ċ Ċ
Ġ c
l e
Ġ s
i t
a n
a r
a l
Ġth e
Ġ p
Ġ f
o u
Ġ =
i s
in g
e s
Ġ w
i on
e d
i c
Ġ b
Ġ d
e t
Ġ m
Ġ o
r o
a s
e l
c t
n d
Ġ in
Ġ h
en t
i d
Ġ n
a m
Ġt o
Ġ re
- -
Ġ {
Ġo f
o m
i m
Ġ (
i l
/ /
Ġa nd
u r
s e
Ġ l
e x
Ġ S
a d
Ġ "
c h
u t
i f
* *
Ġ }
e m
o l
t h
Ġ g
i g
i v
c e
o d
Ġ v
at e
Ġ T
a g
a y
Ġ *
o t
u s
Ġ C
Ġ st
Ġ I
u n
u l
u e
Ġ A
o w
Ġ '
e w
Ġ <
at ion
( )
Ġf or
a b
or t
u m
am e
Ġ is
p e
t r
c k
â Ģ
Ġ y
i st
-- --
h e
Ġ e
l o
Ġ M
Ġb e
er s
Ġ on
Ġc on
a p
u b
Ġ P
as s
in t
l y
ur n
Ġ $
a v
p ort
i r
- >
n t
en d
Ġd e
it h
ou t
ou r
l ic
re s
p t
= =
Ġth is
Ġ if
Ġ D
v er
ag e
Ġ B
h t
ex t
= "
Ġth at
** **
Ġ R
Ġ it
es s
Ġ F
Ġ r
o s
an d
Ġa s
e ct
k e
ro m
Ġ //
c on
Ġ L
( "
q u
Ġw ith
i z
d e
Ġ N
Ġa l
o p
u p
g et
i le
Ġa n
at a
o re
r i
Ġp ro
t er
a in
Ġ W
Ġ E
Ġc om
ar t
Ġ H
a ck
im port
Ġ or
e st
m ent
Ġ G
ab le
Ġ -
in e
il l
in d
er e
: :
it y
Ġ +
Ġt r
el f
ig ht
( '
or m
ul t
st r
. .
" ,
Ġy ou
y pe
p l
Ġn ew
Ġ j
Ġf rom
Ġ ex
Ġ O
l d
Ġ [
o c
Ġs e
Ġ le
---- ----
. s
' ,
an t
Ġa t
as e
. c
Ġc h
< /
av e
an g
Ġa re
Ġin t
âĢ Ļ
_ t
er t
i al
a ct
iv e
od e
o st
Ġn ot
o g
or d
al l
f f
on t
im e
a re
Ġ U
Ġp r
Ġ :
i es
iz e
u re
Ġb y
i re
. p
Ġs h
ic e
a st
o k
_ _
c l
# #
Ġh e
ar d
) .
Ġ @
Ġw as
i p
th is
Ġ u
ĠT he
id e
a ce
i b
a c
Ġw e
a k
v e
at h
o id
Ġ= >
u st
q ue
) )
' s
Ġ k
an s
y st
**** ****
Ġ i
Ġ us
p p
on e
a il
n ame
Ġ /
Ġ &
a ch
d iv
el l
Ġh ave
er r
ul l
p on
Ġ J
Ġ= =
ig n
S t
Ġp l
f orm
d d
it e
Ġg et
r r
om e
Ġ âĢ
ar am
c c
E R
I n
le s
_ s
on g
i e
Ġc an
Ġ V
er v
p r
Ġ un
ro w
b er
Ġd o
l l
Ġ el
Ġs elf
at ed
ar y
Ġ .
' ]
u d
Ġ en
ĠT h
t e
_ c
Ġa b
or k
Ġ #
a w
res s
o b
N ame
ap p
Ġal l
or y
it ion
an ce
e ar
v ent
i a
Ġw ill
I N
Ġ< /
d ata
R e
p le
il d
th er
Ġy our
( $
Ġ out
) ,
Ġh as
s o
Ġ up
a x
g e
O N
p er
ic h
Ġb ut
Ġ _
_ m
ad d
s elf
er y
f t
en s
a ke
. C
Ġg o
Ġ K
Ġ im
Ġcon st
. t
Ġv oid
Ġs et
l i
. m
al ly
s et
e p
âĢĻ s
b o
Ġm e
Ġ !
at ch
" >
e c
ĠI n
p h
Ġ |
Ġv ar
en ce
I d
re e
in k
le ct
u g
et h
Ġel se
-------- --------
Ġs o
at ic
p ro
t on
s s
ow n
ab el
o int
ou s
S T
T he
R E
" :
e g
ke y
u de
ĠS t
ou nd
Ġa r
en er
s er
f er
Ġm ore
ation s
ent s
Ġh is
Ġthe y
. S
Ġ Y
u se
n e
is h
ol d
i o
Ġp er
ing s
Ġd ata
Ġs a
e f
f o
Ġon e
en g
Ġd is
A T
Ġn ame
Ġtr ue
v al
le d
. f
Ġn e
Ġ end
. T
c re
ar k
lo g
E x
_ id
ang e
Ġn ull
Ġm y
p an
ic t
at or
L ist
âĢ Ŀ
Ġp re
Ġ x
ar g
o v
. h
Ġ >
Ġthe ir
' )
ic k
g h
L E
O R
us er
Ġ )
c om
. A
Ġ id
re ad
_ b
Ġt ime
Ġm an
r y
ro p
v el
b le
Ġan y
w e
" )
nd er
g r
Ġn o
.c om
Ġa pp
ion s
. D
ĠC h
Ġab out
Ġa dd
Ġs u
I D
Ġo ver
. l
_ C
Ġ qu
c a
S E
s h
u al
T ype
s on
n ew
er n
A R
] .
Ġ ?
ic al
Ġd es
ut h
i x
ay s
Ġt ype
' t
a ult
Ġin ter
v ar
. b
Ġp art
. d
I T
E N
en c
( f
r a
ch o
o se
at er
Ã ©
ol l
p os
n g
A L
am es
at es
el y
Ġw ork
Ġ em
in al
Ġs p
t o
as h
[ i
Ġu se
. F
Ġa d
o ve
ad er
at us
T h
r it
Ġof f
Ġo ther
m s
Ġbe en
m l
c o
n c
Ġ %
an n
ad e
lo ck
+ +
d ate
Ġh ad
ĠR e
Ġw ere
Ġf ile
ĠâĢ ľ
v en
is s
Ġ our
r aw
Ġy ear
D ata
Ġs ome
y s
Ġth ere
Ġsa id
d u
o f
l ine
Ġh er
R es
Ġc o
is e
m in
. P
ut e
I nt
as k
lo c
od y
Ġle t
Ġa m
ro l
y p
Ġal so
ĠI t
ur l
if ic
or s
ig h
Ġth an
C om
A N
U L
at ing
ĠTh is
re f
_ S
Ġst atic
Ġj ust
i an
Ġthe m
d er
re ak
C on
: //
u le
.. .
ar ch
Ġ< <
us h
en se
ar r
Ġint o
am p
i ed
Ġ \
] ,
w o
al s
an c
= '
ag es
ay er
Ġs c
u es
_ T
Ġl ist
( s
Ġc ase
C h
Ġ z
le t
D E
re d
Ġ ,
( t
Ġ import
Ġa ct
C T
ĠT r
i ent
c ent
. j
Ġon ly
Ġpr int
m er
. W
o ck
Ġ --
T ext
Ġo p
an k
Ġit s
Ġb ack
Ġne ed
Ġc l
Ġs ub
Ġl a
( (
. "
Ġst art
f ile
n er
e y
Ġus er
ĠC om
it s
ĠC on
ow er
it em
ver y
ĠW e
Ġ Q
ph p
ic s
Ġu nder
. L
) ;
S S
Ġth en
re at
i ous
. G
e k
ire ct
n ing
ĠU n
Ġm ay
ĠW h
B o
. st
re am
ib le
u nd
s um
_ M
Ġh ow
T o
ind ex
. n
( m
ĠH e
f ul
o le
i er
_ name
ers on
I ON
ot e
Ġt est
Ġb et
ul ar
ã Ģ
b s
t ing
Ġm ake
T r
R O
r c
Ġr ight
r ight
d ay
Ġl ong
( p
t d
ĠP ro
v id
. g
p ace
m p
Ġm in
a ir
w h
t ype
a it
I C
t ext
Ġp h
Ġf l
. M
b r
. re
in s
- s
ĠI nt
, "
P ro
( c
Ġs he
" ]
ap h
ert y
ĠS e
Ġp ar
E T
Ġre ad
pr int
Ġfor m
B y
it ies
u ff
pl ay
ĠâĢ ĵ
Ġw ant
Ġ| |
a z
b e
ĠE x
Ġ key
Ġt wo
Ġs ize
U T
or ld
o od
u ch
at ive
g er
_ F
A M
il ity
et er
âĢĻ t
ĊĊ Ċ
---------------- ----------------
ag er
u res
et s
ĠI f
ĠS h
. w
b ack
Ġh and
I nd
UL L
I m
Ġm ost
Ġtr y
Ġn ow
Ġh im
if y
Ġb reak
re n
it t
( n
ĠY ou
- m
Ġe very
- b
] [
Ġp oint
T ime
Ġm od
Ġ ->
a h
Ġt ext
Ġsh ow
U ser
Ġf ind
E D
s pan
en u
Ġus ed
Ġpl ay
Ġl og
f l
Ġse e
Ġthe se
Ġp ass
Ġd own
Ġe ven
as on
f rom
( d
Ġb l
iz ed
Ġit em
um p
U R
or n
Ġd on
S e
m an
t n
H e
Ġd id
iv er
Ġs m
ĠA n
ch e
ou se
Ġ es
ĠN ew
ut o
l er
Ġl ast
Ġe vent
ï ¼
il y
in es
( int
Ġh igh
ht ml
Ġl ine
E vent
_ D
Ġdo es
ar s
Ġ `
_ A
at ure
E S
ist er
a le
ro id
Ġ ed
i k
re g
ĠD e
Ġst ate
at t
Ġh ere
Ġf inal
Ġ" "
K ey
L O
Ġd el
ĠA nd
Ġr un
Ġ X
y m
. app
Ġv ery
w ard
l ist
it ed
it ch
Bo x
if e
Ġa c
Ġm on
Ġw ay
Ġc all
ou n
f r
a j
qu ery
Ġw ell
ĠA s
Ġyear s
I S
W h
a int
ĠA r
m on
) :
S et
at ter
W e
A t
Ġman y
M an
end er
Ġbe ing
Ġgo od
ation al
w are
. log
Ġus ing
ist s
ĠA l
ur ing
t ime
Ġch ild
Ġ Ã
p s
al k
b y
S ize
Ġp erson
E n
F ile
u f
A C
Ġ que
Ġ( $
id ent
I L
ot t
les s
IN G
Ġ( )
y nc
ur s
. /
p re
m a
Ġf ound
In fo
p ar
im es
. e
ain s
Ġp ost
- d
Ġs l
P E
Ġsu ch
Ġth ink
. r
F F
o ol
ĠF or
Ġm uch
u c
ĠL ist
m it
ak ing
p x
ãĢ Ĥ
or g
id er
ach e
w ork
th e
ant s
> <
. B
- c
Ġop en
Ġe st
Ġn ext
I M
O T
H E
ĠR es
Ġh ref
Ġc ar
im age
U n
A D
Ġg ame
Ġp ath
is ion
Ġe ach
ĠP l
P ath
Ġa v
EN T
re m
i ence
se arch
F orm
en ame
Ġs ign
Ġ et
', '
ĠA pp
Ġth ose
o ff
Ġbe st
c ode
Ġs ame
Ġd i
us s
ath er
. in
f e
U N
at s
Ġ Z
Ġm ade
tr ue
A B
r id
if ied
y n
p ress
Ġw orld
t y
( b
ar n
iv es
Ġm ain
A G
im g
P I
Ġre port
Ġt ake
O M
Ġd ay
Ġs k
o ot
Im age
Ġto p
Ġf ree
A S
D e
ĠO n
I G
et a
D ate
O ver
it or
n ot
h er
ic on
O n
iv ity
O L
Ġre al
Ġm ax
l and
.. ..
le g
âĢ ¦
o ok
u ck
t est
Ġar t
G et
ent er
en e
Ã ¡
( i
f or
ĠâĢ Ķ
t en
o in
u i
ĠI N
Ġt able
s ub
ĠL e
Ġhe ad
Ġm ust
Ġor der
o ver
Ġs ay
he ad
Th is
. âĢĿ
ĠB ut
s g
Ġpl ace
. x
d b
Ġwe ek
t able
pl ace
ĠA ll
el s
bo x
. R
ĠT o
it er
S h
Ġs w
iz ation
b l
( e
a pe
che ck
Ġu nd
U S
Ġc ode
_ H
Ġwith out
Man ager
P O
ak es
e ver
ĠS o
Ġst ill
m ed
Ġc ap
. N
ap i
O D
ot o
âĢ ľ
c ol
( x
C ode
l ink
A n
if t
Ġgo ing
Ġr ange
n ess
Ġf act
ĠA N
A l
Ġand roid
C E
ir t
on d
Ġh ome
Ġle ft
Ġd irect
P l
A s
re t
ad o
O f
ch n
ĠG et
e e
ro ss
() ;
__ __
I t
cho ol
} ,
Ġall ow
s ize
is m
a i
an e
C H
Ġp age
h ip
n o
c ore
s p
ĠM e
ĠI s
A pp
Ġre ally
Ġim age
tr a
ing le
it al
ar m
= >
Ġp ut
Q u
un g
m ap
Ġle vel
bo ok
O r
u x
L og
p ost
V al
in a
A dd
r ic
- f
. ex
M ap
ad ing
U E
> (
Ġto o
Ġg reat
int er
ca le
r on
iv ing
E nt
enc y
x t
o y
Ġmon th
b ar
ĠI nd
o h
- p
E m
Ġm et
T est
Ġl ife
ĠU S
U I
m d
Ġ ]
s w
s cript
. de
Ġs rc
Ġp ay
âĢ Ķ
Ġch ange
' re
ast er
lo s
L e
ĠN o
Ġo ld
b ug
U p
Ġth ree
in it
er o
Ġl aw
Ġb ase
em ail
( l
_ V
AT E
Ġd uring
ĠP r
v es
p ath
ard s
Ġagain st
ĠP h
W ith
Ġp ower
i um
ĠI m
ĠM an
or th
es e
- g
i que
er g
) (
T R
ĠThe y
r l
on s
Ġl abel
. y
- t
s c
.s h
r am
Ġd ate
A ll
ific ation
m y
Ġb ig
ĠA d
ĠA t
ot s
n um
Ġm ap
er a
co pe
, âĢĿ
Ġp op
Ġf ew
u id
Ã Ń
http s
or ies
ĠC l
Ġn ode
ir c
< <
Ġs it
T E
. I
N S
> >
Ġc are
L ine
F or
i or
ĠS c
Ġf un
] )
st art
our s
ir on
Ġn on
ict ion
Ġf ull
bo ard
Ġt urn
Ġb ody
p i
Ġst and
m t
ĠB l
Ġ ...
Ġb lock
op en
Ġth ings
Ġ url
ĠB o
Ġre d
j s
ĠO r
Ġcom e
one y
A P
H T
Ġas k
Ġem ail
in ation
T able
( [
Ġb usiness
. html
t a
le x
. ,
ĠS et
// /
t s
a f
Ġm ight
ist ory
S tr
Ġne ver
ad a
ĠH ow
Ġ ;
Ġh ard
A d
m od
b ody
( r
ir d
Ġhe ight
P oint
Y ou
et y
Ġsm all
Ġj ob
ĠTh ere
Ġadd ress
N ot
o o
ap s
- w
ĠD ate
Ġp ort
e h
Ġst atus
a im
Ġo s
ens ion
Ġup date
a ff
ER R
ĠT e
Ġl ink
ĠU ser
. org
m e
O ut
Ġbet ter
P age
en n
M L
r u
le an
I f
v is
Ġg ot
Ġle ss
/ s
ap t
ĠA dd
Ġd er
Ġl ot
Ġb it
Ġfollow ing
S ON
Ġs ure
oc ial
Ġse arch
Ġ er
E d
E M
a ut
l ing
al ity
b ed
ĠO R
Ġs ays
AM E
Ġre st
in fo
Ġinter est
Ġv er
l ib
Ġd ie
Ġs ite
E L
p en
N o
ic ro
ac y
re c
Ġw on
ad i
p oint
Ġg l
I F
' m
Ġc ell
ar i
Ġpl ayer
a is
Ġc ost
( R
k s
o pe
U M
ight s
u ro
I R
Ġ q
Ġsh ort
ĠN ot
ip p
m ax
Ġd one
r ist
AN T
ĠB e
ĠG r
P T
- h
ĠL og
in c
Ġchild ren
I Z
Ġd ays
- l
om b
.j s
Ġ â
Qu ery
Ġon line
im al
a u
ĠF r
wh ere
Ġre ason
ĠM ar
( a
Ġwith in
O DE
ad min
Ġdes ign
ĠD ata
un e
ĠF ile
ro ot
l en
p age
, '
ab ility
ou th
/ c
irt ual
Ġs chool
av a
we b
o pt
ul ation
P L
ĠT ext
d own
ĠE n
ĠD r
Ġd b
! !
Ġin it
ĠS he
Ġst op
Ġl ater
ĠTh at
d f
U G
I LE
PO ST
ou d
Ġab le
Ġm en
A X
Ã ¶
er c
il t
ro om
Ġg ive
am b
i ke
ator s
{ {
ĠC an
d o
z e
ĠF l
Ġimport ant
Ġle ad
AR T
Ġd a
et ch
ic a
' ve
v ers
ĠTr ue
ĠO F
Ġof fer
H ER
" "
Ġw ater
ĠM y
Ġst ep
C K
A Y
( C
ou ch
St ream
act ive
am a
ĠI D
A nd
Ġdis play
Ġt imes
Ġf our
Ġf ar
ĠN S
Ġl ib
Ġon ce
cent er
================ ================
Ġresult s
Ġt alk
e b
O P
ol s
Ġ **
ure d
Ġme an
ip s
Ġare a
u it
ĠW ith
ĠS p
I V
if f
Ġk ind
m b
Ġl ight
u k
al f
Ġs ide
w ay
Ġpl an
V is
un k
U P
O S
ĠM on
âĢĻ re
. v
iz er
S ub
Ġbut ton
ĠU p
C L
Ġn ear
UR L
al t
ib ility
b ase
on es
ĠD o
Ġal ong
. '
en v
Ġw in
Ġth ing
Tr ans
ĠT HE
Ġdoes n
i j
g ing
Ġs ingle
le y
/ m
ĠR eg
un ch
is k
Ġright s
( M
ap er
ĠWh en
ĠE d
Ġse ason
( h
Ġdid n
Ġre cent
ĠB y
ĠM ay
ĠA ct
Ġm oney
IN T
s l
Ġto ld
ud io
Ġa uto
ĠSt ate
d a
Ġwork ing
ĠB r
Ġle ast
ag n
ar ing
er al
I B
E X
Ġm aking
ĠC ar
" .
ĠM ed
Ġper cent
Ġp ast
( g
: (
Ġm ove
Ġv i
' ll
ag ed
Ġc ity
ĠE ng
in ary
p y
ar io
Ġt ell
Ġse lect
I P
Ġf ont
ĠA m
Int er
O W
Ġl ate
in o
Ġ ì
ĠC al
ĠR ep
( j
S c
n ow
Ġlook ing
Ġh old
IT Y
v o
is on
y c
ĠTr ump
id es
r t
g o
Ġl ow
Ġpr ice
ur y
Ġto day
ro y
Ġ' '
P h
ĠS te
RO M
an a
Ġme ans
Ġst ory
id s
Ġme et
ĠâĢ ĺ
ob ile
n a
ĠF orm
Ġt ask
ĠD E
ĠM in
K E
ĠT est
port s
Ġre view
Ġsw itch
ER T
Ġab ove
ĠQ u
Ġw ord
Ġre search
} }
ĠC ON
- in
Ġco ver
\ \
ĠI S
is c
B ar
B e
le m
pl ayer
ab s
ne y
a o
/ d
r al
up er
Ġh ost
/ b
( !
i as
Re g
St art
t op
Ġwe b
Ġde al
Ġ( "
s v
Ġp ress
AT ION
ĠSe e
an ch
Ġpoint s
. J
Ġ ::
D B
.p ng
so ft
Ġe ver
-------------------------------- --------------------------------
M enu
p g
i os
P r
ĠC o
S C
Ġle s
Ġfile s
Ġof ten
Ġin fo
on y
Ġsp ace
um b
Ġst ore
ĠWh at
g ed
U s
Ġform at
s m
N ew
ĠAN D
ĠF ree
Ġ> >
Ġf ace
Ġs ave
de v
AG E
ed it
Q L
Ġitem s
Ġs ocial
i en
ĠRe act
ĠR E
C ell
Ġy et
Ġf ood
it es
d r
ĠP er
T H
Ġb ar
( w
Ġs end
F A
ro s
f a
ĠUn ited
Ġm akes
ĠP ol
Ch ild
O UT
ile s
ĠP art
os s
ĠE vent
st er
Ġnew s
c el
ĠA b
oc al
ĠCh rist
co ver
ĠU I
Ġf ail
Ġbl ack
Ġadd ed
Ġc ame
Ġc ard
Ġhttp s
C C
B ack
Ġget ting
m ail
ĠD ec
Ġcl aim
ĠS ub
Ġa ir
op s
ang ed
E nd
Ġn ight
Ġdo ing
ĠR ed
l in
Ġw atch
Ġt ax
( v
re l
Ġh ouse
Ġtr ack
j e
( S
ub e
V ER
* )
an y
ĠO ne
a id
by te
ĠÃ ł
F O
h ost
- r
Ġapp ly
G ET
i i
I O
Ġ il
m ain
el t
Re c
m m
G L
c ast
F rom
a les
n y
ï¼ Į
Wh at
. H
Ġh istory
ĠF e
Ġ-- >
Ġd u
I ST
Ġus ers
f s
un t
Ġstart ed
Ġm ode
Th ere
pos ed
Ġto ok
Ġg ames
Ġproduct s
I s
Ġb ad
ĠD es
ĠP ost
av el
Ġneed s
F l
Ġse en
um e
Ġl ive
P er
i et
em e
Ġh ope
it ude
Ġyou ng
.t xt
AL L
il i
y l
O K
N U
ĠS T
icro soft
Ġc ut
iv al
Ġw ent
. z
L ink
Ġf ire
Ġac ross
N E
Re f
Ġmonth s
ic o
b all
Ġle arn
O ne
Ġ ~
Ġm ind
ĠE nd
AN D
B ase
Ġcom ment
IN E
âĢĻ ve
B ut
ĠE l
ĠU s
Ġad min
m ark
ĠN ame
ĠT ype
p c
F T
u el
ang er
.... ....
Ġh ot
ri es
f ont
st ream
ser ver
AC K
Ed it
Ġcom es
ĠG ame
ĠTr ans
m et
se e
ĠE X
A SE
ĠR ec
( *
u y
h r
( -
ent ry
L L
ĠD is
r ag
Â ł
D D
ĠV al
Ġv irtual
a ur
ĠO ff
Ġh ours
Ġw ar
ag ing
Ġmodel s
ĠT ime
am s
Ġc enter
x y
P ost
( T
âĢ ĵ
l ight
x x
ĠM ath
IT H
Ġd ue
Ġe p
Ġcan not
ur al
Ġn et
ĠSt ates
ĠN e
ĠN OT
g es
o om
er m
w ith
T ER
Ġh it
ri a
C ase
at al
ĠTh ese
Ġam ong
h a
Ġw alk
ĠG e
Ġa ge
O ST
Ġf ive
T P
Ġc lean
ow s
d is
. io
z y
âĢĻ m
ĠG NU
ĠC ol
l a
ĠY ork
L o
ĠG od
re w
Ġl and
ĠP ar
Ġqu ality
P ar
OR D
Ġwork s
Ġh alf
u a
es h
Up date
ĠF ROM
Ġrun ning
R I
ĠC ity
ĠW est
st ore
Ġ[ [
Ġ( '
ĠD on
ER S
/ p
ab or
Ġsome one
at o
Ġsh are
St ack
ĠW orld
. X
H ow
Ġperson al
( A
ĠJ an
ĠHow ever
Ġevent s
z a
Ġwho le
Ġneed ed
OR M
g en
ĠO ut
Ġr ate
c d
ĠS m
ĠM ark
ĠM r
ĠM ore
Ġf all
Ġv ol
Ġdevelop ment
Ġs i
v ing
P P
ak er
n s
om et
S o
Re ad
-- -
' .
ĠT H
/ j
Ġs on
re en
D own
ĠRe ad
ĠC or
ĠS im
ac c
Pl ayer
A RE
p art
ĠM c
Ġp ush
AT A
ri ed
b it
V E
ĠS w
U B
ed ia
Wh en
ĠS tr
Ġp y
il le
U RE
. se
em y
ist ic
Ġph one
Ġact ive
Ġm o
Ġde ath
ĠC r
k a
ri p
Ġv ia
ĠG u
g y
ex p
Ġask ed
o res
S P
ĠâĢ ¦
O ff
ĠA g
ĠJ ust
Ġ icon
' '
? .
Ġ( *
ĠF OR
Ġpart y
ĠY our
c at
. new
bo ot
ĠN ov
IG HT
Ġt aking
Ġfor ward
ro t
o e
b a
ĠIm age
U D
') ;
er ing
c p
B O
ĠH ouse
Ġwe ight
Ġcondition s
- to
Ġmod ule
EN D
ĠN ow
ĠM ain
_ k
âĢĻ ll
P re
n et
ĠB ar
Ġst ay
ĠJ SON
Ġp s
R L
l s
e ch
o ke
Ġfor mer
Ġs ix
id a
Ġhe art
al d
p ack
Ġr ather
Ġbuild ing
Ġj e
Ġhow ever
ĠW ITH
Ġt ag
Ġr ound
Em ail
? >
KE Y
ĠN orth
able s
el lo
Th at
Ð º
Ġal t
ing ton
) *
i ers
c an
ĠS k
.j pg
? :
l ong
M S
AT H
row n
l t
el ine
M A
c s
ĠW ill
Ġth ird
ph one
Ġb ed
/ g
ĠIn c
iz ing
ĠCh ar
G ame
P C
Ġsh all
ĠS outh
s k
ann er
ĠR ob
ĠWe b
D es
B C
D ec
g n
. *
Ġun ique
Ġp our
ĠO ct
Ġt ree
Ġby te
B l
Ġm atter
ĠR em
ĠA ug
ĠL a
i am
Ġshow s
Ġb all
Ġf ast
A SS
ĠO f
ant e
a ul
Ġf it
c ard
o ch
( L
Ġex tra
fl ow
ĠP re
n ers
Ġun it
ĠT R
Ġt akes
Ġet c
h s
Ġcom ing
O pen
ĠW ar
ĠTh en
Ġqu ite
Ġb log
i qu
P S
ĠS ch
ĠL O
Ġevery one
Ġm enu
se c
ĠM ap
") ;
Ġact ual
O UN
C A
M y
ĠS E
] ]
al le
ĠN ational
. V
ar a
as c
ast ic
C l
ail y
.n et
ĠA pr
Ġhigh er
c r
ĠG oogle
ĠM icrosoft
Ġs ound
h ome
e v
ï¼ ļ
" ;
ĠH igh
ĠP oint
op h
o x
Ġso on
ing er
ĠP e
Ġ ë
. E
ĠSt art
ĠT O
h ow
Ġoff ice
ĠAr t
ang o
t mp
E ST
d en
Ġnot e
p m
ĠE N
est er
Ġup on
u z
. k
Ġgroup s
l ang
T O
Ġr isk
AN G
ON E
ĠH ar
ĠA p
ĠBl ack
d oc
_t able
- up
Ġ ..
Ġv an
IN D
id o
- M
. U
Ġadd ition
Ġvar ious
ĠH T
D F
ĠO pen
at ory
sh ip
Ġle ave
av en
- n
Ġread ing
Ġstand ard
et ic
ell ow
ĠH is
( P
a a
e an
ĠP RO
ĠK ey
m ing
Ġc ross
Ġn ational
Ġs cript
M ENT
. ch
ĠA PI
Ġim ages
st e
Ġfor ce
( B
R T
ĠB ase
ĠP y
d s
. as
ap an
T op
p o
I ES
I E
i ant
ãĢ ģ
ĠH ome
i ans
G B
Ġl iving
C ore
Ġuse ful
.in fo
Ġto ol
Ġo k
I X
ĠNew s
err y
D o
Ġpop ular
Ġmethod s
c al
Ġelement s
Ġtr ain
r s
ĠT ask
( D
Ġc md
ĠU se
Ġs cale
Ġsc ore
/ v
U C
( ex
ĠM arch
- st
Ġs aw
IC E
Ġany one
S D
Ġs ong
or ing
- re
Ġw ays
Ġpl us
az on
/ t
ast e
Ġpro file
Ġread y
Ġs ense
om y
ĠJ une
Ġlate st
Ġde ep
ĠP ark
ĠF rom
I I
Ġre ach
ĠW ork
ĠU RL
ĠUp date
an i
Ġd og
ï ¿
t t
Ġp aper
Ġst aff
AC E
j a
ĠG L
Ġo il
Ġst ock
h am
ul a
R A
m ar
ĠCh ina
) /
D C
ĠS O
ĠO ur
ur t
y ch
a fe
ĠF in
ĠM od
Ġt ab
an o
- e
ch an
IM E
ĠN O
ĠInt er
T ag
] :
Ġare as
m en
z en
ur a
ĠH ere
Ġact ivity
Ġus es
.g oogle
ĠS y
ĠC ent
ĠL ong
Ġab ility
ol y
in ing
im s
ĠE m
ĠA S
ĠP age
Q U
ĠAn y
C ard
al y
ĠP ort
M P
C ON
Ġt ouch
P art
( re
g ame
ĠWh ite
ĠApr il
~ ~
Ġtr avel
Ġpass ed
Ġb us
A b
ĠC enter
HT ML
ĠS an
k t
L ast
N ext
. a
ĠP M
it ing
c i
g s
I A
D O
Ġ{ {
Ġ' #
O RE
ĠT V
SE T
P ress
ĠB ook
( st
( in
ì Ŀ
ĠB ro
S cript
Ġr ule
a e
D S
Ġsystem s
Ġd rop
ĠL ink
ĠD B
and roid
ot ion
( @
Ġdirect ly
r is
A IL
( k
b on
__ _
M ax
We b
IT E
ĠG o
Ġ ip
Ġ ist
Ġdo or
Ġpl ant
ĠN ode
en ing
ĠS chool
h i
A A
Ġb i
R ed
ĠDe v
F ILE
ĠM o
al a
ĠD ay
ĠO ver
b b
Ġle d
ur i
g l
M D
Ġhand s
Ġoff ers
ot a
A m
Ġsa fe
St ore
r un
ag on
ab y
Ġp ark
ĠC ode
F e
F L
ut s
in n
al ing
Ġyour self
con f
. )
N G
X X
ĠAug ust
ĠC G
h o
ĠB ig
Ġv s
com ment
av i
Ġl ayer
Ġview s
ĠO N
Ġc ore
M ain
Ġ/ >
I AL
ĠK ing
ĠM et
or a
M in
- S
c m
um s
Ġeffect s
ill a
ĠV er
ĠH er
( Q
it a
ĠA R
IG N
Ġh y
f it
r im
ĠD own
od ay
ell ing
ent al
om en
ĠS up
Ġbl ue
ag o
Ġl ives
Ġ ^
ï¼ ģ
s i
ĠJ apan
/ w
P U
ĠE ast
Ġn or
b ot
A ST
D A
m o
it o
id x
Ġm obile
ĠA c
m ore
p ass
Ġh a
Ġfl ow
as y
S p
Ġsh ift
N T
C S
Ġn ice
ĠU K
Ġw ish
ĠI O
Ġst age
ĠS H
Ġmeet ing
in y
ch a
ĠR un
G r
Ġbook s
am ing
P R
Ġmod ern
C D
ĠL o
ĠB it
r d
RE D
ĠR el
Ġm ix
ĠI M
Ġlet ter
T ree
et te
IV E
Ġv on
Ġph oto
ĠA ir
- x
Ġtr ade
ĠK e
anc y
r an
E l
L ong
v a
R em
in i
RE E
p a
* (
K e
H P
) [
Ġg old
ĠT able
T e
k i
ĠU N
Ġman ager
Ġp ain
ĠF ire
l ay
wo od
/ f
ST R
âĢ ¢
or ge
ĠP C
S QL
- A
Ġg ives
( G
el le
C an
on a
Ġcap ital
R un
o i
g a
ĠInd ia
F C
ĠA nt
E O
ĠP ART
ed s
; ;
ĠA M
ĠL et
Ġst ar
W ork
Ġsk in
ĠI P
O UR
ĠC ard
Ġp ages
A CT
**** **
ĠC H
B r
.c o
A IN
ĠB ack
ell a
. at
b an
ĠS l
b in
ĠCan ada
The y
ĠM at
Ġh air
ĠM ag
Ġ ),
Ġw ide
ĠP aul
m as
ĠT op
Ġthem e
c ar
ĠSh ow
Ġcare er
Ph one
om s
ĠO ther
Ġtr ust
fr ont
A r
N et
' ;
Pr ice
ĠC L
ĠDes ign
Ġn ature
Ġn ation
i h
Ġex am
RE S
Ġs un
( y
y ing
Ġtest s
ĠN ote
art s
N ow
k er
b and
ĠPl ay
Ġb and
us r
B A
et t
ult i
z er
ell er
ĠS ign
A PI
ĠL ine
P ort
Ġg iving
E E
i ation
ĠB est
_ view
C P
O p
Bo ok
ĠP at
um an
pl us
ĠD irect
ĠC all
ĠPh il
en a
co in
Ġ" '
: \
.p y
lo ok
ĠB E
Ad min
ĠOr der
C all
ri e
Ġmaterial s
Ġun less
LO G
- time
) ]
av er
ig e
) +
Ġpress ure
S ign
ri an
L S
Ġthink ing
- F
ĠUS A
ĠAl so
Ġen able
ĠC O
) -
ĠâĢ ¢
Ġmean ing
ĠS uper
Ġd aily
j o
On ly
í ķ
ĠPl ayer
ĠD el
Ġp ool
L ocal
N A
C o
Ġm aster
B S
k g
ĠB en
ĠP erson
ĠA T
n n
Ġeffect ive
Ġto ols
AR D
R C
/ r
med ia
ĠM ac
ĠM ake
- a
ĠY es
ĠA ng
ol ar
ĠP ower
ĠG old
W S
/ L
Ġs in
ĠF IT
Ġ ).
M E
I RE
V ID
ĠM ax
Ĥ ¬
Ġexpress ion
ĠM ost
Ġtest ing
E C
ĠL aw
. Y
Ġp od
ĠEurope an
- sh
OR Y
ĠA v
( ch
? "
ch en
im a
w in
/ h
ĠS C
N AME
ON G
ĠI l
Ġhigh ly
ï¼ ī
it ation
us ion
ik i
ĠF re
ĠAd min
OW N
ad y
ĠJ ack
O C
ĠO k
H ome
( tr
ET H
d c
( X
? ?
Ġle ader
ĠV is
- C
ĠSt ud
M ore
ad s
- B
al m
h ouse
ĠSt ar
ĠC OM
ĠG ood
D R
K it
Ġ ##
ĠB Y
et e
ĠCom mon
st on
ber g
T C
n i
j i
y a
Ġcell s
ol ic
ĠD i
Y our
Ġn g
S A
S G
Ġsm art
om a
s ys
ĠJ ames
- se
` ,
ĠB O
Sh ow
ĠMed ia
ack s
M e
ĠB el
( F
ig o
ĠG reen
= %
ĠN E
OL D
ĠS QL
. [
a ud
Ġdevelop ed
Ã© e
ĠG ET
k y
........ ........
Ġfail ure
Ġd ream
ĠTe am
U SE
v ille
ol a
x b
ĠP ath
S he
ĠJ ava
ĠI I
re al
ĠUn it
al i
om in
re nt
O ur
S L
Ġcolor s
k in
ĠMark et
u nder
ĠL ast
Ġpost s
D on
Ġm icro
Ġ( @
ĠH ot
ĠInd ex
ĠC ap
- (
ĠB usiness
ĠS D
M M
Ġsc ience
P A
Ġtr uth
d t
r f
ud a
ĠC am
Ġst ation
ĠS un
Ġsh op
N D
> ,
Ġm ail
re y
M ake
ĠS ur
A V
Ġse ven
ol f
ĠSt atus
ĠOn line
R R
ĠH ill
em ic
ĠS um
N on
- L
ĠM art
================================ ================================
m i
Ġpay ment
, B
ĠApp le
g in
Ġfact or
ĠAm azon
Ġe at
f ord
ar c
and er
ĠEng ine
( N
ĠS al
g i
ĠM ill
b i
ĠS am
ĠS er
ĠOff ice
Ġc at
ĠRe port
ant a
ĠBo x
E B
L INE
- v
A F
ĠOn ly
ĠG l
C O
el a
ĠE mail
St ep
f c
ĠW ell
ĠM AX
y an
B it
z i
ain e
ĠB lock
ĠT om
ron ic
x e
p op
Ġreview s
. O
ĠM al
D M
ĠRob ert
ĠD ie
M B
Ġso ft
w p
ĠSe lect
ĠWh y
ĠC he
AN CE
ĠT or
ĠP ress
ĠM or
- line
ĠReg ister
Ġst ress
ĠS ize
ĠPr ice
| |
F S
Ġmarket ing
ĠW H
+ =
le e
h y
Ex press
M T
se y
ĠG reat
ĠAnd roid
m ode
ĠT imes
un es
ag en
ĠH and
Ġshow ed
Ġtop ic
âĢĶ âĢĶ
ro ad
ĠB ank
ĠR ef
U ST
ĠPart y
L C
ĠL in
un a
ĠP R
Lo ading
d i
S H
ĠB ill
B I
ĠO T
. i
am in
An y
j u
Ġ ê
G R
ĠF ull
ib er
m os
.b e
AR Y
ĠL ight
Ġunderstand ing
- of
il s
ĠO h
sh op
ĠS and
Ġf ear
z one
C OM
ĠBl ue
i ro
ĠI T
ĠA re
g u
r m
Ġreal ity
L a
/b in
ĠBo ard
ĠA L
ĠM er
ĠD iv
o th
ĠL ocal
Ġch ain
S ave
P M
C G
j ob
ĠRe al
u er
N e
ch ain
ir a
for ce
Ã ¢
Ġp m
ë ĭ
D r
C al
C ar
ed itor
ĠChrist ian
ĠE ach
b c
ĠB er
ĠL ike
ĠAp ache
w s
L Y
n u
b d
ĠT ree
M ark
! "
b reak
Ġb ag
( I
C R
Ġm ac
ĠA uto
ack ing
ĠSim ple
N O
o on
y e
ĠS ET
/ index
.x ml
ch er
Ġâ Ĩ
X T
A g
ĠT wo
ur b
Ġd ry
s a
ĠSm ith
ist a
AR K
ab out
N ote
P RO
ĠR ock
ĠSt ore
I SE
Pl ay
ĠUn ion
ĠB ay
i us
w ell
ĠM ass
em a
ĠAdd ress
ĠC A
l ot
ĠL ook
L ib
E P
h at
ĠSt ream
Ġb orn
IL L
-------------------------------- ----------------
HT TP
> )
ĠE s
ĠS P
os h
ĠFr ank
ð Ł
- T
A rt
ĠN ext
H ost
- P
re nd
ĠAn n
w t
at i
ĠHT ML
Ġhealth y
ĠG en
ĠD O
ĠW ord
k o
y ou
âĢĿ ,
ĠT im
Ġfact ors
ĠN et
E G
B L
ĠCh ild
C enter
Y S
ĠLe vel
Ġse a
ĠE st
c os
Ed itor
ĠM P
ĠL ife
Ġ? ?
- D
F ull
Ġcl oud
LO W
ĠEx t
ĠEng land
ĠU nder
Y es
ĠA ut
is co
Ġm m
ĠM ad
il m
A VE
ĠAr ch
G e
Ġhot el
S M
o z
g b
ĠC amp
ĠC ore
st ep
] (
AS H
B D
B ER
IN S
ĠH am
ĠC lean
Vis ual
v in
/ n
s n
ĠFr ance
ĠA D
u j
C F
P ER
ĠL os
Al ert
Ġpart ies
ĠPl an
y es
Ġthan k
H ello
ĠM A
ĠTh ank
ĠW all
ĠM enu
ĠE r
ĠY ear
N N
M I
- and
ĠS ocial
ĠS pecial
c f
- out
ĠM ont
d p
az z
ĠO UT
ĠE U
ĠSc ott
and a
or al
Ġm s
Se e
az e
Ġs ports
Ġy es
l u
k r
ĠGe orge
A v
Ġg od
ot or
ĠAct ive
ï¼ Ī
S pace
h an
az ine
ĠZ e
( /
iv a
ĠL at
ĠJ ournal
) "
let s
N C
T S
J ust
Y P
Ġw ind
ĠW ater
Ġc m
Ġs am
z ip
ĠSc ience
G en
ĠP ass
v i
n ote
ĠAb out
ĠIn stitute
new s
C M
p ing
w a
E SS
. Q
Ġoffer ing
ĠC S
ol o
j ava
Ġart ist
Ġ[ -
ĠJ ul
L et
Ġl ab
ĠChrist mas
ĠR ight
ĠO S
B B
_ K
ĠA P
ĠRe v
ĠH y
ĠS elf
e z
Ġthe ory
ĠT er
ĠHT TP
W orld
ĠCl ub
V er
Ġz one
Ġver ify
ĠM il
on o
D ay
? )
- ex
- tr
P e
ĠL ord
as i
ig ital
Wh y
c ut
ĠM ary
ĠJ O
t i
U se
ĠP op
ĠS ave
d y
ĠI ran
/ M
T ON
Ġd ump
p ool
ĠM S
Ġ( -
ĠRe view
! (
D P
l ow
ĠGr and
Ġz ip
~~ ~~
ĠP L
- on
Bl ue
b us
( pro
ĠWe ek
ĠEd ge
ĠW atch
/ A
u an
ĠCh ange
ĠR et
z z
ĠO K
t c
â ĸ
ĠR oom
ĠE v
ãĢ į
u ke
ar ia
Ġpresent ed
in er
Ph oto
ĠB rown
( se
ĠWh o
Ġm p
Ab out
Ġapp s
F R
c are
ĠR ights
ult ure
il a
as m
M O
Ġ" [
ĠDirect or
ĠW il
k ing
ĠMan ager
ĠA C
M AX
ĠG rid
f ree
D T
- the
am i
X ML
ĠG al
ĠO ld
h ot
_T H
ĠC are
, ,
ĠR T
/ app
ĠO p
St op
Com ment
ĠCent ral
IC K
ĠL ove
o or
ĠSh ort
os is
l an
ĠIs land
( E
DE X
ual ity
/ re
is a
Ġ í
ĠJapan ese
ĠPl ace
/ x
G E
f b
T F
st one
ĠM aster
ĠPh oto
ĠS ing
P H
G o
ĠC up
un s
ĠWest ern
W ord
ig an
ĠV ol
( H
ãĢ Ĳ
- R
y r
ĠD C
ĠP al
ĠH all
.m od
F ree
PE C
: -
ĠJ o
ĠR iver
Ġhelp ful
ãĢ ĳ
ou l
ĠW omen
ish ing
ĠM el
ĠP an
L M
ĠF ort
ĠM en
Ġ! !
it z
ĠP eter
Ġf ell
ĠC as
- %
ĠC D
b n
Ġt v
ĠK E
F ore
M on
ĠH uman
i ot
ĠH istory
M ay
." "
Ġv ision
c y
Ġtr ading
ĠL E
ĠL ive
Ġ ðŁ
V O
- Z
V M
eg a
ack ed
ĠC ost
ĠT oday
ĠHe ad
âĢĿ .
- day
ĠH ard
C I
R Y
- N
ĠC ross
ĠCh ris
- H
V C
, C
ĠB uy
/ C
ï¼ Ł
ĠS ingle
ĠM a
ĠP et
% )
ĠI L
ĠUS B
ĠJohn son
. K
ĠP DF
ĠQu ery
/ S
ĠS ym
P G
ĠJ im
W ell
ĠâĨ Ĵ
ĠP S
OM E
ĠM O
F E
ĠL and
ĠA cc
i pt
R S
w ar
ĠB ad
-m ail
ĠP ay
ĠS ol
H z
ĠS pace
ik a
S end
use um
ĠC ase
ĠI F
Ġt ip
ph oto
Ġgood s
v s
ĠD an
ĠMart in
R IGHT
O k
ĠN on
- ch
B E
M C
ĠL ab
ĠG ames
T wo
ĠL es
Â °
â Ķ
IN K
. ad
Ġexpert s
A c
b log
x i
ĠL ake
ĠH E
AN S
] -
F P
k ins
anc er
og en
) =
ĠFor ce
re port
ĠT w
s en
ĠSh are
ĠT ake
ĠIm ages
ĠJ un
en o
ump s
ĠR O
Ġp p
p df
ach ing
ĠR o
ĠS i
Ġbuy ing
ĠS on
) ?
a us
st ar
AC H
ĠX ML
/ (
A K
O h
Â ®
ĠG T
ro g
O U
/ .
Bo ard
ĠJ ones
m ac
ĠO l
H S
H igh
ĠD IS
a ux
ĠU P
os a
Ġ" (
Ġâ Ī
F G
AN N
ab a
- J
- G
ĠJ ob
Ġroom s
ĠL ow
. im
u v
Ġw ave
M ar
ĠLe e
!! !
ĠS K
as er
S elf
ĠPar is
ĠF ood
ĠB i
ĠI B
et c
Ġ> >>
book s
Sh are
Ġpro ve
ĠW ood
k u
ID E
ĠW ay
ĠS TR
S ync
ĠA V
ĠC EO
ĠJ S
Ġi Phone
ĠH D
P ass
ĠW in
ĠG ar
ĠH P
bl ue
** *
Ġp and
O G
ĠH ave
c ert
ĠD ark
ĠN Y
M r
m g
* ,
ĠF ound
( U
/ F
Ġx xx
ĠL td
ĠPro file
L D
ĠPl us
He ad
ĠA udio
ĠT ag
ĠT ri
cl oud
ĠB ur
ĠWill iam
? âĢĿ
n am
( V
ian a
Ġlog o
ste in
Ġ-- -
W E
- off
ag a
V D
ĠS olution
O F
ĠSte el
e a
ĠPr ime
Ġc c
Ġsh ell
al o
u h
J S
ĠW alk
L P
-f ree
ĠEd itor
ĠN FL
ay a
ĠG O
. -
ĠC R
.m y
? ,
/ %
ann a
- k
ĠSt ock
ov a
M edia
St ar
ĠV an
ĠGu ide
am an
ĠBe ach
C ity
ĠD ES
z o
Re al
ĠF L
M icrosoft
Ġp df
( de
ìĿ ´
ĠN a
V A
ĠN ight
. (
ĠB all
ĠJ oe
ĠCh at
ip er
ĠP OST
ĠP A
ãĢ Į
g it
Ġsk y
ĠC ur
m c
C ap
ĠS ite
ĠJava Script
Ġis land
ĠP O
ĠMed ical
L ike
, (
ĠL A
C B
h ar
Ġâ Ĥ¬
w ater
ĠAr m
Â »
- W
v ision
ĠB et
ĠF inal
i el
ĠVal ley
H i
ĠS n
Th ank
- end
ĠIn fo
ĠA ge
ian o
ĠB ed
B R
ĠA LL
ĠL ED
ĠP HP
ĠBit coin
r ank
tr ack
ĠO P
Ġk m
oc o
t ip
ëĭ ¤
ì ŀ
/ data
ĠR ES
( z
ĠS at
ĠS ports
ong s
ĠF und
UN D
Ġj Query
S w
ĠK ar
p ad
A uto
ĠR ay
as se
ĠYou ng
' S
p in
Ġreason able
r ad
ĠF ox
ĠP en
M ed
Ġp c
b al
ĠS ale
ĠCom p
ĠF our
/ l
and y
- j
ak a
ĠM B
# [
+ (
Ġdis k
as p
V P
% ,
ĠD aily
ĠS W
U X
ORD ER
ĠM obile
um a
Ġmin i
- E
Ġtalk s
ĠF ar
T L
br and
ĠT ool
st ock
ĠB on
H L
ĠF eb
ĠK im
ĠC C
ah a
ì Ĺ
ĠRec ord
ĠL im
or i
/ en
ĠAnd rew
ĠK n
Ġac id
ĠAs ia
m aster
ĠW ild
LE D
ĠKe ep
ĠJack son
ock er
ER N
Ġ; ;
A E
. th
ĠM id
ĠS cript
ĠS M
P ad
/ html
Ġm g
aw ay
ĠC ODE
ax y
ĠR en
ĠP ack
ĠP o
ĠSte ve
S I
ĠF BI
ern et
d m
r ich
S O
ĠT y
L ight
fo od
Â ·
ĠC PU
Ġperfect ly
all er
ĠB ody
ĠT own
ĠC ell
ĠM D
od a
Y ES
âĢ ĺ
on ic
LE S
S im
ĠSh op
( W
og a
âĢ¦ âĢ¦
N OT
Wh ite
aw a
ĠB ush
ĠY ES
( com
ĠH a
ĠD igital
/ k
ĠD ATA
o ft
ĠJ e
ĠA B
.g ov
ĠB log
ĠC V
/ a
ĠK now
ĠS aint
ĠSt op
ol i
ĠD a
W atch
ĠS em
ĠD og
ĠB ob
ĠSe ason
ĠM ir
/ st
> .
(M e
ĠSt ack
IF T
ul s
ĠSt one
. âĢĻ
ĠPh one
ul f
ĠD R
w atch
ĠB a
ĠLin ux
er d
% .
ê °
New s
## #
x B
l ab
il ly
ĠI mp
Ġ ----------------
g g
ĠC a
Bl ack
A W
ĠI II
? (
ams ung
G oogle
l ife
ì ł
B est
IT S
ĠCent re
.t v
ĠDiv ision
ĠL i
ĠTh ree
Ġâ ĸ
- .
ĠAs ian
ĠMan ual
ĠHot el
âĶ Ģ
S R
ì Ħ
ĠM ode
ĠDr iver
ĠA li
ĠF air
De v
ĠS ound
ĠA sh
F D
Te am
ch i
w orld
( .
wh o
ak i
ĠT our
ĠNe ed
ĠP H
AP P
ĠSk y
at in
ĠG R
I CT
ĠCl oud
ĠSte p
ĠâĢ ŀ
eg as
ĠB L
ĠM IT
ĠM ail
b ro
E F
ĠE V
ĠFr ont
T T
N I
' "
ĠSystem s
ì ļ
ĠChar les
B U
â Ħ
ë ¡
Ġfunction ality
/ D
EN U
ĠCon f
B J
ĠAct ivity
ĠY OU
P ower
ĠSm all
old ing
ĠB oot
d on
ĠF A
ĠDe ad
ĠSe a
J ava
ĠForm at
ĠChild ren
---- -
ĠA G
ĠSt ory
ë Ĭ
t imes
ĠT ab
ĠR am
P HP
ĠC SS
ĠT ax
Wh o
- for
. uk
T A
W M
av id
G ood
Ġf oo
ĠA I
ill er
-b it
ip h
ĠL LC
ĠPost ed
ĠC P
Ġc d
-------- --
ĠIt aly
/m ain
b erry
p d
T oday
! .
N ET
ĠG i
ï ½
ĠA z
. ac
is o
ob e
as a
- back
A I
In s
ĠMag ic
ĠS U
Ġpresent ation
[ [
G O
ĠO il
ĠProduct s
ĠD NA
ĠDesign er
ĠSt and
ĠSw itch
. it
B N
ĠInt el
ĠB reak
B ig
ĠJ r
. ;
v an
T V
AD D
Tr ack
Ch at
ĠP a
ĠD u
S K
ĠL ock
ĠD rop
Ġm l
ĠL as
eg an
. <
ĠSm art
T K
/ G
ĠM eta
ĠS ales
- K
ĠS a
b est
Ġc ss
ĠH it
p f
om o
RE AM
ë ¥
ĠL y
ĠR ose
em an
h d
ĠS anta
ĠCo ast
.p df
C r
.g if
T ip
AN K
ĠF C
k m
) >
AM P
D irect
AR I
y o
ĠE D
Ġi OS
Cl oud
ĠF un
ĠS Y
ĠN AS
ĠH ost
S ound
m id
âĦ ¢
G A
ĠDr agon
ĠDr ive
ĠNE W
ĠM ah
ĠB oy
íķ ĺ
Ġv ital
F B
i y
âĢĶâĢĶ âĢĶâĢĶ
Ġì ŀ
ĠI R
ĠF REE
/ B
I ER
ĠM E
! )
ĠM useum
et ric
/ P
Ġg it
ĠA k
ĠA h
( J
ĠAg ency
F X
ĠDis ney
Ġa i
M IN
y t
ĠBr and
ĠG UI
ĠR ange
/ i
ĠTh eme
IS H
ĠK r
ĠR os
ok u
.d o
G S
D L
D el
ĠD I
/ e
ig a
ĠO pt
w an
ëĬ Ķ
---- --
P AR
ĠS A
D X
ĠEngine ering
ĠF ish
ĠSt ation
ĠF ilm
ĠF R
ĠS ide
S B
ĠM IN
M ail
ĠN ative
/ T
( K
h u
ì §
F IN
Ġì Ŀ
Ġê °
G u
ĠS L
C U
ĠTr ust
ĠP od
ĠI V
â Ļ
S W
oc a
ĠBuild ing
ĠE M
ĠB ang
ĠS u
ĠB and
ĠB ible
ĠIn n
W in
T D
âĶĢ âĶĢ
H A
ĠT X
b ank
AR S
!! !!
H R
ĠL P
! ,
K N
Ġ** *
ar o
ure au
ĠS eg
ĠTr ade
ĠW i
ĠN ation
T HE
b ell
ĠQu ick
ĠE L
, [
ĠFl ash
ĠH o
ĠF ast
AN Y
ĠA ward
' T
.m e
ĠMo on
P RE
ĠC at
et r
Post ed
ĠTe ch
ĠFile s
ë¡ ľ
ĠN BA
d n
ĠEx press
ĠWil son
ĠM ulti
ĠS ep
PO S
ĠP in
ĠS V
N UM
, .
ĠAr ts
/ O
ĠFor um
ĠC it
m ann
W D
Ã Ĺ
ĠV egas
- i
B T
ĠO FF
R F
ĠM otor
M AP
D I
ĠS in
ĠM oney
â ĺ
ĠN T
ĠT en
Red irect
ê ¸
Ġ âĢĻ
ĠC y
ĠC over
ĠH ope
/ ?
om ing
ĠE T
ĠRe ading
U A
te ch
ĠV M
S V
b p
ĠGold en
ĠD ream
ĠBook s
ĠPl ant
! âĢĿ
L A
Â §
ĠP ER
ĠP aper
( con
ìĿ Ħ
ĠB ell
~~~~ ~~~~
ĠG ro
ĠE ver
P N
Ġh d
AR M
ĠA PP
ĠS N
W R
ĠQ uality
( email
) |
St ory
h l
ĠHe art
Ġ( +
j pg
Z ero
.g o
ĠB C
M aster
ĠD OM
ì Ĭ
n b
.. ...
m x
-------- ---
ĠC M
ĠD VD
ĠB BC
ĠTr avel
ĠR ule
ĠE SP
ĠIN C
T IME
ĠM icro
ĠI E
h ou
f ish
ĠS S
ĠDe ep
R GB
ĠS port
ĠK ong
/ home
F W
ĠM Y
Ġf er
ĠMarket ing
ĠV en
ĠN AT
ĠMod ern
ĠB B
**** *
O ld
ĠT E
D K
ĠZ ero
or o
ap a
M IT
ob i
PL AY
ag an
ri x
M obile
ĠG a
ĠCap ital
ĠS amsung
ë¥ ¼
S Y
ĠA rr
ĠF arm
M R
ĠM ORE
W T
. :
ĠM I
op per
work s
th ere
g ood
L I
ĠL iving
Ġk t
ĠSt udio
ĠC T
Ġì ł
ĠF ace
ĠB us
ĠE asy
ĠC lo
w r
ĠStud ies
) ',
i u
( ID
A O
ĠPol y
V R
ĠM ade
ĠB R
W EB
ĠSum mer
Ch ain
( ...
ĠG B
Fl ow
ĠS now
ĠLim ited
Î ±
( Data
S N
ĠS ong
ĠT alk
W W
ĠâĢ Ŀ
ĠCh em
ed i
ĠE P
ĠM T
s ure
p ot
IC S
E A
EL L
ĠN ations
H D
M Y
ĠV R
ĠG M
ĠStud y
] "
ĠH ong
@ @
k k
Read y
ĠMet al
ĠPerson al
ĠM ix
( O
S uper
ĠE S
ĠI C
S k
mark et
p al
Ch rist
ĠT ouch
(t ag
ĠA BC
sh are
St ock
ĠP T
/ R
ìĹ Ĳ
.ex e
ĠB al
F I
Re view
it is
ĠE uro
( co
O O
ĠL L
ĠC AN
MA IL
US H
ĠUS D
M ac
G reen
C V
On line
A ut
âĢĻ ,
ĠM L
- V
/ _
n m
ĠMin i
ĠC ut
ĠGal axy
ĠW E
L AB
ĠJ ean
ĠA rc
P F
ĠB ag
ĠP ick
St ation
ĠC NN
ĠR ate
ĠTr ack
.g l
Sh op
ĠA SC
ĠB M
ĠWord Press
ĠBer lin
cl ub
ĠM as
B F
ĠA F
( http
W H
B Y
* .
ĠM ask
ĠG er
ĠI ce
ĠCO VID
ê° Ģ
ĠX XX
P al
am ine
ĠN G
Ġn an
Â ©
Ex cel
ĠN C
ĠGirl s
ĠTh ings
Ġa pt
ë ¦
ĠW inter
ï¼ ĳ
L R
Ġ íķ
>> >
ĠK h
H ot
ĠF ly
ĠVis ual
ĠD M
( Y
? '
/ o
/ N
P a
% (
ĠF ather
L ive
[ T
? id
S pecial
an ne
ĠOrgan ization
ĠC ulture
ìĿ ĺ
ri k
P s
âĢ¦ .
V T
Des ign
ĠCas ino
ĠR oss
Pl an
ê¸ °
ell i
ro ck
ĠGet ty
ĠH AL
U F
ĠX box
ĠD S
" '
NE W
P ay
O B
ĠB aby
ĠE C
ĠP i
G M
ĠAnd erson
ĠH an
b id
ĠN A
ir i
ĠAir port
ĠC I
H er
ĠAg ent
ĠV irtual
ĠRem ote
ĠM i
LE T
on i
ĠC F
.C OM
ĠG as
ĠS ony
ĠM C
ĠS R
ĠV A
Ġx x
B IT
ĠY OUR
---- ---
ĠK it
Ġstudy ing
ĠMet ro
Ġk g
ĠR GB
.z ip
ĠST ART
ĠH i
s id
ĠEx cel
ĠK C
Ġâ ī
ĠWork s
ĠB T
ĠA CT
ĠG it
< >
ë ĵ
ĠTh ink
, S
UT C
ĠD ays
D IS
... "
ï½ ŀ
m ic
it as
GB T
/ ch
ĠA ve
k b
ĠSim on
ĠC B
ì§ Ģ
ĠN ature
ĠH at
M ON
ĠLo op
ĠD J
G reat
ĠNAS A
om i
ĠMag azine
ĠC IA
- I
ĠCar bon
ĠT AG
uk i
ĠR ing
ì ĭ
PO INT
D U
ë ł
âĢ ³
ĠR C
AT T
) '
ĠSE C
f ly
R P
ĠM M
D i
â Ī
ov o
ĠUn ity
ĠR ome
b urn
y our
ĠF O
ĠH u
ĠP E
Pl us
/ web
ĠSte am
And roid
ĠClass ic
â ķ
ĠCor p
^ ^
ĠN i
Ġ ....
ĠR ain
ĠAuthor ity
. us
ĠH ello
ĠT ower
ĠIS O
ĠOr ange
ĠL CD
S i
I AN
ê ³
Ġ' (
T M
ĠR AM
Ġë °
ĠC BD
ĠR F
PE G
ĠW IN
ĠA DC
ĠW ind
T Y
ĠRev olution
ĠU L
ĠM ult
/ W
ĠZ one
ĠEx port
.d ll
t v
[ N
ĠT IME
P K
U V
G G
ĠV ue
Ġi Pad
Ch ina
D avid
ĠS afe
ĠH R
ĠK a
M AN
ĠT i
ĠC ash
Un ited
ĠG C
, âĢĻ
ĠN OW
ĠFl ow
ĠFin ance
H C
ĠA ST
add y
/ view
- get
- '
[ A
ĠK ids
w y
ĠP I
B ay
SS L
ĠAs set
L F
Ġâ Ķ
II I
ĠP ent
ĠH IV
ĠG PU
W O
F i
( <
B usiness
ĠP ool
ĠL ayer
-------- -
ĠH old
;; ;;
ĠPart ners
ĠT el
j an
az er
G C
T X
ĠK y
ĠM AC
ĠS IM
ĠS ant
ĠM ind
ĠB or
t el
Ġface book
ĠP ush
ĠT S
ĠAnt i
? v
ĠB ot
ĠMar ia
ĠR aw
P D
BO X
N Y
ĠAng el
Ġun cert
ĠìĿ ´
ĠF ig
Ġk r
u o
ĠS yn
ĠW M
/ search
ĠTrans fer
ĠLa unch
ĠR S
( App
L U
ĠA WS
ĠW P
Ġapp le
Ĥ ¹
= /
ĠT a
ĠSp ot
ĠF T
W IN
ĠM SG
om ics
INE SS
ĠG PS
F it
/ H
_ AR
ĠL G
P DF
ĠBet ter
Ĺ ı
ĠF M
ĠS F
D isc
og o
( IN
ĠN BC
ĠB io
P od
Ã ¬
ak u
A Z
ĠForm s
íķ ľ
ĠF ed
âĢĻ .
- O
ik o
ĠCam bridge
/ -
R M
ex us
ĠSw ift
ĠN HL
iz en
ĠAl t
ĠG P
Â «
COM P
S an
Ġm k
OT T
H O
Ġì ķ
Fl ash
Ġê ²
H I
Off ice
ĠC ool
ĠT M
ĠC BS
ĠO NE
xx x
ĠEnvironment al
ĠSo ft
( Int
h n
.c a
IS O
Y N
. or
ĠF S
ĠA MD
Qu ick
um i
US A
Ġph p
ĠJ et
. ),
G P
ĠS olar
ĠN V
ĠY ang
ĠM EM
Ġì Ĺ
ĠG MT
U K
ĠD A
ĠT an
ĠT C
Ġo z
g ate
e o
ĠS cale
ĠSt ars
.as px
y ll
ĠF an
. ]
T om
A h
ĠÃ Ĺ
am en
/ product
ĠX P
ĠP K
Sh ift
ĠC N
ìĬ ¤
ĠW S
F n
ï¼ Ĵ
ĠView s
ĠN ET
ĠSE O
Ġ\ \
ĠID C
ĠT OP
ĠD T
ĠK B
S outh
ĠS IG
T ING
ãĢ ĭ
ĠT s
ab i
h op
Ġâ ĺ
Re cent
ĠC ancer
ĠRe ader
G N
TE X
ĠS B
ado op
M c
r in
P aul
OT H
V I
ĠS SL
= &
/ new
T OP
G T
C am
AB C
ĠRE ST
un to
te chn
W C
ĠY ellow
/w iki
Ġâ ľ
Ġsk etch
SE C
ĠCommon s
F M
M o
ID S
Z oom
/ E
on line
W P
- us
ĠR y
ĠIN S
A ir
í Ĭ
ìŀ Ĳ
Ġn m
ĠM AN
L ife
m aker
M AC
ĠPe ace
ĠR ED
ĠMe et
B ank
ĠA CC
Am azon
â Ĩ
) _
IP S
Ġ: )
? !
Al t
ï¼ Ĳ
US B
V S
Â ½
ĠP AR
Ġ( âĢľ
Ġl g
B P
ĠC AP
ĠP ink
ĠF lex
J O
ĠE PA
AN C
ĠESP N
/w atch
N P
ĠC oin
âĺ ħ
-F i
S ocial
N R
ì ľ
ĠMy SQL
ĠG A
W A
K A
ĠC u
ĠSp ark
ĠP D
st ory
H ar
/ y
ĠE R
ĠP OS
ĠS TE
ĠSh ift
off ice
ĠðŁ ĺ
ĠH ub
/ #
ĠM otion
App le
Sc an
?? ??
T I
ĠSD K
ĠA FP
ĠT CP
ĠLet ter
ĠH W
sk y
ĠTh under
ìĦ ľ
ìļ ©
B log
ĠC E
ĠN J
F ood
US D
ĠT rip
,, ,,
ĠC ards
ĠTest ing
C at
ĠK al
ĠM K
m ade
ãĢ Ĭ
ĠSk in
ĠL IST
Ġus b
F K
, M
ĠG olf
s u
O FF
ĠP IN
ern ational
ĠJ oy
Br and
OT O
J P
ë ©
/ V
ok o
. ly
, D
ĠU FC
/ news
X P
ì ĸ
ĠU TC
L T
ĠM aps
ĠCS V
ĠR d
ĠR IGHT
ë ²
G od
H OME
Î ¿
ĠM X
ĠD NS
' M
ĠB S
.m icrosoft
IS C
ê ²
d ump
ĠT D
ew s
Ġclick s
Ġì Ħ
ĠC AR
ĠPC I
ĠE ye
( Z
/ content
ĠIB M
ĠF E
ĠR B
ĠI DE
ĠMor ning
ë ³
ë¦ ¬
G I
ĠW W
Ġl bs
ĠV o
Â ´
ĠProcess ing
I OS
.... ..
ĠR X
C AT
Â º
ĠA A
- Q
ĠW ang
L ove
ĠC AM
ĠM R
ĠArt ist
ĠEngine er
ĠP F
A merican
ĠR A
: )
ĠW a
ĠCh ain
ĠM ON
b et
I K
ĠW A
ĠAng ular
ĠImp act
k w
íĬ ¸
Ġâ Ħ
S F
C N
( *)
, ...
ĠO H
p ark
ĠSt ay
ëł ¥
ĠAd obe
ĠL D
ĠF X
Ġì ĭ
F ig
ĠS ync
B M
I FF
ĠU V
L ab
o is
-- >
ĠYou th
ĠB P
ĠT P
.j sp
- Y
ĠT F
ĠEffect s
T N
ĠN ord
ĠL S
" (
Ġs sh
ĠNAT O
ĠG ate
R B
ĠR SS
ìł ķ
ĠX X
ĠK o
ìĭ ľ
ëĵ ľ
VID IA
SE L
ĠF DA
ĥ Ŀ
ĠSh ell
M X
AC C
Â ²
ĠK i
Java Script
-r ay
m all
ig i
- Ch
ĠC Y
ĠP ure
Ph il
ĠD ance
ĠT L
ĠS G
ĠV I
] |
w iki
ĠN PC
ĠG DP
J e
ĠBM W
ĠOP EN
ĠP P
AF E
ĠG E
K B
ĠT ip
in et
ĠX L
ĠF it
ĠS MS
A H
ĠF F
ĠB ou
ĠN am
fe e
ĠTe a
N L
ĠP G
lo ve
ĠC K
.b log
ĠT B
S un
, L
- br
S ch
ar u
ĠF ine
ĠH O
ĠStud ios
& T
ĠPal ace
ĠBr ain
ach i
Ġ ï¼ļ
ash i
ì ķ
Reg ular
ĠP atch
D a
( the
ub a
ĠThe ory
ĠV ision
ĠG aming
Q R
ĠAR M
d isk
m ag
ĠU C
Ġë ³
So ft
ĠS I
- X
ĠA K
ĠV S
] '
ĠT rend
Ä ģ
k h
D ear
ĠR OM
V L
R NA
H B
ĠS UM
ĠV PN
us a
ok a
ĠIN FO
ĠD X
N ational
ĠR M
H y
I SS
ĠL INE
F un
ĠL C
ĠA Z
ĠD D
ĠMaterial s
ĠCh ip
ĠT N
ĠP B
Â° C
ĠFA Q
ĠL AB
IC A
? ",
ìĸ ´
/ z
AM L
T B
ĠY e
b ps
an th
ĠPre view
D N
ĠPlay Station
ĠR isk
ĠK N
ĠPart ner
ĠW ave
ìĿ ¸
St udio
! '
ĠM all
/ all
ĠDI Y
- In
Ġ* .
ha us
ĠIP v
ĠTr ading
fl are
M F
C PU
/ J
ĠD P
ĠZ en
DE V
ĠW ine
ĠM VP
ĠO C
Ch ris
DM I
âĻ Ģ
IN A
M G
C are
be e
e at
ìĿ ¼
Ġì Ĥ¬
W F
ĠN an
T AG
ĠN L
( DB
ë ı
.j p
ë© ´
AD A
ĠEx am
C ES
- US
R G
& D
Dr ive
ĠR V
ĠP alm
âĢĿ )
... )
ĠCh o
[ B
IC O
ĠL am
ĠHy per
( #
ĠT T
ĠW ide
ĠD H
ìĦ ±
ë Ĳ
/ K
Ġ! !!
P o
· ¸
ĠDis cover
ĠA J
ĠD L
/ X
tr ip
Ġë §
?? ?
ĠApp s
V irtual
D AY
IT AL
Ġf x
âĪ Ĵ
F ort
( ?
ĠWi Fi
ĠA W
N B
ĠI RS
ĠâĶ Ĥ
ĠH S
ĠIS BN
De ep
m art
ĠB A
P ART
ĠR PG
ìľ ¼
ï¼ ĵ
Pre v
Z Z
K T
ĠF P
ĠN VIDIA
Ġ ãĢĲ
í Ļ
ĠCy ber
ĠView Model
- book
Int ernational
C SS
ĠD ual
ìĿ Ģ
ĠPort al
AD I
[ *
ĠRes ort
% ),
ĠA RT
íķ ´
/ q
R AM
ĠGT X
ĠR PC
. âĢľ
L B
J K
( Text
T ech
ĠAz ure
] <
Ġë ĭ
Not ice
/ my
IS A
ĠB eta
ê³ ł
ĠU R
ĠG ang
ĠSh in
.p ass
N AS
C Y
ì Ĩ
- U
ii i
M icro
ĠV ista
ĠSum mit
P i
ĠSp a
ĠN H
.in i
ond o
ĠN B
ì ĺ
& A
A U
R ock
ì ²
( New
ĠV IP
par ation
as ia
LE X
ĠG S
ĠChem ical
ĠPay Pal
. ).
Ġìŀ Ī
Ġâ Ļ
Sc ience
Ġê° Ģ
ìĬ µ
w ire
ĠT W
J et
OP S
ãĢ ı
Int ernet
us ions
ìļ Ķ
uk u
b j
AL T
ĠS OL
ĠB ass
R IC
ĠC le
Ġp H
ĠB TC
Ġìł ķ
br ush
ĠH z
ĥ ģ
A WS
Ġp ng
; )
Re v
+ )
T alk
ĠS AP
ĠC MS
;; ;
Ġì ¶
G F
V ol
ĠS SD
C AR
n os
ĠI SS
min i
AL K
S u
ĠA BS
.N ET
- ,
X L
OT A
BO OK
ol in
ĠW C
ĠBL ACK
R D
ĠI Q
E asy
in ch
ĠV illa
ĠM ET
ĠB IG
" [
V B
C ert
Ġë ª
Â ±
Ġì ľ
[ F
ìł ľ
ĠE UR
( IS
Ġë Ĥ
ĠTh ing
ĠEv olution
Ġâĺ ħ
T el
h z
ì Ľ
Un ity
Ge o
P AGE
.. "
/b log
(M y
M Hz
ĠK O
-M ail
IF A
ĠZ oom
ãģ§ ãģĻ
ĠMO V
ĠSO C
Work s
ĠD AY
â ľ
ĠE TH
ĠD W
LE SS
E W
ĠArchitect ure
ĠP V
P Y
/ sub
ĠNS W
X C
DE S
ĠR D
AM A
St ay
D igital
ĠCan on
ĠT I
Ġìŀ ħ
ë °
/ article
ĠM F
ĠD ell
âĢ¦âĢ¦ âĢ¦âĢ¦
DE L
ĠE A
ë ŀ
ĠProgram ming
IN C
ĠN D
ĠI g
As ia
Ġg if
ĠSH OW
ĠJ in
âĢ ²
Ġì ĺ
ĠCamp us
Ġk b
/ @
ĠSU V
Th ink
ĠDes k
ĠQ R
ĠNetwork s
AN A
E U
Mark et
ĠA ES
ĠD isk
R o
ĠT A
, #
O ps
ë §
O V
ĠE Q
) ...
ĠTom my
ĠA U
ĠL V
ë Ĥ
ĠD AC
ĠWH O
& M
y per
ĠCL I
ĠN R
ĠC DC
ĠB D
_ -
ĠSpecial ist
[ M
.app le
^ .
.s k
pp o
âĻ ª
k on
âĢĻ S
ĠL aser
ĠTe ams
ĠG D
IF E
Ġex ams
ĠH B
G V
ĠLO VE
ĠF ULL
sm art
` s
Į Ģ
y u
ĠG F
ĠC W
ĠR NA
ĠML B
ĠNE WS
ĠL B
Gr and
- DD
B US
Tr avel
-p op
ìļ °
J E
ĠCR M
ĠB ET
K S
ĠS SH
M ade
ĠM aker
ĠD ocker
ĠI CE
ĠH OME
You ng
ĠE PS
P B
ĠL abs
( ST
ĠA X
ĠìĤ¬ ìļ©
â Ĺ
ĠC U
ë ª
ĠO EM
Ġê ¸
ot el
ĠA CE
G D
ìŀ ¥
ĠL ite
( +
d B
ĠP ST
ĠG N
ĠH DMI
ĠOut look
ĠRe alm
CL A
C oin
ĠSk ype
) !
ĠH A
O A
ins ide
ĠE E
ĠV ault
ìĦ ¸
ĠR P
ĠN I
F N
ex am
ĠP NG
ĠT LS
ë³ ´
_ <
ĠN Z
ĠC AS
Book ing
eth yl
Â ¼
M i
į °
amb a
ĠW I
ĠPL AY
ìľ¼ ë¡ľ
ë² Ī
ĠA E
ĠC isco
ĠAd s
ĠH K
ET F
ĠS AT
ĠM V
Ġ ï¼Ī
Ġìŀħ ëł¥
UB E
! ).
y un
[ S
ĠQ C
ĠL ens
ĠFl ower
ĠC afe
AR P
& P
ĠH BO
ĠBlock chain
I OR
íķĺ ëĬĶ
K G
ĠD LC
ĠOrgan ic
ĠI A
IT T
Ġê² ½
Î ¼
ĠPe ak
H N
ĠO B
Â ³
( RE
ĠN P
. ^
ĠE SC
ĠUS C
N X
AM S
. #
ĠVis a
ĠC aps
ĠCh ang
ĠD F
f ps
---------------------------------------------------------------- ----------------
J ournal
ĠV C
ï¼ ķ
[ C
ãĢ İ
D aily
ìĨ Į
ĠF PS
ĠF IFA
(C l
ë ¶
ĠD DR
ĠRe ality
F REE
ìŀ ħ
) ||
â Ĺı
ĠW EB
ĠC AT
ĠE F
S py
Ġi Pod
ĠD ock
= âĢĿ
M K
par ing
? âĢĻ
ĠL IVE
ĠBook ing
J A
ĠB AR
M ER
ĠT K
ĠD AO
ĠM W
.new s
Ġìĭ ľ
Ġ ãĢĮ
fe at
+ ,
¤ í
ĠN F
i Phone
SE N
/ kg
ĠHot els
ĠR id
DB C
J I
ent ral
Ġí Į
Ġê ³
IS BN
ore an
ĠBB Q
ĠI H
Ġí ģ
ĠB N
T i
ĠS EM
ĠI PT
ĠD SL
ĠM H
Ġê° Ĵ
Hot el
ï¼ Ķ
ĠâĢ º
ĠR SA
Ġìľ Ħ
ĠP OP
ĠC VE
ĠB EST
R X
ĠH C
ĠA IR
E V
, )
ĠAT M
ĠIT S
J B
âĺ Ĩ
ĠI G
) `
ĠAS F
Ġë³ Ģ
AT IC
ĠâĨ ĳ
ram er
ĠK S
ĠL M
ĠL AN
AR C
ĠI CO
ĠC ITY
ĠS AM
S IM
AF P
âĸ ł
ĠìĹ Ĩ
ĠCon cert
( NS
O H
ĠG IF
ĠN GO
ë Ł
ĠMark ets
Ġí Ļ
ag ate
ĠU AE
ar at
s it
/ etc
ĠB I
ĠA AA
ĠBO OK
L G
ĠD LL
ĠN FC
G Hz
PO P
ĠC AD
ĠA H
pc s
( ~
ĠM PL
ļ Į
Ġí ĺ
ĠâĨ Ĳ
AS F
Q A
(... )
ĠF TP
| "
D isk
ĠV AT
( In
LO UD
Ġë ²
TE L
Ġì ĥĿ
íķ ł
/s ite
Ġì §
ĠU FO
ì ¹
IN O
ëı Ħ
ĠF W
Ġë ©
Ġfirst name
ĠH V
& B
ar l
ĠHT C
â ĳ
K im
ĠSTE P
Ġì ²
( ne
Ġìķ Ħ
ĠA SP
ìĿ Į
ĠC X
ĠG I
âĺħ âĺħ
ĠS CP
â Ŀ
C AD
ê ·¸
EM A
.... ...
or rent
J apan
ĠJ P
H Y
ĠE OS
D og
Ġê²½ ìļ°
he e
Int el
ĠE B
% B
ë ¯
C as
ĠP ET
( Un
^ -
ĠJ ung
Ġëĭ ¤
ĠP AY
ĠAL T
Ġâĸ ł
. ct
ĠK Y
X S
ì² ´
ĠU CLA
ë¡ Ŀ
= M
H F
j in
ĠP VC
G PU
-m ore
J D
Ġr pm
ot te
ĠPC B
âĢ¦ âĢĿ
ĠL TD
ĠSe oul
ãģĵ ãģ®
AD M
ĠD G
ìĦ¸ ìļĶ
ST EP
K K
Ġâ Ĺı
ĠCOM MENT
ĠF I
ĠHu awei
ĠRO I
ĠâĢ ķ
!!!! !!!!
Ġìķ Ĭ
HE L
ĠS AS
/ )
ĠP ASS
ĠE co
| -
Ġíķ ¨
\\ \\
âĨ Ĵ
ĠX M
( SE
ĠB W
(c m
ID A
ĠM G
ĠS pl
ĠD V
Î ²
N H
ĸ ī
Ġ? ??
D H
ĠBO ARD
ĠM RI
Ġë© Ķ
ĠL TE
ĠAD HD
OR A
ĠS Q
W ave
IN ATION
íķľ ëĭ¤
ĠEl astic
ĠìĥĿ ìĦ±
% ).
ĠP U
ss a
â ģ
H M
âĢ¦ ..
Ph ot
ON Y
ëĲ ľ
X M
ĠD ong
ĠW B
ĠJ R
" ...
% A
.b iz
ĠBO X
. pe
V K
ab ol
X R
ĠR AW
T ok
ĠB IOS
O E
W B
ë £
ìķ Ħ
K L
Ġâ Ĭ
br ain
ĠE TF
ìĬ¤ íĬ¸
D J
[ K
ĠN AV
ĠH OT
ĠIS P
ëŀ ĺ
ĠM BA
ì ¶
ĠPower Point
ĠHold ings
ê³ ¼
ES C
D G
Y G
UN CH
ĠR PM
/ ~
ãģĻ ãĤĭ
( AP
CC C
Ġ íķĺ
ãģĭ ãĤī
-w ater
ìĹ ´
AR A
L ee
Ġì ¤
Ġëª ¨
Ġê¸ °
M W
ĠK ang
ĠObject ive
ìĽ Ĳ
ĠH DR
~ ,
Ver ified
ark et
ĠJ PEG
w on
ĠS ITE
G U
Ġê ·¸
FA Q
ãĢ ľ
K O
ĠíĮ Į
ì Ĥ¬
âĢ¦ "
ĠD K
ĠO L
G IS
D NA
ĠF ax
ĠP iano
C NN
( IP
ĠP X
COM M
VP N
Ġâ Ĺ
ĠIP A
ĠK M
Ġk im
Ġë ĵ
ĠT G
ĠBL UE
ì ĥģ
E OS
ë¯ ¸
( OS
ĠE G
B et
ĠS UN
ð Ŀ
. |
íĻ Ķ
R W
ĠD FS
Ġìł Ħ
( ..
FT P
ìĹĲ ìĦľ
N i
AB A
ĠD SP
Y O
ĠZ IP
ĠG G
EF I
ĠST AR
r ive
ìĹ ¬
ĠU PS
ëı Ļ
ĠU M
ìŀ ¬
ĠL F
ï½ ¥
Ġâľ Ķ
ł í
ĠN X
.as p
ĠSl ack
ìĺ ¤
A UT
V IS
ĠL ORD
! ?
H K
AB S
Ġe Book
ĠMac Book
ĠA UD
Ġ^ ^
ĠDH CP
j un
AM D
O OM
ê² Į
Ġì¶ Ķ
ĠìĦ ¤
ĠX S
k im
ert z
ĠW AR
W i
Ġì ĥģ
UL A
AT O
ì ¤
ĠI CC
OL ID
ĠP W
ì Ļ
' (
J C
FT A
Ġíķ¨ ìĪĺ
ĠPL US
.d a
ĠDO I
PG A
ãĢį ãĢĮ
ĠìĿ ¸
ĠI RA
L TE
ĠGT A
ï¼ İ
C BS
â ī
ĠIM F
B TC
. +
Se a
âĶ ģ
B io
X B
( SC
ï¼ ĸ
Â ¹
ĠS ung
af ari
Y E
ĠC NC
ì¹ ĺ
ê° ľ
S U
/ arch
ĠL IFE
UN G
| (
Ġìłķ ë³´
ore a
M ob
/ sec
Â· Â·
O X
ëŁ ¬
F ax
ëĤ ĺ
ĠX C
ĠD OC
Ġdump s
ĠDR M
re search
ĠNe ural
IR A
ĠJ C
í ĥ
Ġíķ ´
,, ,
ĠMan aged
? [
ite ch
ĠC J
ĠG mail
Ġë ĮĢ
.... .....
ĠHTTP S
D NS
ĠM TV
AC P
Ġíķ ľ
. !
... ]
ĠB iz
ĠU X
PL US
í ļĮ
k Hz
_T S
ĠðŁ ĳ
ĠX T
K R
ĠG RE
I Q
D V
âĢ ķ
- )
g oo
ĠG X
Ġìł ľ
Ġì °
Ġë§ Į
@@ @@
ĠL v
DF S
ê° Ħ
Ġ ãĥ»
IM S
R ID
ĠAP K
AC A
Ķ Ħ
G W
AC S
Ġë ¶
i OS
SE O
Ġ ï¼
Ġv ip
DA Q
ĠA MP
" ..
Ġíģ ´
ĠN ano
ĠCS R
ĠE W
ĠðŁ Ĵ
ë¶ Ģ
( ft
ë¦ Ħ
ĠI PS
G PS
IT A
ĠH Y
ë£ Į
Ġë³ ´
, +
ĠA FC
ĠW D
ĠS MB
âĢ »
Ġë° ĺ
ê ±
Y M
: D
Ġep ub
L CD
ĠI OS
ëĲ ĺ
.p ol
Re alm
D ream
( World
ĠìŀĪ ëĬĶ
Ġìŀ Ĳ
aa S
K C
ĠS PL
ëĭ ¹
Ġë ı
ëĵ ¤
í ģ
ĠVM ware
K F
ï¼ ĺ
e on
AS P
ĠK R
ĠE RP
íĻ ĺ
ãĢį ãģ¨
ê² ½
ĠâĢ¦ .
Ġë Ħ
S MS
K M
Ġì ¢
Ġì ļ
ìł Ħ
ĠìĦ¤ ìłķ
ĠQ A
AP T
ëĬ ¥
í Į
ĠëĤ ´
ĠG MO
ĠM CU
Â® ,
ĠO G
íķĺ ê¸°
ĠF are
ë Ķ
ĠA TP
M V
ĠPC R
Ex am
F PS
B BC
ĠDirect X
Ġì§ Ģ
ë ĮĢ
ĠI PO
' [
og rad
R H
ï¼ Ļ
ST AR
(m m
Ġ.. ...
Ġmac OS
( Web
ĠDES IGN
mo on
_ ^
Î º
ĠW K
ĠMS I
ĠC OD
ìŀ ĳ
ĠG SM
ĠC OP
ĠâĻ ¥
ĠX R
ĠíĮĮ ìĿ¼
> ('
ĠK L
IB M
F IT
.k r
ĠF AT
ĠY ong
ĠM VC
! ]
V ision
âĢ º
ĠS J
Ġìŀ ĳ
ĠE SL
Ġì¶Ķ ê°Ģ
ĠH DD
ĠSC M
NE WS
ë į
(B it
X E
ĠS AR
ĠP SP
= L
IO C
R SS
ĠT PP
Ġì Ī
/ read
ĠP LC
ì ĥ
Ġí ı
ĠP SA
ĠTh in
ã ħ
& C
ĠM ID
!! !!!
> |
ì¶ ľ
ĠJ J
ĠN K
ĠE MS
ĠK G
âĢľ (
ì ħ
ĠJ E
â ħ
w ang
SC I
Ġë ¡
X i
( IM
DD R
' |
Ġì¤ ĳ
ĠO LED
Ġë¡ ľ
Ġê² ĥ
Ġj pg
ĠX D
! âĢĻ
ĠM SD
N SE
ĳ ľ
Ġì² ĺ
W are
âĨ Ĳ
ia e
ĠDE ST
ë²Ī íĺ¸
ĠS ATA
= S
ĠCN BC
Ġë Ĳ
(S K
ħ Į
ë§ Į
ĠDrop box
Ġd ong
o S
IM A
âĢ¦ )
âĶ Ĥ
ĠM OS
Ġìĺ ¤
PC R
... '
C DC
Ġ? ????
ĠëĤ ĺ
Ġê° ľ
Ġë° °
ĠE MC
r pm
ĠP PP
(C C
Ġ.... ..
ĠRE C
ë ħ
ĠI CT
Ľ Ħ
âľ Ķ
Ġí ĥ
ĠK ak
& page
ĠAS US
| [
ĠC IS
Ġë° ©
DT V
Ġì Ļ
PH ONE
ĠK DE
ë Ħ
che on
d ong
Sk etch
ĠA AC
ĠV GA
ðŁ ĺ
Ġíķ Ħ
AB OUT
- II
K H
ĠSH OP
ĠL X
ĠO BS
ãģ§ ãģ¯
ĠShare Point
N K
ĠJ B
âĨ ĳ
ìĭ Ŀ
ĠS PA
( Fl
ì ĥĿ
Ġë Ķ
K Y
âĻ ¥
? -
ĠB K
T G
( Be
Ġëĵ ±
D VD
ìĥ ī
ĠìĹ °
ĠRIGHT S
ĠK T
Ġp pt
ĠK P
Ġì Ĩ
ĠRA ID
ĠQ S
WH O
Ġm RNA
Ġ~ ~
ĠâĨ ĵ
J V
(N O
íķ ¨
CO VID
ê³ µ
Y T
Ġê° Ļ
CE O
m Ah
K W
M RI
SH OP
ë² Ħ
âĨ ĵ
S OC
ĠD SM
Ġì Ĭ
Ġì ĸ
| #
ì Ĥ
AS A
ĠSM ART
EM S
ëª ħ
ë¶ Ħ
ĠP GA
Ġë¬¸ ìŀĲ
COM MENT
ĠE CB
I U
- IN
ĠRE VIEW
ĠTO UR
ĠK H
ĠC ES
ĠSC I
Z Y
ìĻ Ģ
ĠO CR
Ġë³Ģ ìĪĺ
ĠG V
ĠO TP
ìľ Ħ
ĠSales force
ìł ģ
K I
Ġì²ĺ ë¦¬
F DA
íģ ¬
G s
AG R
you ng
J T
ĠS OS
H u
A AD
. ?
Ad obe
ë¡ľ ê·¸
ëĵ ł
Ġë° Ķ
ĠG AM
ĠB TS
ĠIS IL
íķĺ ìĹ¬
ï¼ ŀ
( AT
ĠG IS
|| (
âĸ º
(A rt
ìĭ ł
( The
Ġê² °
ĠL H
ê° Ĵ
ĠST ORY
DS L
ĠO PS
( CH
ë¥ ¸
ëĭ Ī
.. '
ê ¹
ĠT ED
. âĢ¦
ĠGB P
âĢ ł
ìł ¸
ê¸ Ģ
ĠâĢ »
IM O
ĠìĹ ¬
ĠìĿ ¼
Ġë° Ľ
Ġë¦¬ ìĬ¤íĬ¸
ì§ ¸
& R
ag et
G b
S AT
Ġí ĶĦ
ER P
ĠIS A
ĠH CI
G X
/ IP
ĠY M
Ġë² Ī
ë© Ķ
J R
ĠAN C
ìĤ °
ì§ Ħ
Ġê² Ģ
Ġë¶ Ģ
Ġì Ľ
ĠL DL
Review er
ĠR TP
ĠRF ID
BU Y
Ġìļ Ķ
OL F
ĠìĿ´ ë¦Ħ
( EC
Ġ á
M bps
ĠA PC
ĠC PA
íĥ ľ
ĠB J
ĠC PI
ĠCh oi
ens is
ĠSP F
ĠO O
Ġë² Ħ
| M
Ġi Cloud
ĠCS I
SP A
IC C
ĠI MS
IN I
íķĺ ì§Ģ
ĠJ T
C AS
ëª ©
Ġë³Ģ ê²½
ĠL NG
# .
ê µ
( IT
ĠGar min
ĠPS I
ĠCD N
) ..
ĠìĪĺ ìłķ
ì °
IP A
ê² °
Ġê°Ģ ìł¸
Q M
ĠJ PG
ĠK A
( IC
ê ·
Ġì »
Ĩ µ
ëĶ Ķ
& S
ĠJ L
ĠF PGA
ï¼ į
H Q
ìķ ¼
ëŀĺ ìĬ¤
ĠìĦ ľ
ĠG AP
ìľ¼ ë©´
IR S
OT P
ĠìĹ Ĳ
ĠìĿ´ ë¯¸
ĠPCI e
Ġì ¹
AE A
ĠGD PR
Ġë°° ìĹ´
C isco
Ġíĺ ¸
Ġj t
íķĺ ìĦ¸ìļĶ
Ġb j
ĠC CC
ì£¼ ìĦ¸ìļĶ
ħ §
F ed
ank y
ìħ ĺ
E CH
... (
ĠO CI
Ĥ ¤
ðŁ Ĵ
ê± °
art ner
ĠV OC
ĠC NS
/A IDS
- ST
ĠP SG
ĠS MP
Ġâĺ Ĩ
? ]
ĠA OL
Tr ader
Ġíģ´ ëŀĺìĬ¤
ĠJ K
ĠO ST
( SS
âłĢ âłĢ
Ġê°Ĵ ìĿĦ
ìļ ´
ìŀ Ħ
Ġìĭľ ìŀĳ
ĠC FO
ong a
Ġê³ Ħ
Ġí ĽĦ
Can on
L td
Ġíķ´ ëĭ¹
CT S
Ġë°ĺ íĻĺ
ì ¦
B EST
Ġíķ ł
ĠShop ify
ĠC RT
ĠðŁ Ķ
âĢĻ )
ĠC PC
Ġìķ Ī
ëĤ ´
Ġì´Ī ê¸°
Ġê°Ģ ëĬ¥
Ġk ak
( PC
ï¼ ı
ĠJ W
Ġíĺ¸ ì¶ľ
ĠCent OS
Ġë§ Ī
ĠS DS
Ġìĺ Ī
ĠP lex
Ġë° ľ
íķ´ ìĦľ
ĠH DC
ĠOT A
Mon key
ĠIO C
( IR
ë ¸
M Z
.x xx
â ŀ
ĠD PI
ĠëĲ ĺ
Ġì¡° íļĮ
Ġê ±
ab ay
/ board
+ _
% p
BM W
ë³ µ
EL S
ë¥ ĺ
Ġí ļĮ
ĠE DM
Y W
) âĢĿ
ĠR CA
Ġì¢ ħ
- ROM
---------------------------------------------------------------- --------------------------------
ĠT FT
Į ¨
TH R
Ń Ĳ
Ġê²° ê³¼
ĠW AN
V IP
Fe at
( IB
Ġíı ¬
Ġê² Į
íĬ ¼
ĠìľĦ ì¹ĺ
ĠW TO
å į
æ ķ
é Ŀ
å ŃĲ
ç Ļ
éĿ ¢
é ĥ
éĥ ¨
å ĭ
ç ķ
åį ģ
ç ¡
ç ¦
çĻ ½
åį Ĺ
çĻ ¾
ä¸Ń åĽ½
éĿ ŀ
é ĸ
åį Ĭ
åį ĥ
æĸĩ åĮĸ
æ Ĺı
æķ ħ
ä¸ĸ çķĮ
ç¦ ı
å į°
çĻ ¼
é ½
è Ĺı
åĭ ķ
ç ħ
è «
éĸ ĭ
é Į
æķ ¬
éĸ ĵ
åį Ī
é ĽĦ
å ħ§
åį Ģ
æķ ¸
éĸ Ģ
è« ĸ
åĮĹ äº¬
é Ħ
åĭ ¢
æĹ¥ æľ¬
ç¦ ®
éĮ Ħ
éĿ Ī
é İ
ä¸Ń åľĭ
çķ °
éĥ ¡
åĭ Ŀ
æķ µ
è« ¸
éŁĵ åľĭ
ãĢ Ķ
ãĢ ķ
é½ Ĭ
éĦ Ń
åį ¯
ä¸» ç¾©
æĿ± äº¬
å¹´ çĶŁ
ãģĹ ãģŁ
ëĭĪ ëĭ¤
ãģĹ ãģ¦
ãģª ãģĦ
í ĸ
ìĹ ħ
í ı
Ġê µ
Ĵ Ī
íķ Ļ
êµ Ń
ê³ Ħ
ìĹ Ī
ëł ¤
ìĬµ ëĭĪëĭ¤
íķ ©
í ĴĪ
ë į°
ë¥ ´
Ġê³ µ
ĠìĨ Į
í ĸī
ëĭ ¨
ë§ Ī
íĸ Ī
ëł Ī
í ħ
ê¸ Ī
ê¹ Į
í İ
ãģĦ ãģ¦
Ġìľ ł
Ġìĸ ´
ìľ ł
ëħ Ħ
í ŀ
ì Ī
ìĹ °
Ġë ¯
ìĦ ł
ìķ Ī
í ĶĦ
ìł Ģ
ë¯ ¼
Ġí Ĭ
Ġê ·
ìĺ ģ
íŀ Ī
í ĭ
Ġë¶ Ħ
ìĭ ¤
ë© °
ìĹ Ń
ë° ĺ
ìĭ ¬
ìĨ į
í Ķ
Ġê³ ł
Ġìĭ ł
ĠìĿ ĺ
Ġëı Ħ
êµ Ĳ
ë° ©
ìķ ½
ì ¢
ëŀ Į
ì ¼
ĠìĦ ł
ĠìĦ ¸
Ġë į
Ġë ħ
Ġì Ĥ
Ġì ¦
íı ¬
ê² ©
± ħ
í Ĺ
Ġëĭ ¹
Ġí Ŀ
ë° Ķ
í ĳľ
ë² ķ
ê° ģ
Ĩ ł
ï¼ Ĭ
ë ģ
Ġìļ °
Ġêµ Ń
Ġëı Ļ
Ġìĺ ģ
Ġë Ĭ
í Ĩµ
ì° ¨
íĥ Ģ
ìĸ ĳ
ê ´
ìĺ Ģ
ëĭ ĺ
ê² ł
Ġìŀ ¥
Ġì§ Ħ
Ġê ¹
ìĿ´ íĬ¸
Ġí Ķ
Ġí İ
Ġí ĸ
ê± ´
ê¸ ī
ì§ Ī
í ħĮ
ë¦ ½
ì ¡
ë ¨
í Ŀ
ì ¸
íĸĪ ëĭ¤
ãģ« ãģ¯
Ġë¯ ¸
Ġí Ĩµ
ĠìĦ ±
Ġë§ Ĳ
Ġìł Ģ
Ġìł ģ
Ġëĭ ¨
Ġì ĥ
ì¤ ĳ
ëª ¨
ì² Ń
ì¦ Ŀ
ëĤ ľ
ë£ ¨
Ī ¬
ìĽ Į
ì Ķ
íķ© ëĭĪëĭ¤
Ġìĭ ¤
Ġêµ Ĳ
ìłģ ìĿ¸
Ġìķ Į
Ġê° ķ
ĠìĤ¬ ëŀĮ
ëłĪ ìĿ´
Ġë ¸
Ġë Ī
Ġë ¹
ìł Ĳ
ë³ ¸
ì² ĺ
ìĪ ł
ê »
ëł ¨
íĹ ĺ
ìķ ĺ
ëŁ ī
ë ´
ë ¹
ë ĸ
íķĺ ê³ł
ìĹĲ ê²Į
Ġê± °
ĠíĻ ķ
Ġìŀ ¬
Ġë¶ Ī
ĠìĿ´ ìļ©
Ġì¢ ĭ
Ġì¶ ©
ê² ĥ
ë° ľ
ìĦ ¤
ë§ ¤
ëį Ķ
ì¹ ´
ì¢ ħ
ëĤ ¨
ì¤ Ģ
íħ Ķ
ìļ ¸
ëį ĺ
íĭ °
ê´ ĳ
ë¦ °
ìł Ī
ê° Ŀ
ëŀ ĳ
ëł ¹
í ļ
ë Ŀ
ë ĥ
ĠìĬ ¤
ì§Ģ ë§Į
ĠìĽ Ĳ
Ġíĺ Ħ
ĠíĬ ¹
Ġê° Ĳ
Ġë§ ¤
Ġëħ ¸
Ġì¶ ľ
Ġê³ ¼
ĠíĻ ľ
Ġìł Ĳ
Ġë Ĩ
Ġë ģ
Ġë ĸ
ìĺ Ī
ì§ ģ
í Ĩł
íķ Ń
ë¸ Į
ìĦ Ŀ
ì ±ħ
í Ĥ¤
ëĦ Ī
ì¦ Ī
ì »
ì¹ ¨
ì¼ Ģ
ë Ī
ì¸ ł
ëŁ ½
ì ½
ìĿ´ ëĭ¤
ëĵ¤ ìĿ´
Ġì° ¨
ë©´ ìĦľ
Ġìļ ´
ĠëĤ ¨
Ġìĺ ¬
Ġì¹ ´
Ġëª ©
Ġë§ ŀ
Ġì ±
ĠíĬ ¸
Ġí Ĺ
ìŀ Ī
ëĵ ±
ê° Ĳ
ë° °
íĮ Į
ëĭ ¬
ìĻ ¸
íĮ Ĳ
ë³ Ħ
íİ ĺ
ê» ĺ
ìĨ ¡
íĸ ¥
ë¶ ģ
ī ´
ìĽ Ģ
íĻ ©
ì¡ ±
íļ į
ë Ĩ
ëĿ ½
ëħ Ģ
ĠëĶ °
ê¹Į ì§Ģ
ìĿ´ ëĿ¼
ìłģ ìľ¼ë¡ľ
ìĹĪ ëĭ¤
ĠìĿ Į
Ġì° ¸
Ġê± ´
Ġëĵ ¤
ëĭ¤ ëĬĶ
ĠìĹ Ń
Ġì² ´
Ġí ĸī
ĠíĻ Ķ
Ġëª ħ
ĠìĹ ħ
ĠìĥĿ ê°ģ
Ġíķĺ ëĤĺ
ĠìķĦ ìĿ´
Ġìĭ Ŀ
Ġì§ ĳ
ĠíĶ Į
ĠìĻ Ħ
Ġë³ µ
Ġí ļ
Ġì¦ Ĳ
Ġì º
ë°Ķ ìĿ´
Ġí Ľ
ìĽ Ķ
ë¶ Ī
ê· ¼
ì§ ĳ
íĻ ľ
ìľ ¡
íĶ Į
ìĸ ¸
ëŁ °
êµ °
ëı ħ
ë¡ ł
ë¦ ¼
ëĬ ĺ
ëŀ ľ
ë¨ ¸
ëŁ ¼
ëł ĩ
ìľ ¨
ìħ Ķ
ì £
ï¼ Ŀ
Ġëį Ķ
ë¶Ģ íĦ°
Ġìļ° ë¦¬
Ġíķ Ļ
Ġê¸ Ī
Ġìłľ ê³µ
Ġì§ ģ
Ġíı ī
ëĬĶ ëį°
Ġí ĳľ
Ġê° Ħ
ĠíĻ ĺ
ĠìĻ ¸
Ġëĵ ľ
Ġì¦ Ŀ
Ġì² Ń
Ġí Ī¬
Ġê· ¼
Ġìķ ŀ
Ġì° ¾
Ġë² ķ
Ġìĸ ¸
ëĭ¤ ê³ł
ĠëĪ Ħ
Ġì° ½
ĠíĮ ¨
ĠëĬ Ĳ
Ġê³ ³
ëĿ¼ ìĿ´
Ġíĸ Ī
Ġí ŀ
Ġì ĵ
ëĿ¼ ìļ°
Ġì ħ
ë§ Ĳ
íĶ ¼
ëħ ¸
íĻ ķ
ë³ Ģ
íİ ¸
ë° Ľ
ì² ľ
ë° ķ
ëĭ ´
í ĥĿ
ì¶ ķ
ëŀ Ģ
ë§ Ŀ
ìķ ħ
ìķ ¡
ê² ¬
į ¼
ë² Į
ìĭ Ń
íĮ ħ
ëŀ ¨
íħ ľ
ëĵ Ŀ
ë¡ Ģ
ì ³
íħ Ĳ
í Ľ
ë¯ Ģ
ë ľ
ãģ¨ ãģĹãģ¦
ìŀħ ëĭĪëĭ¤
Ġíĺ¸ íħĶ
Ġë§ İ
ë¹Ħ ìĬ¤
Ġë³ ¸
ëĵ¤ ìĿĺ
ëĵ¤ ìĿĢ
ìľ¼ ë©°
Ġë į°
ĠìķĦ ëĭĪ
ĠìĹ ´
Ġëĭ ¬
Ġíİ ¸
ĠëĶ Ķ
ĠìĤ ´
Ġíģ ¬
Ġìĭ ¬
Ġìłľ íĴĪ
Ġëª »
Ġìĥģ íĴĪ
Ġì§Ħ íĸī
Ġë¬¸ ìłľ
Ġë¸ Į
Ġìŀ Ħ
Ġì± Ħ
Ġë°© ë²ķ
ĠëĤ´ ìļ©
Ġê³ł ê°Ŀ
Ġìł ĳ
Ġê ´
Ġë¯ ¼
Ġë ł
Ġê· ľ
Ġëı ħ
Ġìł Ī
Ġíļ ¨
Ġìĭľ ìŀ¥
Ġë¸ Ķ
ìĿ´ ìĬ¤
ëĭĪ ê¹Į
ìŀĳ ê¶Į
Ġí Ĵ
Ġë Ł
ìĿ´ ìħĺ
í ĽĦ
ê° ķ
ì¶ Ķ
íĬ ¹
ë ·
í Ī¬
ëĤ ł
ê² Ģ
ìķ ł
ê· ľ
ë³ ĳ
ë¸ Ķ
ë ī´
ê¸ ¸
ëĲ ©
ìĻ Ħ
ìĦ ¼
ìĸ µ
ê³ ³
ìĿ ĳ
ê· ¹
ë§ ī
ìĶ ¨
ìĿ µ
ì° ©
ë° Ģ
ê² ¨
ëĭ µ
ì° °
í ľ
ì Ł
ìŁ ģ
ì½ ĺ
ë¨ ¼
ìĻ Ķ
í ĥģ
ë¦ Ń
ì º
ëĦ Ĳ
ë¥ ł
ìĽ ĥ
ì ¿
íķ ĳ
ë¡ ¯
ìĹ ĩ
ì ĩ
ëŀ «
ãħ ĭ
íĬ ľ
ãħ İ
í Ĩ
ìĹĲ ëĬĶ
ĠíĶ ¼
Ġìĥ Ī
ĠíĶĦ ë¡ľ
Ġì§Ģ ìĽĲ
ëıĦ ë¡Ŀ
ĠíķĦ ìļĶ
Ġìĭľ ê°Ħ
ĠëĨ Ĵ
Ġíĥ Ģ
ëĲĺ ìĸ´
íķĺ ëĭ¤
Ġê´Ģ ëł¨
Ġì§Ģ ìĹŃ
Ġë§Į ëĵ¤
ĠìĨ Ĳ
ìĿ´ ì§Ģ
ìĺĢ ëĭ¤
Ġê·¸ ëŁ¬
Ġì ±ħ
Ġíķ ©
Ġíķ Ń
ìĹĪ ìĬµëĭĪëĭ¤
ìĤ¬ ë¥¼
Ġì§ Ī
Ġëı Į
Ġìķ ł
Ġíĺ ķ
Ġëł Ī
Ġëĭ ´
ëŀľ ëĵľ
Ġë°ľ ìĥĿ
ìĿ´ íĦ°
Ġíĺ ĳ
Ġì¹ ľ
Ġìĭ ¶
Ġíĸ ¥
Ġìĥģ íĻ©
Ġíŀ ĺ
íķĺ ìĭľ
ìĭľ ìķĦ
Ġë§Ī ìĿĮ
Ġìĵ °
ĠìĤ¬ ìĿ´
Ġë³ Ħ
Ġê° ĸ
Ġì¶ ķ
Ġë¶Ģ ë¶Ħ
Ġí ľ
ĠìĻ Ģ
Ġë§ Ľ
ëĭĪ ìĬ¤
Ġì ½
ë¯Ģ ë¡ľ
¤í ĥ
íĨµ ëł¹
Ġëĸ ¨
Ġì ¸
íħĲ ì¸ł
ëĶĶ ìĺ¤
ìĸ´ ëĵľ
Ġë ĥ
ë°ĶìĿ´ ìłĢ
ëįĶ ëĿ¼
Ġí ħ
íı ī
ëĦ ¤
ë² ł
ìĪ ľ
ìĬ ¹
ì ´
ë² Ķ
ë§ ģ
ì¡ Į
âĹ ĭ
ìĽ ¨
íı °
ì³ Ĳ
ì° ¬
ëį ¸
ë² ¤
ëħ Ĳ
ìķ Ļ
ë² ½
ìħ ¨
íģ ¼
ë¡ Ń
íĶ ½
íĭ ±
ê ¿
ê ¼
ëĤ Į
ë ĩ
Ġê¹ Ģ
ëĲ© ëĭĪëĭ¤
ĠìĤ °
ĠìĦľ ë¹ĦìĬ¤
ĠëķĮ ë¬¸
ê¸° ë¥¼
ëĵ¤ ìĿĦ
íķĻ êµĲ
Ġì¹ ĺ
Ġìķ ½
ĠíĮ Ĳ
ìłķ ë³´
ê±° ëĤĺ
Ġëĭ¤ ìĿĮ
Ġë° Ŀ
ĠìĨ į
ĠìŀĪ ìĸ´
Ġë² ł
Ġê°ľ ìĿ¸
Ġì¤ Ģ
ĠìĪ ľ
ëĮĢ ë¡ľ
ĠìŀĲ ìĭł
Ġì» ¤
Ġê°Ģ ê²©
Ġíı¬ íķ¨
ĠëĦ Ī
Ġíİ ĺ
Ġí ħĮ
ë¦¬ ìķĦ
ìĿ´ ê³ł
ĠíĹ Ī
Ġìłķ ë¶Ģ
Ġì¤ĳ ìļĶ
ìĬ¤ íħľ
íĻĶ ë¥¼
ĠìĿ´ ìķ¼
ĠìĤ¬ ìĭ¤
Ġìĸ ¼
Ġë¹ ł
Ġëħ ¼
ĠëĤĺ íĥĢ
Ġê·¸ ëŀĺ
ĠëıĦ ìĽĢ
ĠíĻľ ìļ©
ĠìĿ´ ìľł
ê²ł ìĬµëĭĪëĭ¤
Ġê´Ģ ê´ĳ
ë¦½ ëĭĪëĭ¤
ĠìķĮ ëł¤
ĠìĤ¬ ìĿ´íĬ¸
Ġìĺ¤ ëĬĺ
Ġì» ¨
ĠìĽ ¹
ìĭĿ ìĿĦ
Ġìĸ´ ëł¤
Ġìĥģ íĥľ
Ġíļ¨ ê³¼
ĠìŀĪ ìĹĪ
ĠìĿ ĳ
Ġê·¸ ê²ĥ
íķĺ ìĺĢ
Ġì¸ ¡
Ġëĭ¹ ìĭł
ĠëĮĢ íĨµëł¹
Ġë¬´ ìĹĩ
ìĿ´ ëĵľ
ëĶĶ ìĸ´
Ġëĸ¨ ìĸ´
ĠìĹ Ħ
ìĸ´ ëĤĺ
ìĭľ íĤ¤
ĠíĴ į
Ġëĸ ł
ë¥´ ê²Į
ĠìŀĪ ìľ¼
íķĺ ëł¤
ìĿ¸ íĬ¸
ìĤ¬ ìĿ´íĬ¸
ìĬ¤ íĨł
íĶĦ íĬ¸
Ġê·¸ ëłĩ
ĠíļĮ ìĤ¬
ĠëĿ¼ ìĿ´
ëŁ¬ ìĬ¤
Ġë ľ
ĠìķĦ ë¦Ħ
Ġê ¼
ìķĦ ìļĶ
¤í Ķ
íħĮ ê³ł
ëĿ¼ìļ° ìłĢ
ìĸ´ëĵľ ë°ĶìĿ´ìłĢ
ìĹħ ìĿĦ
Ġìĭ ±
ëıĻ ìĿĦ
êµŃ ìĿĺ
Ġë ´
Ġë ŀ
İ ĺ
ìĹ Ĩ
ê° Ļ
ë§ İ
ì° ¸
ë· °
ìĺ ¬
ìĺ ¨
ìł ĳ
ìĨ Ĳ
ì ±
ëĬ Ĳ
ë° ±
íģ ´
ëª »
ëĪ Ħ
íĿ ¬
í į¼
ìĹ ¼
ìŀ ¡
ë´ ī
íĥ Ī
ì ĵ
ê¸ ´
ì§ ķ
ê· ł
ëĦ ·
ìľ µ
ëĨ ĵ
ëł ¸
íı Ĳ
ëŀ į
ëŀ µ
ëĭ Į
ì§ ľ
ëĸ »
ëĸ ł
ì¢ Į
ĳ ¸
ë Ĥ¬
êµ ´
ìĹ ĺ
ëľ »
ë£ ¹
ì¼ ľ
ë¶ Ļ
ë° ĸ
ì£ Ħ
ë§ ¨
ìĺ µ
ì¹ Ļ
íĥ ķ
íı ¼
ì¼ ĵ
í Ĥ
ëŀ Ļ
ëģ Į
ìĶ Ģ
ëª ¬
ëŁ Ń
ìł Ŀ
ë¡ ¤
íİ ´
ì¦ Į
ì¦ ĺ
ì¶ ¤
ëł ´
ëħ ķ
ìħ ľ
ìĬ ·
ëģ Ķ
ë ¬
ãħ ł
ì ģ
ëĵ Ń
ìĦ °
ëĭ Ļ
ëĩ ¨
ë¥ Ń
í Ģ
ëĬ Ħ
íķĺ ê²Į
Ġì§Ģ ëĤľ
ëĲľ ëĭ¤
ëĲĺ ëĬĶ
ĠìĿ´ ìĥģ
Ġë° ķ
Ġìŀ ĺ
Ġê° ģ
Ġê¸ Ģ
Ġìĺ ¨
ìĦ¼ íĦ°
ë¦¬ ëĬĶ
ĠìĹ¬ íĸī
Ġëĵ¤ ìĸ´
ĠëĤ ł
Ġìļ´ ìĺģ
Ġê·¸ ë¦¬
Ġê´ ĳ
ëī´ ìĬ¤
ĠëĦ ¤
ĠìĦ¸ ê³Ħ
ìķĺ ëĭ¤
ĠëĮĢ íĳľ
Ġê± ¸
Ġê¸° ìĹħ
ê¸° ëıĦ
Ġí Ĩł
ì§Ģ ë¥¼
ĠìĤ¬ íļĮ
ìŀĲ ìĿĺ
ĠìĹ¬ ëŁ¬
ĠëĪ Ī
ëĵ¤ ìĹĲê²Į
ëĿ¼ ìĿ¸
Ġíĥ ľ
ìľĦ ìĽĲ
ëł¥ ìĿĦ
ìŀ¥ ìĿĦ
ìŀĪ ëĬĶ
ì²ĺ ëŁ¼
Ġìłķ ëıĦ
ĠìĤ ¼
Ġë¶ ģ
ìĥģ ìĿĦ
Ġê¸° ëĬ¥
ĠìĿ¸ íĦ°
Ġì§Ģ ê¸Ī
Ġê´Ģ ê³Ħ
ĠìŀĲ ëıĻ
ĠìķĪ ìłĦ
ĠëĦ ĺ
Ġê¸ ¸
ĠìĪ Ļ
ë¡ľ ëĤĺ
ìĭľ ìĺ¤
ìŀĲ ìĿ¸
ê¸° ìĹħ
ĠìĿ¼ ë°ĺ
Ġê³Ħ íļį
ìĸ´ ìļĶ
Ġêµ¬ ìĦ±
ë¡ľê·¸ ëŀ¨
Ġê· Ģ
ĠìĬ ¹
Ġì¹ ¨
ë³´ ê¸°
ĠìĺĪ ìłķ
ĠíĻ į
Ġëª¨ ìĬµ
ĠìĿ Ģ
Ġíľ ´
Ġë© ´
Ġëģ Ŀ
ìĬ¤ íģ¬
íļĮ ìĿĺ
ĠìĤ¬ ëŀĳ
ê°Ģ ì§Ģ
Ġìº Ĳ
ĠìĽ Ķ
Ġì½ ĺ
Ġê´Ģ ìĭ¬
ĠëĬ ĺ
Ġíĳľ ìĭľ
ĠìķĦ ëŀĺ
Ġê³ ¨
Ġë°ľ íĳľ
ìĹ° êµ¬
ë§Ī íĬ¸
Ġì²´ íģ¬
Ġê²½ íĹĺ
ĠìķĮ ìķĦ
ĠìĿĺ ë¯¸
ĠìĤ¬ íķŃ
Ġê¸° ë³¸
Ġìŀ ¡
Ġìłķ ì±ħ
Ġìŀ ł
ëĭ¤ ë©´
ëĭĺ ìĿĺ
ĠëĬ ¥
Ġì§Ģ ìĨį
ì¹ĺ ë¥¼
Ġìĥ ī
Ġë³´ ìĹ¬
Ġê³¼ ìłķ
ĠìĤ ¶
ë¶Ģ ë¶Ħ
ĠìĿ ½
Ġë² Ķ
Ġëª ¸
Ġë¶Ħ ìķ¼
Ġìķ Ķ
ĠìŀĲ ìĦ¸
Ġë² Į
Ġì £
ì£¼ ëĬĶ
Ġíĺ ¼
Ġê²Į ìĭľ
Ġíĥ Ħ
ĠíĹ ¤
Ġë ī´
ë°° íı¬
ìĿ¸ ê°Ģ
ê°Ģ ëĬ¥
ìĽĲ ìĿĦ
ĠëĤĺ ìĺ¤
ĠìłĢ ìŀĳê¶Į
Ġë°Ķ ìĿ´
ĠìĿ´ ê²ĥ
Ġí Ħ
ĠíĿ ¬
ëłĪ ìĬ¤
ëĦĪ ì§Ģ
ìĨĮ ëħĦ
ìłĦ íŀĪ
Ġí ĭ
ìļ° ìĬ¤
ìĿ´ íģ¬
ĠëĦ £
ë¦° ìĿ´
Ġëª© íĳľ
ëıĻ ìķĪ
ĠìĹ¬ ê¸°
ì§Ģ ë§ī
Ġìłķ íĻķ
Ġíĺ ¹
Ġê ¿
ëŁ¬ ìļ´
Ġì Ķ
ĠìĿ µ
Ġíĺķ íĥľ
ëĲĺ ìĹĪ
Ġìłģ ê·¹
Ġë¹Ħ ë¡¯
Ġì ĩ
Ġìĩ ¼
ĠíĶĦ ë¦¬
Ġê¹ Ĭ
Ġíı ´
ĠëĬĲ ëĤĮ
ê»ĺ ìĦľ
ë¨¸ ëĭĪ
Ġìĸ¸ ìłľ
ìłľ ë¡ľ
ë¦¬ ìĸ´
Ġë³´ ìľł
ìĽĮ íģ¬
ĠìĽ Ģ
ë¡Ń ê²Į
Ġê°Ģ ê¹Į
ĠìĽ¹ ìĤ¬ìĿ´íĬ¸
Ġëĥ ī
ĠíĿ Ķ
Ġìµľ ì´Ī
Ġì¶© ë¶Ħ
ë£Į ë¥¼
Ġê·¸ ëħĢ
Ġë© Ģ
ëĿ¼ ìĬ¤
ìĬµ ëĭĪê¹Į
Ġë¶Ħ ìľĦ
Ġì¹´ íħĮê³ł
Ġìĥģ ëĮĢ
ìŀĦ ìĿĦ
Ġë¸Į ëĿ¼ìļ°ìłĢ
ìĦľ ê´Ģ
ëĵľ ë¡ľ
ìĬ¤ íĮħ
ë¶Ī ìĸ´
Ġë©Ķ ìĭľ
ìĬ¤ ëŁ½
Ġì² ¨
Ġíĺ ľ
ê±° ìļ´
íĶĮ ëłĪìĿ´
íķ´ìĦľ ëĬĶ
Ġìĺ¬ ë°Ķ
ì¼Ģ ìĿ´ìħĺ
ëıĻ ë¬¼
ë®¤ ëĭĪ
ë¯¼ ì£¼
¤í Į
ë¨¼ íĬ¸
ë°ĺ ê¸°
ë¬¼ ê´Ģ
ëĭĪ íĦ°
Ġê°ĢëĬ¥ ìĦ±
Ġë ¬
ìķĦ ê°Ģ
ìŀĳ ìĦ±
íķĺ ê²ł
Ġë¶Ģ ëĵľ
ìĿ´ ë¸Ķ
ĠìĪĺ ìĪĺ
ê³µ ì§Ģ
ìĿ´ ëĦĪ
Ġê¸ į
ë¬´ ë¦¬
ĠíĽ Į
Ġëį §
Ġë ¥
Ġë³Ħ ëıĦ
Ġê¸° íļĮ
Ġëŀ ľ
Ġìľ ¼
ëį° ìļĶ
ìĭľ ì½Ķ
íħĮ ìĿ¸
ìĿĦ ê¹Į
ë£¨ ë¯¸
íķ Ħ
ì¢ ĭ
ìĥ Ī
ì° ½
íĮ ¨
ëı Į
íļ ¨
ëĲ Ĳ
ì² ł
íĹ Ī
ìĪ Ļ
ìĤ ¼
ìĸ ¼
ê° Ī
íĥ Ħ
ì¸ ¡
í ĮĢ
íľ ´
íı Ń
ë¹ ł
ëħ ¼
ìĹ Ħ
í Ĵ
ì» ¨
ì¸ µ
ë¦ ´
ì£ ł
âĹ Ĩ
ìļ ķ
ëĸ ¤
ì» ´
ëª °
íĽ Ī
ëĵ ¯
ëł Į
ì£ ½
ìļ ±
íĿ ¥
ëĨ Ģ
ìĬ Ī
íĭ Ģ
ëģ ¼
í ĳ¸
ê° ĳ
ìĩ ¼
ìĭ ±
ê¹ ¨
ï½ ľ
ëĥ Ĳ
ê ½
ĩ ´
ë² ¨
ìĬ ¨
ëĤ ©
ì§ Ĳ
ì² ¨
íĤ ¨
ëĤ ¸
ê° Ķ
íĿ ¡
ì¶ ĺ
ëł ī
ëĭ ¥
ëĥ ¥
í Ĥ¬
ëĥ Ī
âĹ ĩ
íľ ĺ
ë´ Ĳ
ê´ ´
ëł µ
ë ¢
ë¢ °
ìĩ Ħ
ê² ģ
ìĽ ł
ëŀ Ĳ
ì´ ¬
ì§ ĵ
ì½ ©
ê¹ Ķ
ì§ Ŀ
ëĭ Ĳ
ì³ ¤
ëŁ ´
ì¶ °
ë ĳ
ì» µ
ê² ¼
ë ¤
ë¤ Ħ
íĽ ¼
ëħ ģ
âĿ ¤
ì¤ į
ìĬ ´
ëĭ ·
ê» ´
ë´ ĩ
ìĶ ¬
ï½ ¢
ë ±ħ
ì° ®
ë© ¤
ìĦ ¯
ë¦ ħ
ë· Ķ
ì¼ °
ãħ ĩ
ë´ ħ
ì Į
ë² ¼
ë§ µ
ãĢ Ī
ã Ī
ãĪ ľ
ëĪ Ķ
ëģ Ĺ
ë Ģ
ëĢ Į
ëĤ Ħ
ìŀ ĸ
íĨ ¨
¼ Ī
ëĥ ħ
ë© ķ
ì¿ Ħ
ëľ ¸
ãħ £
ëĵ Ī
ì ©
ì© Į
¼ Ĳ
ëŀ ¬
ê¿ Ķ
ë³ į
ĠëĮĢ íķľ
Ġíķľ êµŃ
ĠìĿĮ ìĭĿ
Ġíķ¨ ê»ĺ
Ġê²ĥ ìĿ´
ĠëĶ° ëĿ¼
Ġ íķĺëĬĶ
Ġìĸ ĳ
íķĺ ë©°
ĠíĻķ ìĿ¸
Ġëĭ¤ ìĸĳ
íķĺ ë©´
ìĹĲ ëıĦ
Ġê¸° ìŀĲ
Ġì ´
íķ´ ìķ¼
ĠìĦľ ìļ¸
ì§Ģ ëĬĶ
ìĭľ ê°Ħ
ìĿ´ëĿ¼ ê³ł
ë³´ ëĭ¤
ìŀĲ ê°Ģ
ĠìĤ¬ ìĹħ
Ġëª¨ ëĳĲ
ë¦¬ ë¥¼
ĠìĿ´ ë²Ī
ë¡ľ ìļ´
ĠìĤ¬ ì§Ħ
Ġë¬´ ë£Į
ĠìĹ° êµ¬
Ġê°Ģ ì§Ģ
ìŀĲ ëĬĶ
ĠêµĲ ìľ¡
Ġê¸° ìĪł
íĸĪ ìĬµëĭĪëĭ¤
ê·¸ ëŀ¨
Ġì¤ Ħ
ĠìķĬ ëĬĶ
ĠíĺĦ ìŀ¬
Ġë°Ŀ íĺĶ
ĠìłĦ ë¬¸
Ġì£¼ ë³Ģ
ĠëĲ ľ
ìĤ¬ ëĬĶ
ê¸° ê°Ģ
Ġê·¸ ëŁ°
Ġë° ±
Ġìµľ ê³ł
ĠêµŃ ëĤ´
ìŀ¥ ìĿĢ
ìĿ´ëĿ¼ ëĬĶ
ìĿ´ ëĬĶ
ìĤ¬ ê°Ģ
Ġìµľ ê·¼
ĠìĦ¤ ëªħ
ëłĩ ê²Į
Ġêµ¬ ë§¤
Ġì°¸ ìĹ¬
Ġê´Ģ ë¦¬
ĠëĮĢ ìĥģ
Ġì² «
Ġë°Ķ ë¡ľ
ĠìĿ¼ ë³¸
Ġê¸° ì¤Ģ
Ġë³´ ê³ł
ëĵ¤ ê³¼
ĠíĶĦ ë¡ľê·¸ëŀ¨
ê¸° ëĬĶ
ĠëĨ į
ìĭŃ ìĭľìĺ¤
ìŀĲ ë¥¼
íķĺ ë©´ìĦľ
Ġìķ ¼
Ġì² ľ
Ġí Ĥ¤
Ġë³ ĳ
ì£¼ ìĿĺ
ë¦¬ ìĬ¤
ĠíĻĺ ê²½
Ġíıī ê°Ģ
Ġê²½ ìłľ
Ġìµľ ëĮĢ
Ġê° Ŀ
Ġê±´ ê°ķ
ë¦¬ ìĹĲ
Ġë°© ë¬¸
ĠíļĮ ìĽĲ
Ġë§Įëĵ¤ ìĸ´
Ġì£¼ ë¬¸
ĠìĪĺ ëıĦ
ĠêµŃ ë¯¼
ëĲĺ ì§Ģ
Ġì²ĺ ìĿĮ
Ġëį° ìĿ´íĦ°
ë¥´ ë©´
Ġìĸ´ ëĸ»
Ġêµ °
Ġìĭľ ìĬ¤íħľ
ĠíķĻ ìĥĿ
ĠëĦĪ ë¬´
ì¡Į ëĭ¤
ĠíĻ Ī
ëŀį ëĭĪëĭ¤
Ġíı Ń
Ġëĵ± ë¡Ŀ
Ġê°Ĳ ìĤ¬
ìĿ¸ ìĿĺ
ĠìĿ´ ëŁ¬
Ġê¸° ë¡Ŀ
Ġì² ł
ĠíĬ¹ ë³Ħ
Ġê° Ī
íİĺ ìĿ´ì§Ģ
Ġìĸ »
Ġìĺģ íĸ¥
ĠìĹ¬ ìĦ±
ìĸ´ ìĦľ
ĠëĮĢ íķĻ
Ġë§Ī ëł¨
ê¸° ê´Ģ
ê¸° ìĪł
Ġê¸ ī
Ġê°ľìĿ¸ ìłķë³´
ĠìĨĮ ë¹Ħ
Ġê³Ħ ìĨį
ĠìķĦ ëĭĮ
Ġê³µ ê°Ħ
Ġì¢ĭ ìķĦ
ëĵľ ëĬĶ
ìĭľ ìĹĲ
Ġë¬´ ëĭ¨
Ġê· ¹
ìļ´ ëį°
ĠëĤ ®
ĠìĿ´ ìłľ
Ġë°Ľ ìķĦ
ìĥģ íĴĪ
ìĤ¬ íļĮ
Ġí ĴĪ
ĠìŀĲ ìĹ°
Ġëĭ µ
Ġì£ ½
ê±° ë¦¬
Ġëª¨ ëį¸
ìĽĲ ìĿĢ
Ġì¤ĳ ìĭ¬
Ġì¹ľ êµ¬
Ġê¸° ì¡´
Ġì¦ ī
ëĤĺ ìļĶ
ĠíĴ Ģ
ĠìļĶ ê¸Ī
ìĬ¤ íĥĢ
Ġìŀĳ íĴĪ
ĠíĶ¼ íķ´
ĠìĹħ ë¬´
ĠìĪĺ ì¤Ģ
ĠìĬ¤ ë§ĪíĬ¸
Ġì» ´
ì¹ĺ ëĬĶ
Ġë°ľ ìłĦ
Ġê¸° ë°ĺ
ĠìĹ Ķ
ìĻĶ ëĭ¤
ëį° ìĿ´íĬ¸
ĠìĬ ¬
Ġìķ ħ
íķĺ ìĭ¤
ìŀĲ ìĹĲê²Į
ë§Ī ëĭ¤
ë¥´ ëĬĶ
Ġìļ ¸
ĠìĿ´ ìłĦ
ìĿ¸ ì§Ģ
Ġìµľ ìĨĮ
ĠíĦ °
Ġë¯¸ ëŀĺ
ĠìĽ Į
Ġì° ©
ĠìķĦ ì§ģ
ìĿĮ ìĿĦ
Ġëı Ī
ë¦¬ ìĿĺ
ĠëĮĢ ë¶Ģë¶Ħ
ĠìĿ´ ë£¨
ìĥģ ìĿ´
ëĭ¤ ê°Ģ
Ġë§Ĳ ìĶĢ
ë¡ľ ëĵľ
ĠìķĬ ìķĺ
ĠìĨ Ķ
íĻĺ ê²½
ìĿ´ ê°Ģ
ĠëĨ ĵ
ĠìĹŃ íķł
Ġë°© ìĭĿ
íı¬ ì¸ł
Ġíķ µ
ĠìĹħ ì²´
Ġìŀ¥ ìķł
ì£¼ ìĭľ
ìĪĺ ëĬĶ
Ġìľ ¡
Ġëĭ¤ ìļ´
Ġíĭ °
ë¯¼ êµŃ
ìļĶ ìĿ¼
ĠìŀĲ ìľł
ĠìĦ ¼
Ġê·ľ ëª¨
ë¡ľ ìĦľ
Ġìķ ¡
ìĿ´ ìĸ´
ĠìŀĲ ì²´
Ġì§Ī ë¬¸
ĠìłĦ íĻĶ
Ġê¸ ´
ĠìĿ¸ ê°Ħ
ëĵľ ë¦½ëĭĪëĭ¤
ĠìĤ¼ ìĦ±
ĠíĺĦ ìŀ¥
Ġë¯ ¿
ĠìĿĮ ìķħ
Ġìłķ ì¹ĺ
ëĤĺ ëĿ¼
Ġê¹ ¨
ë³µ ì§Ģ
Ġë¹Ħ êµĲ
Ġëľ »
Ġìĸ¼ ë§Ī
ĠìĿĺ ê²¬
ĠìłĦ ë§Ŀ
Ġë¶ģ íķľ
Ġìłľ ì£¼
ĠìĬ¤ íĬ¸
ìľ¼ ëĤĺ
ìĽ¨ ìĸ´
Ġë¹Ħ ìļ©
ĠìĿ´ ë²¤
ĠíķŃ ê³µ
Ġê¿ Ī
ìłĦ ìŀĲ
Ġìķ ±
ĠìłĦ ê¸°
ĠìĶ ¨
Ġìķ ķ
ĠìĺĪ ìĥģ
Ġìķŀ ìľ¼ë¡ľ
ëŀ« íı¼
ìĦł ìĿĦ
Ġíĺ Ī
íķ´ ë³´
ĠíķĺëĤĺ ëĭĺ
ìĬ¤ ë¡ľ
Ġì½ĺ íħĲì¸ł
Ġë £
ìŀĲ ë£Į
ĠìĹ° ëĿ½
Ġìľł íĺķ
ĠëŁ ¬
ĠíĶĦë¡ľ ìłĿ
Ġë§Ī ì§Ģë§ī
ĠìĿ´ ëĤ´
ìĿ¸ ëĭ¤
ĠìĤ´ íİ´
Ġëħ ¹
Ġì ¿
ĠëĪĦ êµ¬
ĠìĹ¬ëŁ¬ ë¶Ħ
ëĤ¬ ëĭ¤
Ġëĵ ¯
ë°Ķ ìĿ¼
ì¹ĺ ê°Ģ
ë°ĸ ìĹĲ
ìłĦ ìŀ¬
Ġì°¸ ìĦĿ
ìĭľ ê¸°
ĠìĦ ¬
Ġì» ¬
Ġê¸° íļį
ì¦Ī ëĭĪìĬ¤
íĵ¨ íĦ°
ĠíĻľ ìĦ±
ĠíĶĮ ëłĪìĿ´
Ġê² ¨
ĠìķĪ ìłķ
ë¶Ģ ë¥¼
Ġíĸī ë³µ
Ġë¡ľ ê·¸
ìķĪ ìĿĦ
Ġìłľ ìĻ¸
Ġê ½
ë¦¬ ì¹´
Ġê°ķ ì¡°
Ġê³Ħ ìķ½
Ġë¯¼ ì£¼
ë¦¬ ì¦Ī
íĮĮ íĬ¸
ëĭ¤ ìļ´
ì¹´ ëĵľ
ìĿ´ ìĹĲ
Ġíİ ¼
ĠìĹ ¼
ìķĦ ìĽĥ
ëĿ¼ ë§Ī
ãħĭ ãħĭ
Ġëĵ £
ĠìĹĲ ìĸ´
Ġìĸ´ ëĶĶ
ëĿ¼ ìļ´
ĠìķĬ ìķĦ
Ġì£¼ ìŀ¥
ìłķ íķľ
Ġìĺģ ìĹħ
ĠìĻ¸ êµŃ
Ġê° ĳ
ìľ¼ë¡ľ ìį¨
ê³¼ íķĻ
ë©Ķ ìĿ¼
Ġìļ° ìĪĺ
ëªħ íķľ
ĠìĬ Ī
Ġë¹ ¨
ĠìĽĢ ì§ģ
Ġìĥģ ëĭ¹
Ġë¶Ģ ì¡±
ìĸ´ ëĤľ
ĠíĿ Ĳ
ìĤ¬ ìĿ´
ìĽĢ ìĿĦ
ìĹ° íķ©
Ġíĥ Ĳ
ëŀĳ ìĬ¤
ëĵľ ìĭľ
ĠëıĻ ìĿ¼
Ġê°Ħ ëĭ¨
Ġë°© íĸ¥
ĠìĪĺ ìĺģ
Ġëĭ¨ ìĪľ
Ġë°ĺ ìĿĳ
ĠìĹ ĺ
ĠìĽ ¨
íĬ¸ ìĽĮíģ¬
Ġì¢ħ ë¥ĺ
Ġëģ Į
ë§Į íģ¼
ĠìĬ¤ ìľĦ
ìĿ´ ë²Ħ
ĠëĤĺ ìĺ¨
ĠìĿ´ íĥĪ
ëıĻ ìĤ°
ë£¨ ìħĺ
ìĦ¸ ê³Ħ
Ġí ĥĿ
Ġë³´ ëıĦ
ĠR IS
ĠìĿ´ ê³³
Ġìĥ ¤
íĮĲ ë§¤
ëĵľ ë¦¬
Ġì§Ģ ìłģ
ì¼Ģ íĮħ
Ġì ¡
Ġì¡ ¸
Ġë¹Ħ ìĬ·
ĠíĿ ¥
ìŀĲ ë¦¬
ĠìĦ± ê³¼
ĠëįĶ ë¶Īìĸ´
ĠëĦ ĵ
Ġìħ Ģ
ëªħ ìĨĮ
ìĺģ ìĥģ
Ġëį ķ
ê°Ģ ê¸°
Ġë¶Ģ íĥģ
ĠëĲ Ĳ
ëį° ìĿ´
ë¦Ń íĦ°
Ġíľ´ ëĮĢ
Ġëĵľ ëĿ¼ìĿ´
ìĬ¤íĨł ëŀĳ
ĠìĨĮ íĶĦíĬ¸
Ġë°Ķ íĥķ
Ġìĺ¤ ë¥¸
Ġíĥ ĳ
ĠìłĪ ì°¨
Ġìĸ ĺ
êµ¬ ìļĶ
Ġë² Ĺ
¤í ģ
ìłĪ íķľ
Ġëľ ¨
ĠìķĪ ëħķ
Ġê°ķ ëł¥
Ġìĩ¼ íķĳ
ĠìĻĦ ë²½
łí Ķ
Ġíģ´ ëŀĺ
ĠìķĦ ë²Ħ
ĠìĻ Ķ
ĠíĮ¨ íĤ¤
ê·ľ ëª¨
Ġìķł ìĻĦ
êµ° ìļĶ
Ġìŀĺ ëª»
Ġê³ł ìĸĳ
Ġíĺľ íĥĿ
Ġìłģ íķ©
Ġíİ¸ ìķĪ
ĠíĻĶ ìŀ¥
ë©Ķ ëĿ¼
Ġë© ĭ
ĠìłĢ ëł´
ĠìĦł ìĥĿ
Ġì¤ĳ ìĨĮ
ìĿĺ íļĮ
ì¹´ ìĺ¤
Ġê° ¤
ì¤ĳ ìĹĲ
Ġìĭł ìļ©
Ġê± ±
ìŀ¥ ìķł
ìŀĲ ëıĻ
ìħĶ ìķ¼
íĬľ ë¸Į
Ġíĺ Ĳ
ë§Ī íģ¬
ĠíĽ Ī
Ġë¹Ħ ë°Ģ
Ġìľ Ī
êµ¬ íķĺê³ł
Ġì»¤ ë®¤ëĭĪ
Ġëģ Ĭ
íĬ¹ ë³Ħ
ĠíĶĦë¦¬ ë¯¸
ãħİ ãħİ
ì¡° íĬ¸
Ġë§ŀ ì¶¤
Ġë²Ħ íĬ¼
Ġìĸ µ
Ġìł Ĭ
Ġêµ¬ ì²´
íĦ° ë¦¬
Ġì§ §
ĠíĮĮ íĬ¸
ìŀĲ ê¸°
ëĳĲ ê³ł
ĠëĶ° ëľ»
Ġëª¨ ëĭĪíĦ°
Ġì§Ģ íķĺ
ë§İ ìĿĢ
ë¬´ ìĽĲ
ëĵł ì§Ģ
ĠìĿ´ ëģĮ
Ġìķ ī
ëĭ¹ íķľ
¤í ŀ
ĠìĦ Ń
ëĤĺ ëĭ¤
ĠíĽ ¨
ĠíĴį ë¶Ģ
Ġê¹ Ķ
ĠìķĦ ëĭĻ
ìĿ¸ íĦ°
Ġê· ł
Ġì£¼ ìĿ¸
Ġê´ ľ
Ġìķ ¨
Ġìĺ ®
ìĬ¤ íĭ°
ê°Ģ ìŀħ
Ġíļ į
ì¡° íļĮ
Ġìĭ¬ ê°ģ
ë¶Ħ ìĹĲ
íĬ¸ ëĤ¨
ĠìĹ° íķ©
Ġëĭ¹ ìĹ°
Ġë° ĸ
Ġê¾¸ ì¤Ģ
ìŀ¬ ìĿ¸
Ġíķ ¸
Ġìĺ¤ ëĿ½
Ġê¹ Į
ìĿ´ ìĿµ
ĠìĹĦ ì²Ń
Ġë¸Ķ ë¡Ŀ
Ġê¸į ìłķ
íĶĦ ëĿ¼
Ġê·Ģ íķĺ
ĠíĿ ĺ
ĠìķĦ íĶĦ
ì§Ģ ëħ¸
Ġë¶Ħ ëĵ¤
ìłĢ ìŀĳê¶Į
ìĦ¸ ìĬ¤
Ġë§Ī ìĿ´íģ¬
ë£Į ê°Ģ
íĮĮ ìĿ´
ìĬ¤ëŁ½ ê²Į
Ġê² ģ
ëŁŃ ìĭľ
ĠìķĶ íĺ¸
ëĿ¼ìļ° ëĵľ
ìĭ¬ íŀĪ
ëŀĢ ëĭ¤
ìĸ´ ëĵ¤
ìĪĺ ëŁī
ìłĦ ê±°
Ġëħ¸ íĬ¸
Ġê²Į ìŀ¬
Ġê³Ħ ìĭľ
Ġíİĺ ìĿ´ìĬ¤
ëĭĪ ìĸ´
ë¦¼ íĶ½
Ġíħ į
Ġìħ Ķ
ĠíĶĦ ëłĪ
ĠìĽĶ ëĵľ
ë¶Ģ ëª¨
ê±° ëĵł
Ġê°ĸ ì¶Ķ
ìĬ¤ íĶĮëłĪìĿ´
Ġìľł ìĿ¼
ĠíĽĮ ë¥Ń
ìŀĳ ìļ©
ĠëŁ °
Ġë³µ ìŀ¡
ì¤ĳ íķľ
Ġë¯¸ ìĦ¸
ëĿ¼ìĬ¤ íĭ±
ë¯¼ì£¼ ëĭ¹
ì£¼ ë¬¸
ëıĦ ìļ°
Ġìĸ´ ëĸł
Ġëŀľ ëĵľ
ìĿĺ ë¡ľ
Ġëį§ ë¶Ļ
Ġì±Ħ ìĭĿ
ê³µì§Ģ ëĬ¥
ì²´ ìĿ¸
ê·¸ ëłĪìĿ´
íĻĶ íıĲ
Ġë¹Ħ íĬ¸
ĠìĻ ¼
ëıĦ ì²´
ëŁ¼ íĶĦ
Ġë¡ľ ë§¨
ë¦¬ ì¼ĢìĿ´ìħĺ
ìĦ° ëĭ¤
ë°Ģ ë¦¬
ĠêµŃ íļĮìĿĺ
ì§Ģ ìĸ´
ë¯¸ ëĤĺ
Ġë§Ī ìĤ¬
ĠìĿ´ ìĬ¤
íĥĢ ë¯¼
Ġëĥī ìŀ¥
ê´ĳ ìĹŃ
ĠìĻĢ ìĿ´
ĠëĤĺ ë¨¸
íħĮ ë¦¬ìĸ´
ĠëŁ Ń
Ġëıħ íĬ¹
Ġêµ ī
Ġêµī ìŀ¥
Ġëĥ Ħ
Ġì Į
ìĸ´ ë¯¼
ëıħ êµĲ
íĬ¸ ë¡¤
ìĥģ ê³µ
ëĿ¼ ìĹĺ
Ġìĥ ĺ
ĠìķĦ ìļ¸
ĠëĪ Į
O LED
ìħĶ ë¦¬
ìŀĲ ì²´
ëĵľë¡ľ ìĿ´ëĵľ
Ġìķł ëĭĪ
ìĿ¼ ëŀľëĵľ
ëį° ë¯¸
ì¹¨ íķ´
íĬľ ëĶĶìĺ¤
ìķ½ ê´Ģ
íı¬ ë¥´
Ġë¹Ħ ì§Ģ
íķĺ ìļ°
Ġëĭ¨ ë°±
ë©Ķ ìĿ´ìħĺ
ĠíĬ¸ ìľĦ
Ġëĭ¹ ëĩ¨
íħĮìĿ¸ ë¨¼íĬ¸
Ġì± Ķ
ëŁ° íĬ¸
Ġê°Ģ ìĦ±
íĶ¼ ìĸ¸
¤í ĭ
ìŀĲ ìĿ´ëĦĪ
íļĮ ê²¬
ë¦¬ ì½ĺ
ë£¨ë¯¸ ëĬĦ
ëįĶëĿ¼ ê³ł
Ġìĭ± ê°Ģ
Ġìĺ¤ ëŀ«
ë° ı
ìķ Ĭ
ìķ Į
ëĶ °
ê¹ Ģ
ìĤ ´
ëĲ ł
ì» ¤
ì± Ħ
ì´ Ŀ
ì¶ ©
ì¹ ľ
ëĨ Ĵ
ìŀ ĺ
ë§ ŀ
ê± ¸
ìķ ŀ
ãĢ ĸ
ë³ ¼
ì° ¾
ì¤ Ħ
ë° Ŀ
ìĹ Ķ
ëĨ į
ë¨ ¹
ê· Ģ
íģ °
ê³ ¨
ëĪ Ī
ìĭ ¶
ìĵ °
íĻ į
íŀ ĺ
ìķ Ķ
ì¦ Ĳ
íĴ į
âĸ ²
ìĬ ¬
ëĦ ĺ
ìº Ĳ
ê³ ¡
ë§ Ľ
ï¼ ħ
ìľ ¤
ì² «
ìĻ ķ
ì¿ ł
ê° ĸ
ï¼ Ĩ
íĻ Ī
ìķ ķ
ëģ Ŀ
ëĸ ¨
ëı ¼
íĴ Ģ
ìĨ Ķ
ìĽ ¹
íĹ ¤
ìŀ ł
ëį ķ
ì» ¬
ëı Ī
ëª ĩ
ë¹ Į
ëª ¸
ìĸ »
ï¼ ľ
ìĿ ½
ë§ ¥
íĮ Ķ
ëĶ ©
íı ´
ìĤ ¶
íķ µ
ë¹ Ī
ì½ ľ
ëĤ ®
ìº ł
ì¦ ī
ê½ ĥ
ì¹ ¼
íĹ Į
í ĩ´
ì¢ Ģ
ìĻ ľ
âĸ ³
í Ĥ¹
ìĦ ¬
ìĺ ¥
ì¹ Ń
ì¹ ł
ë¹ Ľ
ìħ Ģ
ê¿ Ī
ëĦ £
ìŀ Ķ
ìĭ ¸
íĮ ¬
íĻ Ģ
âĸ ¼
ìķ ±
ëĭ Ŀ
ëħ ¹
ì² Ļ
ê³ ¤
âĻ ¡
ë¯ ¿
ìķ ¤
ìĪ ¨
íĿ Ĳ
ëĥ ī
ê¹ Ĭ
ìĦ Ń
ë° ¤
ìĶ ©
ï¼ ³
ë£ ¸
ê¼ Ń
ì° į
íĥ Ĳ
íĥ ĳ
ì¡ ¸
ëľ ¨
ìĥ ¤
ë¹ ¨
âĹ İ
íĶ Ī
ë´ ¤
ë© Ģ
ï¼ °
íĿ Ķ
íģ Ĳ
íħ į
íĮ ©
Î ©
ëĤ Ļ
ëĵ £
ì´ Į
ë° ¥
ìľ Ī
âĸ ¶
ï½ į
íĨ ¤
ë´ Ħ
ëĩ Į
ï¼ ´
ë¦ ¿
ë§ ¡
íİ ¼
íİ ľ
ë© ĺ
ë§ ¹
íķ Ģ
ë¹ Ļ
íŀ Į
ë° į
ê° ¤
âĦ ĥ
ëĦ ĵ
íĨ ¡
íĭ ´
â ĩ
âĩ Ĵ
ëĳ Ķ
ë ŃĲ
âĸ ¡
ï¼ ½
ï¼ »
íŀ Ĳ
ìł ł
ï¼ Ń
ëĭ ī
íĹ ¬
ëĤ ¼
ë¹ ħ
ìĺ ·
ëĶ ¸
âľ ħ
ë² Ĺ
ìĹ ĳ
ëģ Ħ
ê³ §
ì° Į
ìĸ ĺ
ìĽ ħ
ë¬ ĺ
ìł ¤
ëĭ «
ëł ¬
ë° ´
íİ Ģ
ì½ ¤
ê± ±
ë© ĭ
ëª ½
ë¡ ±
ëŀ ©
ëĶ ±
ìĵ ¸
ìķ ī
ëĶ ľ
ë£ ©
ëĲ ¨
ìķ ¨
ê¼ ¬
ìħ ĭ
ë¬ »
ìģ ĺ
ëį ľ
íĿ ĺ
ì¹ ¸
ï½ £
ê¸ į
íĭ ¸
ë¯ ¹
ëĳ ¥
ë© ¸
ìŀ ĥ
ëĬ ¦
âľ ĵ
ìł Ĭ
ìŀ ĩ
ìĵ ´
ìģ ľ
ë¬ µ
ìŀ ī
ë° ¸
ìĥ Į
ëį ´
ëģ Ĭ
âľ ¨
ìĺ Ĩ
ê² ¸
íķ ¸
ëĤ Ń
ëĵ Ģ
ì§ §
ë¹ ¼
ëį §
ìĹ ł
ã İ
ãİ ¡
ìĪ ²
âĢ ¤
ëģ Ī
ê´ Ħ
ê´ ľ
íĽ Į
ìĥ ĺ
ëĦ ¥
íĽ ¨
ìĺ ®
ë° ĳ
ìº Ķ
ëı ķ
ì ĮĢ
íĬ Ģ
ìº ¡
ë¡ ¬
ï¼ ¨
ë£ ¡
ê² Ĳ
ìĿ į
ìŀ Ĭ
ì¿ ¨
ëį ¤
ëŀ Ħ
íĿ ĳ
ìĮ į
íĮ ģ
ê± ·
ê¼ ½
ãĢ ī
ëĭ Ń
íĨ ±
ì¤ ĺ
âĻ ¦
ìĦ ¹
ìĻ ¼
ìĩ ł
ëĥ Ħ
ëĪ Į
ëł Ģ
ëĵ ¬
ìĭ ¼
âĸ ½
ìŀ İ
ì ¯
ì¯ ¤
âĢ §
ìĪ «
ëł Ľ
íķ ı
ê¼ ¼
ëĸ ¡
ìħ ī
ê¿ Ģ
ëŀ Ń
ìĺ Ľ
ë© ľ
ìĹ ½
ë§ ĺ
ë¹ µ
íķ «
ìħ Ī
íĢ ĺ
íĮ ¡
ë¶ ķ
ë§ º
âĪ ¼
ì¤ ¬
ëį ©
êµ ³
ê ¾
ê¾ ¼
íĢ ´
â ŃĲ
âĪ Ļ
íĿ °
âĸ ª
ë© į
ë¦ ī
ê³ ±
ëĭ Ľ
ë£ ¬
ëį ®
ê½ ¤
ë¥ Ļ
íĥ ł
ë ¼Ī
ìº ĺ
ê³ °
âī «
âĪ ļ
ë¹ Ĺ
ë£ °
êµ ¿
âĢ ¥
ï¿ £
ìĪ Ń
ðŁĺ Ĭ
ëĿ ł
ìĥ µ
ë© Ī
ì ī
ìī Ĳ
ìĽ °
ìĸ Ģ
ë¥ ¨
ëĸ ¼
ì¹ ©
ì± Ļ
íİ Ļ
ìĭ «
ìĹ ī
ê¹ Ŀ
ë² ħ
ìķ Ĺ
ë¦ ĩ
íľ ł
ë¸ Ĳ
ëĿ Ħ
íĥ ±
ë° Ń
íĮ Ŀ
íĸ Ħ
ë³ ¶
ê¹ ĥ
ê³ ½
íĥ Ń
ì¢ ģ
âĹ ¯
ì± Ķ
ìħ °
ìģ ¨
ìĮ ¤
ê² ¹
ìĺ ¹
ëı ĭ
âĢ ¹
ê¹ ľ
ìĦ ŀ
ë Į
ëĮ Ħ
ìķ µ
ë¶ ī
íĮ Ł
ì» ·
âĸ ·
ìľ Ĺ
ê° ±
íĤ ·
ìĪ į
íĸ ĩ
ëĨ Ī
ì² ©
ì¿ ¼
ì į¼
íĿ ī
ãħ ¡
íİ Į
íĮ ½
íħ Ģ
êµ ½
íĢ Ħ
ëĶ ĺ
ê» ı
ìĶ »
ìĬ Ĳ
ë§ ĳ
ì ı
ìı ĺ
ëĭ ¿
ìĤ ½
ìŀ Ń
ëł ģ
íİ ł
ê¹ Ĳ
ëģ ĵ
í Ī
íĪ ´
ì¤ Į
íĥ ĵ
íĭ Ī
ĠìŀĪ ëĭ¤
Ġë° ı
ĠìŀĪ ìĬµëĭĪëĭ¤
ĠìľĦ íķ´
Ġë¦¬ ë·°
âĢ¦ ]
ĠíĨµ íķ´
ë¦¬ ê³ł
Ġëĭ¤ ë¥¸
ĠëĮĢ íķ´
Ġíķľ ëĭ¤
Ġëª¨ ëĵł
ìĹĲìĦľ ëĬĶ
ĠìľĦ íķľ
Ġê°Ļ ìĿĢ
ĠëĺĲ ëĬĶ
ìĿ´ ëĤĺ
Ġë§İ ìĿĢ
Ġê°Ģ ìŀ¥
ĠìĿĮìĭĿ ìłĲ
ëĿ¼ ê³ł
Ġê²ĥ ìľ¼ë¡ľ
Ġì´ Ŀ
Ġëĭ¤ìĸĳ íķľ
Ġíķ© ëĭĪëĭ¤
Ġë¯¸ êµŃ
Ġìĭľ ìĦ¤
ëĿ¼ ëĬĶ
ĠëĺĲ íķľ
Ġê²ĥ ìĿĦ
Ġê·¸ë¦¬ ê³ł
ĠëķĮë¬¸ ìĹĲ
Ġê²ĥ ìĿ´ëĭ¤
Ġê²ĥ ìĿĢ
ê¸° ìĹĲ
ìĦ± ìĿĦ
Ġìļ ©
Ġíķĺ ê³ł
ê±´ ìĿĺ
Ġíģ °
ëĲĲ ëĭ¤
ĠëĲ ł
ëĮĢ íķĻêµĲ
ĠìĿ´ ìĸ´
Ġê°ľ ë°ľ
ĠìĹĨ ëĬĶ
Ġë§İ ìĿ´
ìĦľ ëĬĶ
Ġë³´ ê¸°
Ġì¢ĭ ìĿĢ
Ġëĵ± ìĿĦ
ĠíĸĪ ëĭ¤
ìłķ ìĿĦ
Ġì¤ĳ êµŃ
Ġë°ĿíĺĶ ëĭ¤
Ġíķĺ ì§Ģë§Į
Ġëĭ¤ ìĭľ
ĠìĿ´ íĽĦ
Ġë³ ¼
ĠìķĦëĭĪ ëĿ¼
ìĤ¬ ìĹħ
Ġê²Į ìŀĦ
ĠìĥĪ ë¡ľìļ´
ĠìŀĪ ìĿĦ
ëĲĺ ê³ł
ĠìŀĪ ìľ¼ë©°
ĠíĻľ ëıĻ
êµĲ ìľ¡
ĠìļĶ ë¦¬
Ġâĸ ²
ìĦ± ìĿ´
Ġìĸ´ ëĸ¤
ê°Ģ ëĬĶ
Ġë§Ĳ íĸĪëĭ¤
ĠíĬ¹ íŀĪ
ĠíĮĲ ë§¤
Ġ ãĢİ
ĠìłĦ ì²´
ĠìĨĮ ìŀ¬
ĠëıĻ ìķĪ
Ġìłģ ìļ©
Ġê³µ ê¸ī
ĠìŀĪ ëıĦë¡Ŀ
ĠìĿ´ ëŁ°
Ġì¤Ģ ë¹Ħ
Ġëĵ± ìĿĺ
Ġì§ģ ìłĳ
ìŀ¥ ìĿ´
Ġê²ĥ ìŀħëĭĪëĭ¤
ë¦¬ ê°Ģ
ĠëĲľ ëĭ¤
ĠêµŃ ê°Ģ
Ġê·¸ëŁ¬ ëĤĺ
ĠìķĬ ìĬµëĭĪëĭ¤
ìĿ´ ë©°
Ġìĭł ì²Ń
ë§Į ìĽĲ
ìĤ¬ ìĿĺ
Ġì§Ģ ëıĦ
ĠìĺĪ ìķ½
ĠìĦ¤ ì¹ĺ
íķ´ ì£¼
Ġë¶Ħ ìĦĿ
ìĹĲìĦľ ëıĦ
Ġì¹ĺ ë£Į
Ġì£¼ ìļĶ
Ġìĸ´ëĸ» ê²Į
Ġë¬¸ íĻĶ
Ġìĺ¬ íķ´
ë¬¸ íĻĶ
ì¼Ģ ìĿ´
Ġì¦Ŀ ê°Ģ
ĠìķĬ ìĿĢ
ĠìĹĨ ëĭ¤
ĠìĤ° ìĹħ
Ġì½Ķ ë¡ľëĤĺ
ĠìĨĮ ê°ľ
ĠìĿ¼ ë¶Ģ
Ġìĺģ íĻĶ
ĠìĹĨ ìĬµëĭĪëĭ¤
ĠìķĬ ê³ł
Ġê²Ģ ìĥī
Ġê°ĢëĬ¥ íķľ
ê´Ģ ë¦¬
Ġìµľ ìĭł
ìĿ¸ ìĿ´
ĠëĨĴ ìĿĢ
ĠìŀĪ ê³ł
ĠâĹ ĭ
Ġë§ ī
Ġê¸Ī ì§Ģ
ĠëĲ ©
ĠëĲ© ëĭĪëĭ¤
ĠìĿ´ ë¥¼
Ġì°¾ ìķĦ
ì§Ģ ìĽĲ
ëĦ¤ ìļĶ
Ġê°Ŀ ìĭ¤
ëĿ¼ ëıĦ
Ġìĭ¤ ìłľ
ì§Ģ ê³ł
ê²ł ëĭ¤
ĠìĥĿ ìĤ°
ĠìĹĨ ìĿ´
Ġê°Ģ ì¡±
Ġê°Ļ ìĿ´
ìĭľ ëĬĶ
ëıĦ ë¥¼
Ġê¸° ê°Ħ
Ġê´Ģ íķľ
Ġìĺ¨ ëĿ¼ìĿ¸
Ġì¶Ķ ì²ľ
åĽ½ ãģ®
Ġìŀĳ ìĦ±
ĠíĪ¬ ìŀĲ
Ġê¸° ëĮĢ
ĠëĶĶ ìŀĲìĿ¸
Ġë³´ íĺ¸
ĠëĶ° ë¥´ë©´
Ġìłľ ìŀĳ
Ġê·¸ ëĬĶ
Ġê·¼ ì²ĺ
Ġìĸ´ ë¦°
Ġëª ĩ
Ġê³µ ê°ľ
ĠìĿ´ëŁ¬ íķľ
ĠìĿ´ íķ´
ìĸµ ìĽĲ
Ġë§¤ ìļ°
ìĬ¤ íĦ°
íļĮ ë¥¼
Ġë°Ķ ëŀįëĭĪëĭ¤
Ġê²° ìłķ
ĠìŀĪ ìĹĪëĭ¤
ĠìĹ° ê²°
Ġì±ħ ìŀĦ
ĠìĿ¸ ê¸°
ĠíķĻ êµĲ
ĠëĲĺ ëĬĶ
ĠíķĦìļĶ íķľ
ĠëıĮ ìķĦ
ĠêµŃ ìłľ
Ġëĵ± ìĿ´
ì§Ģ ìĹŃ
ìĬ¤ ë¥¼
ĠìķĪ ëĤ´
ĠìĿ¸íĦ° ëĦ·
Ġì¶Ķ ì§Ħ
Ġìľł ì§Ģ
ĠìŀĲìĭł ìĿĺ
ĠâĹ Ĩ
Ġë°° ìĨ¡
ì§Ģ ëıĦ
ìĽĲ ìĿ´
ë¬¼ ìĿĦ
ĠìĨ ¡
ìĭľ ìĦ¤
ĠíĻķ ëĮĢ
ê²½ ìłľ
íĸĪ ëįĺ
Ġê°ľ ìĦł
ĠìŀĪ ëĭ¤ëĬĶ
ìĭľ ìŀ¥
Ġìŀĳ ìĹħ
ĠëįĶ ìļ±
ĠìŀĲ ë£Į
Ġë¬¼ ë¡ł
Ġìļ°ë¦¬ ëĬĶ
ĠìķĬ ìĿĦ
Ġë° Ģ
ìĤ° ìĹħ
Ġê°Ģì§Ģ ê³ł
íķľ êµŃ
Ġê°ľ ìµľ
ĠìĥĿ íĻľ
ĠìĦ± ìŀ¥
ìĹĨ ìĿ´
ĠëĤ ľ
Ġíķ´ ê²°
ìľĦìĽĲ íļĮ
íķĺ ê±°ëĤĺ
ĠìĪĻ ë°ķ
ĠìļĶ êµ¬
ê¸° ê°Ħ
Ġíİ¸ ìĿĺ
ĠìĿ´ ëıĻ
Ġìľ ¤
ìĿ´ ìĹĪëĭ¤
Ġê³µ ëıĻ
ìĪĺ ë¥¼
ĠìĿ´ìķ¼ ê¸°
Ġìłķ ë§Ĳ
ĠìĿ´ ëłĩê²Į
ĠíĺĦ ëĮĢ
ìĿ¸ ëį°
Ġì¢ Ģ
Ġê°ķ íĻĶ
ĠëĲĺ ìĸ´
ĠìĦ± ê³µ
Ġê²½ ê¸°
ĠìĿ´ ìĹĲ
ĠëĤ´ ê°Ģ
ëł¥ ìĿ´
ĠìĿ´ ëĤł
ĠìłĦ êµŃ
ìľĦ ë¥¼
ĠëıĦ ìĭľ
ìĿ¸ ìĿĦ
Ġí ĮĢ
Ġê¸° íĥĢ
Ġê°Ģ ìļ´ëį°
ë¡ľ ë¶ĢíĦ°
íķĺ ìĺĢëĭ¤
ĠìĦł ìłķ
Ġê·¸ëŀĺ ìĦľ
ìĤ¬ íķŃ
Ġíķ´ ìĻ¸
Ġê±° ëŀĺ
Ġë¬¸ ìĿĺ
ëĵľ ë¥¼
Ġì£¼ ì°¨
Ġë¸Į ëŀľëĵľ
ìłľ ë¥¼
ìĽĲ ìĿĺ
íķĺ ìĭŃìĭľìĺ¤
ëıĦ ìĿĺ
ìłĲ ìĿĦ
Ġì¶ľ ìĭľ
ĠíĻ ©
Ġì¡° ê¸Ī
ĠëĨ Ģ
ëıĦ ë¡ľ
Ġê³µ ìľł
ê°ľ ìĽĶ
ìĦľ ë¹ĦìĬ¤
Ġì§ĢëĤľ íķ´
Ġë°© ìĨ¡
ëĮĵ ê¸Ģ
ĠìĻ ľ
Ġë³Ģ íĻĶ
ĠìĹħ ëį°ìĿ´íĬ¸
Ġì°¸ ê³ł
ê°ľ ìĿĺ
ĠëĤĺ ëĬĶ
Ġìµľê³ł ìĿĺ
ëªħ ìĿĺ
ê¸° ë¡ľ
ĠìĹŃ ìĭľ
Ġìĸ´ ëĬĲ
ëıĦ ê°Ģ
Ġë³´ ëĤ´
ëªħ ìĿ´
Ġëª °
ĠìĿ¸ íķ´
Ġìĭľ ë¯¼
ëĤĺ ëĬĶ
ìĪĺ ê°Ģ
Ġë³´ ë©´
ìĨĮ ë¥¼
Ġë¨¼ ìłĢ
Ġíķĺ ë£¨
Ġëĭ¹ ìĭľ
Ġâĸ ³
ĠìĿ´ ëĬĶ
ĠìŀĪ ëĭ¤ê³ł
íĬ¸ ë¥¼
Ġìĭ¤ ìĭľ
ëªħ ìĿĦ
Ġì¡´ ìŀ¬
Ġê¸Ī ìľµ
ë³´ ê³ł
Ġë°° ìļ°
ìĹĪ ëįĺ
Ġì¤ĳìļĶ íķľ
ìĦľ ë¥¼
ĠìĦ¼ íĦ°
ĠìĤ¬ìļ© íķł
ĠìķĦ ë¬´
Ġìłķë³´ ë¥¼
Ġìĺ¤ ëĬĶ
Ġìļ´ ëıĻ
ĠìĻ ķ
ìĦľ ìļ¸
ì§Ģ ê°Ģ
ëĮĢ ë¥¼
ĠëĮĢ ë¹Ħ
ĠìĤ¬ëŀĮ ìĿ´
íĸĪëĭ¤ ê³ł
ĠìŀĪëĬĶ ëį°
Ġìłľ ì¡°
ê³Ħ ë¥¼
Ġëī´ ìĬ¤
ĠìķĮ ê³ł
ĠëĶ° ë¥¸
Ġëħ¸ ëł¥
ê°Ĳ ìĿĦ
ĠìĦľë¹ĦìĬ¤ ë¥¼
Ġê²½ ìŁģ
Ġìłľ íķľ
Ġì¡° ìĤ¬
Ġíĳľ íĺĦ
Ġìĸ´ ë¦°ìĿ´
ë¦¬ ì§Ģ
Ġê³ł ëł¤
íĺģ ìĭł
íķĺ ìĭł
Ġêµ¬ ì¡°
Ġíı Ĳ
ê¸Ī ìĿĦ
ê°ľ ë°ľ
ĠìĪĺ íĸī
ĠíĮ Ķ
ìĿĢ íĸī
ìĥģ ìĿĺ
Ġíķľ íİ¸
ëĵ¤ ëıĦ
ĠìĿĺ ë£Į
ìĿ¼ ë¶ĢíĦ°
ĠìľĦ íĹĺ
ìĿĺ ë¥¼
Ġìī½ ê²Į
Ġë²Ī ì§¸
Ġíı¬ ìŀ¥
ëĲĺ ìĹĪìĬµëĭĪëĭ¤
ëĬĶ ëĭ¤
Ġëħ Ħ
Ġì§Ģ ìłķ
ĠìļĶ ì²Ń
ĠíĶ¼ ë¶Ģ
ëĲĺ ìĹĪëĭ¤
Ġìĭľ íĸī
ĠìłĦ ìŀĲ
ê¸° ìĿĺ
ëł¸ ëĭ¤
ĠíĽĦ ë³´
ĠìĿĺ íķ´
ëĮĢ íĳľ
Ġìļ° ìĦł
ìĿ¸ ìĿĢ
Ġì§Ģ ë°©
Ġê²° ìłľ
Ġíĸī ìĤ¬
Ġëĵ± ìĹĲ
Ġíģ¬ ê²Į
ìĿ¼ ê¹Įì§Ģ
íĸĪ ê³ł
Ġìŀĳ ìĿĢ
Ġë§Į ëĤĺ
Ġë°Ľ ìĿĢ
Ġíĥ Ī
íĶĦ ë¡ľ
ĠìłĦ ìĹĲ
Ġï¼ ľ
Ġê·¸ ìĿĺ
ĠìĹŃ ìĤ¬
Ġë£ ¨
ĠìłĦ ëŀµ
Ġê°ĢëĬ¥ íķ©ëĭĪëĭ¤
ìĬ¤ ìĿĺ
Ġì£¼ ë¯¼
ĠëĶ°ëĿ¼ ìĦľ
ĠìŀĪ ì§Ģë§Į
ĠìķĦ ì¹¨
ìĦ± ê³¼
ĠìĤ´ ìķĦ
ĠìĤ¬ ê±´
ëĮĢ íķľ
Ġê°Ģ ì§Ħ
ĠìĤ¬ëŀĮ ëĵ¤ìĿ´
Ġë°ľ ê²¬
ĠëĮĵ ê¸Ģ
ĠT EL
ìĬ¤ ëĬĶ
Ġíķĺ ì§Ģ
ĠëĮĢíķľ ë¯¼êµŃ
ĠìłĦë¬¸ ê°Ģ
Ġê°Ĳ ìĨĮ
Ġìľł ëŁ½
ëĮĢ íķĻ
ĠëĮĢìĥģ ìľ¼ë¡ľ
ìĹħ ì²´
ë¡ľ ëĬĶ
ìŀĲ ìĻĢ
ĠìŀĲëıĻ ì°¨
íĻľ ëıĻ
Ġì¿ ł
ë¶Ģ ëĬĶ
ëĲĺ ë©°
ĠëıĦìĽĢ ìĿ´
ĠíĻĪ íİĺìĿ´ì§Ģ
ĠëłĪ ìĿ´
ìĺµ ìħĺ
Ġìĺģíĸ¥ ìĿĦ
ê³¼ ìĿĺ
ì§Ģ ìĹĲ
Ġê´ĳ ê³ł
Ġê²ĥ ëıĦ
ĠìĦ Ŀ
Ġê°Ģ ìŀħ
íķĺ ëıĦë¡Ŀ
Ġê¼ Ń
ĠëķĮë¬¸ ìĿ´ëĭ¤
Ġë¶ Ļ
Ġê·¸ëŁ° ëį°
ĠìŀĲ ë¦¬
Ġê¸° ìĤ¬
ĠíĮ ¬
ê¹Į ìļĶ
ĠìłĦ ëĭ¬
Ġíķ´ ìķ¼
ĠìĿ¸ ì¦Ŀ
ĠìĺĪìłķ ìĿ´ëĭ¤
Ġë°Ľ ê³ł
Ġìłķ ìĥģ
ìĹĲìĦľ ìĿĺ
ĠìķĦ ì£¼
ĠìĦł ìĪĺ
ìĿ´ ë¥¼
Ġì§ĳ ì¤ĳ
Ġìĺģ ìĸ´
Ġìŀ¥ ìĨĮ
Ġë¶Ģ ëĭ´
Ġêµ¬ ì¶ķ
ìłĦ ìĿĦ
ĠìŀĲ ê¸°
Ġê¸° ê´Ģ
Ġë¶Ģ ìĤ°
íķľëĭ¤ ê³ł
Ġëĭ¤ìĿĮ ê³¼
Ġìŀ¬ ë°°íı¬
Ġì°¨ ëŁī
Ġìĥģ ìĬ¹
ìĥĿ íĻľ
íķĺì§Ģ ë§Į
ĠìĹ´ ë¦°
Ġíģ´ ë¦Ń
Ġë³´ ëĭ¤
Ġì¡° ì§ģ
Ġìĺģ ìĥģ
Ġíİĺ ìĿ´ì§Ģ
Ġìº ł
ĠìĻ¸ ë¶Ģ
: ||
Ġê°Ĳ ëıħ
Ġë¬´ëĭ¨ ìłĦìŀ¬
Ġì¤ĳ ìķĻ
Ġìĭł ê³ł
ĠìĿ¸ ì²ľ
ìłķ ìĿ´
ĠêµĲ íĻĺ
Ġìłľ ê°Ģ
ĠíĶĮ ëŀ«íı¼
ìŀĲ ëĵ¤ìĿ´
Ġì²´íģ¬ ìĿ¸
ìłķ ì±ħ
ìłľ íĴĪ
ĠìłĢ ìŀ¥
ĠíĬ¹ ì§ķ
Ġì°¸ ê°Ģ
ĠìĺĪ ë°©
Ġê²½ìļ° ìĹĲëĬĶ
Ġìĺ¤ ìłĦ
Ġì§Ģ ëĤĺ
ĠëĮĢ ìĿĳ
ìŀ¥ ìĿĺ
íļĮ ìĤ¬
Ġê³µ ìĹ°
ĠìĿ¸ ìłķ
ë¬¼ ìĿ´
ìłģ ìĿ´
Ġë§Į ëĵł
Ġìĺ¬ ëĿ¼
Ġ ãĢĬ
Ġí į¼
Ġìłľê³µ íķĺëĬĶ
Ġê³µ ìĭĿ
ĠìŀĪ ê²Į
Ġê²½ ìĺģ
Ġì¹ ¼
íļĮ ê°Ģ
Ġíķĺ ë©´
ĠìłĦ ìĭľ
Ġë§Į íģ¼
Ġìµľ ì¢ħ
Ġê½ ĥ
ĠìĦľ ë¡ľ
Ġì§Ģ ê¸ī
ëĮĢ ìĿĺ
ìĪĺ ìĿĺ
ìķĦ ìĿ´
ìŀĲ ë¡ľ
Ġê¸° ìĸµ
Ġì£¼ ìĨĮ
ë°© ë²ķ
ëħĦ ìĹĲ
ĠìĿ´ë²¤ íĬ¸
Ġì§Ģ ì§Ģ
ĠìĿ¼ ìĿ´
ĠëĬ¥ ëł¥
Ġìłľ ì¶ľ
ĠìľĦ ìĽĲ
ë¥´ ê³ł
Ġë¬¸ìłľ ê°Ģ
ì§Ħ ëĭ¤
ĠìĤ¬ ìłĦ
Ġê·¸ ë¦¼
íķĻ ìĥĿ
ìĬ¤ ê°Ģ
Ġìļ°ë¦¬ ê°Ģ
ĠìĤ¬ ê³ł
Ġìłľê³µ íķ©ëĭĪëĭ¤
íĨµ ìĭł
Ġìłľ ê±°
Ġê±° ìĿĺ
Ġê¸° ê³Ħ
Ġë²Ī ìĹŃ
ëĭĪ ìķĦ
Ġë¹Ħ ì¦ĪëĭĪìĬ¤
Ġê²° êµŃ
ĠíĨµ íķ©
Ġê·¸ëłĩ ê²Į
ìŀ¥ ìĹĲìĦľ
Ġìĺģ êµŃ
ë§ģ íģ¬
Ġëħ¸ ëıĻ
Ġê°ģ ê°ģ
Ġëª¨ ë°ĶìĿ¼
Ġì¹´ ëĵľ
ĠìĿ´ìĥģ ìĿĺ
ì´¬ ìĺģ
Ġë¹ Į
ĠëĤĺ ëĿ¼
Ġë§ ¡
Ġê² ©
Ġëĭ¨ ê³Ħ
íķľëĭ¤ ëĬĶ
ĠëĤ´ ë¶Ģ
Ġê·¸ ë£¹
ĠìĭĿ ìĤ¬
) âĢĻ
ë°° ìĨ¡
Ġê²½ ì°°
ìķĪ ìłĦ
Ġì§ģ ìĽĲ
Ġìĭľê°Ħ ìĿ´
ĠíĮĲ ëĭ¨
Ġê°Ļ ìĬµëĭĪëĭ¤
Ġíķµ ìĭ¬
ĠìĿ´ë£¨ ìĸ´
Ġì¡° ê±´
ìłķ ìĹĲ
ĠìĿ´ íķĺ
Ġìĭľê°Ħ ìĿĦ
ê±° ëŀĺ
Ġíıī ê·ł
ĠíĻķ ë³´
Ġíķľ ë²Ī
ĠìłĢ íĿ¬
íķĺëĬĶ ëį°
ëĭ¨ ì²´
Ġê±´ ìĦ¤
Ġìĺ µ
Ġìĺµ ìħĺ
Ġë³´ ëĬĶ
Ġìŀħ ëĭĪëĭ¤
ìĽĲ ìĹĲ
Ġìŀ Ķ
Ġëĭ´ ëĭ¹
íĽĪ ëł¨
Ġìłľ ìĭľ
Ġì»´ íĵ¨íĦ°
Ġê³µ ê³µ
ìļ´ ëıĻ
Ġë° ¤
Ġí ĳ¸
íļĮ ëĬĶ
ĠìĪ ¨
Ġìļ°ë¦¬ ìĿĺ
ìĿ´ ê¸°
Ġìĥģ ëĭ´
ĠëĲĺ ê³ł
ĠìĤ¬ìļ© ìŀĲ
Ġê°Ĳ ìĹ¼
Ġê² ¬
ë³´ íĺ¸
ĠìĤ¬ìļ© íķĺëĬĶ
ëĮĢ ìĹĲ
Ġíĸī ìłķ
ĠìĻĦ ë£Į
Ġìłķ ìĿĺ
ĠëıĻ ìĭľìĹĲ
Ġê³¼ íķĻ
ĠìłĢ ëĬĶ
Ġê¸° ëħĲ
ê°Ģ ë¥¼
Ġìłķ ìĭł
Ġê°ĲìĤ¬ íķ©ëĭĪëĭ¤
Ġê³µ ê²©
ĠíĨµ íķľ
Ġê°Ļ ëĭ¤
ĠìŀĪìĸ´ ìĦľ
Ġë¹ Ī
ĠëĤ´ìļ© ìĿĦ
ĠíĶĦë¡ľìłĿ íĬ¸
ĠìĦł ë³´
Ġê±° ë¦¬
Ġë§¤ ì¶ľ
Ġâĸ ¼
ĠëĮĢ êµ¬
ëıĦ ìĭľ
ìĦ± ìĹĲ
Ġìĸ¸ ë¡ł
Ġê³ł ë¯¼
ĠìĤ¬ ë¡Ģ
Ġíĺĳ ëł¥
Ġìĸ´ ëłµ
Ġì²´ íĹĺ
Ġì¢ Į
ìķĺ ìĬµëĭĪëĭ¤
Ġì°¸ ì¡°
Ġì½ ľ
ĠëıĦ ìŀħ
Ġìĸ¸ ìĸ´
ë¶Ģ ê°Ģ
ëıĦ ëĬĶ
ĠìķĬ ìķĺëĭ¤
¤í ı
Ġëĭ¤ ë§Į
ë§Į ìĿĺ
ìĤ¬ ìĻĢ
ĠìĪĺ ìĥģ
ĠìĤ¬ ë¬´
Ġìĭł ê·ľ
ê·¸ ë£¹
Ġëª¨ìĬµ ìĿĦ
êµ¬ ë¥¼
Ġëĭ¤ìļ´ ë¡ľëĵľ
íİĺ ìĿ¸
Ġë§Į ì¡±
ìĭł ë¬¸
Ġê°ģ ì¢ħ
ìŀĲ ëĵ¤ìĿĺ
Ġë§¤ ìĿ¼
ĠìľĦì¹ĺ íķľ
Ġìĭľ íĹĺ
ëł¤ ê³ł
Ġë°ĺ íĴĪ
Ġë¶Ģ ëª¨
ĠìłĦ íĨµ
Ġê°Ģ ìłķ
ĠìŀĲ ì£¼
Ġíĺ ģ
Ġíĺģ ìĭł
Ġíĸī ëıĻ
ëĬĶ ì§Ģ
ĠíĻį ë³´
ìħĶ ìĦľ
íķĻ ê³¼
ĠíĺĦ ìĭ¤
ëĬĶëį° ìļĶ
ìĹĪ ê³ł
ĠíĬ¹ ìłķ
ìĭľ ë©´
ìłľ ê°Ģ
ĠìŀĪ ê¸°
ê¸° ìĤ¬
Ġì±Ħ ìļ©
ê¶Į ìĿĦ
Ġê¸°ëĬ¥ ìĿĦ
ĠëĦĺ ìĸ´
ì§Ģ ìĿĺ
Ġë¹ Ľ
Ġì²Ń ìĨĮëħĦ
ĠëĲĺ ìĹĪëĭ¤
ëħĦ ëıĦ
ĠêµĲ ìĪĺ
Ġì·¨ ìĨĮ
Ġê²Ģ íĨł
ìŀ¥ ìĹĲ
Ġë§ ¥
ë³ĳ ìĽĲ
Ġì¡° ìĦł
ĠëĤ´ ëł¤
Ġì¼Ģ ìĿ´
Ġìĭľ ì¦Į
ìĦ± ê¸ī
ì¡° ìĤ¬
Ġë°Ľ ìĿĦ
ĠìĿ¸ íķľ
ĠìłĦ íĻĺ
ĠìĹŃíķł ìĿĦ
ìĬ¤ ì½Ķ
Ġíķĺ ë©°
Ġíŀ Ī
ìĦ¸ ëĮĢ
íķ¨ ìĿĦ
ë¹Ħ ë¥¼
ë³´ ëĬĶ
ĠìĪĺ ìĿµ
Ġë³´ ìķĪ
ĠìľĦ íķĺìĹ¬
ìĿ´ ìŀĲ
ëįĶëĿ¼ ëıĦ
ĠìĹ¬ ë¦Ħ
ĠìķĦ ëĭĪëĭ¤
ĠëĮĢ íķ´ìĦľ
ĠìķĦ ìĭľìķĦ
Ġë§Į ëĵľëĬĶ
ĠìĤ¬íļĮ ìłģ
ëħĦ ê°Ħ
ê¸° ìŀĲ
ĠìĦ¤ ê³Ħ
Ġëĵ± ìľ¼ë¡ľ
Ġê²Ģ ìĤ¬
Ġì¡° ìĦ±
Ġìĸ¼ êµ´
ìĿ´ ëŀĢ
ê³Ħ íļį
ĠíķŃ ìĥģ
ĠìĦ¤ ë¦½
ĠìĿ¼ ìĿĦ
Ġë¬¸ìłľ ë¥¼
Ġíķĺ ìĹ¬
Ġìĭ ¸
ĠìĽĲ íķĺëĬĶ
Ġëĭµ ë³Ģ
ìĤ¬ ì§Ħ
ìĸ´ ìķ¼
Ġì²Ń ëħĦ
Ġê¶ģ ê¸Ī
Ġëª© ìłģ
ìĿ¼ ìĹĲ
ë¬¼ ìĿĺ
Ġìŀ¬ ë¯¸
Ġì¹´ íİĺ
ì§Ģ ì§Ģ
Ġì¹¨ ëĮĢ
ëŁī ìĿĦ
Ġëª¨ ì§ĳ
Ġìĭ¶ ìĿĢ
ĠíĻĶ ë©´
Ġì° į
ĠëĤĺ ë¬´
ĠêµĲ íĨµ
ìľ¼ ëĭĪ
ĠìĺĪ ìĪł
Ġê²½ ê¸°ëıĦ
Ġë°ĺ ëĵľìĭľ
ĠìĿ¸ ê·¼
Ġê³¼ ê±°
ìľĦ ìĹĲ
Ġìĸ´ëł¤ ìļ´
Ġìĭł ê²½
Ġí ĩ´
Ġë¸Ķ ëŀĻ
ĠìĿĺ ìĽĲ
ìĿ´ ì§Ģë§Į
Ġìłľ ëĮĢë¡ľ
Ġíķł ìĿ¸
Ġê·¸ ëĥ¥
Ġë°Ķ ëŀĮ
ĠíķĻ ìĬµ
Ġê·¸ ëĮĢë¡ľ
ë¬¸ ìĿĺ
Ġìĺ¤ ëŀĺ
Ġë¶Ī ê°Ģ
Ġë¬¸ ìĦľ
ë³´ íĹĺ
ëĲĺ ë©´
Ġëĵ± ìŀ¥
ĠìĽ ĥ
ê°Ģ ê°Ģ
ìĭľ ê³ł
Ġíĺ¹ ìĿĢ
Ġë°©ë²ķ ìĿĦ
Ġê¸° ëĭ¤
ìĥģ ìĹĲ
ìĺ¤ ëĬĶ
ĠëĮĢ ìĭł
íķĺìĺĢ ìĬµëĭĪëĭ¤
ìĻĢ ìĿĺ
ëł¤ ë©´
ìĿ¼ ë³´
ĠíĿ ¡
Ġë©Ķ ëī´
ĠìĤ¬ìļ© íķĺìĹ¬
ĠìĪĺ ì§ĳ
ëĵ± íķĻêµĲ
Ġâĸ ¶
Ġíĳľ ì¤Ģ
ëĵ¤ ìĹĲ
ĠìĹĲ ëĦĪì§Ģ
Ġì¦Ĳ ê¸¸
ìłĲ ìĿ´
ëħĦ ë¶ĢíĦ°
Ġë³´ íĨµ
Ġëª¨ ìĸĳ
Ġë ŃĲ
ĠìłķëıĦ ë¡ľ
ĠìĪĺ ì¶ľ
Ġìłĳ ê·¼
Ġì°¨ ì§Ģ
Ġëĵľ ëŁ¬
ĠíĿ¬ ë§Ŀ
Ġë²ł ìĿ´
Ġìķŀ ìĦľ
Ġìļ° ëł¤
ĠìŀĪ ì§Ģ
Ġë§Ĳ ìĿĦ
Ġê² ª
ê°Ģ ìļĶ
ìłĦ ìĹĲ
ĠìĿ¸ ëıĦ
Ġë¶Ħ ë¥ĺ
Ġì¢ħ íķ©
ĠíĴĪ ì§Ī
Ġë³´ ê´Ģ
Ġë§Ī ìĿĦ
ĠíĻľìĦ± íĻĶ
Ġë¡ľê·¸ ìĿ¸
ìĹĨ ëĬĶ
ê²ł ëĭ¤ëĬĶ
ĠìĪľ ê°Ħ
ĠìĿ´ ë©ĶìĿ¼
ĠìķĬëĬĶ ëĭ¤
ìĭĿ ìĿ´
Ġìłķ ë¦¬
ê´Ģ ê³Ħ
ê³¼ ìłķ
ĠìĬ¤ ìĬ¤ë¡ľ
ĠëĲĲ ëĭ¤
ĠìĿ´ë¯¸ ì§Ģ
Ġê´Ģê³Ħ ìŀĲëĬĶ
ëĤ´ ëĬĶ
ëĿ¼ ë©°
Ġêµ¬ ìŀħ
ĠìŀĲìĦ¸ íķľ
ëĵ± ë¡Ŀ
Ġë³´ ìĿ¸ëĭ¤
ìľ¼ë¡ľ ëĬĶ
Ġì£¼ ëĬĶ
ĠìłľíĴĪ ìĿĦ
ë¬¸ ìĿĦ
Ġìĥģ ìĦ¸
ê´Ģ ê´ĳ
Ġíļ¨ ìľ¨
ĠíĻķìĿ¸ íķł
Ġì§Ī ë³ĳ
ìĸ´ ë¥¼
ĠìłĦ íĸĪëĭ¤
ĠíĬ¹ë³Ħ íķľ
ìķĦ ìĦľ
ìĭł ì²Ń
Ġíķ´ ìĦľ
ĠìľĦ íķ´ìĦľëĬĶ
ê¸Ī ìľµ
Ġë°ĺ ìĺģ
ë²Ī ì§¸
ĠìĺĪ ìĤ°
Ġë²ķ ë¥ł
ĠìĬ¤ë§ĪíĬ¸ íı°
ìĿ¼ ìĿĦ
ìľ¼ë¡ľ ìĦľ
ĠìĪĺ ìĪł
Ġê´Ģê´ĳ ëªħìĨĮ
ĠìĿ´ìķ¼ ê¸°ë¥¼
ĠëĬĲ ëģ¼
Ġíķĺ ìĿ´
Ġìĸ¼ë§Ī ëĤĺ
ìĭľ ì¼ľ
ĠíĹĪ ìļ©
ëĭĺ ìĿ´
íı¬ íĬ¸
íİ¸ ì§ĳ
ĠìĺĪ ìĪĺ
ìĸ´ ëıĦ
ëĥĪ ëĭ¤
ìĭľ ìĬ¤íħľ
ĠìķĦ íĮĮíĬ¸
ĠìĿ´íĥĪ ë¦¬ìķĦ
ëĤ´ ìļ©
Ġì£¼ ëª©
Ġìļ°ë¦¬ ëĤĺëĿ¼
Ġë ĩ
Ġëĩ Į
Ġìĭľ ì²Ń
ìĿ´ëĿ¼ ë©°
ĠíĺĦ ì§Ģ
Ġì£¼ íĥĿ
Ġì° ¬
Ġìĭł ë¢°
Ġëħ¸ ëŀĺ
Ġê²½ìļ° ê°Ģ
Ġìĭľ ë¦¬ì¦Ī
íķĺ ìŀĲ
ìłķ ë¶Ģ
ĠìĦ± ëĬ¥
Ġì¶ľ ìĹ°
Ġëı ¼
Ġìłĳ ìĪĺ
ëĮĢ íļĮ
ìĦ¸ ë¥¼
ëĮĢ ê°Ģ
Ġì£¼ ìĭĿ
Ġì£¼ ìĿĺ
Ġëĭ¨ ì²´
ĠìłĦ ìļ©
Ġìłľ ìķĪ
ĠíļĮ ìĿĺ
Ġë§ Ŀ
ĠëŁ¬ ìĭľìķĦ
Ġê³ §
Ġëıħ ìĿ¼
ìĬ¤ ëŁ¬ìļ´
ê°Ħ ìĿĺ
ĠìķĦ ë§Ī
Ġê²¨ ìļ¸
ĠëĦ¤ íĬ¸ìĽĮíģ¬
Ġë¶Ī íİ¸
ĠëłĪ ìĬ¤íĨłëŀĳ
Ġê³µ íķŃ
ĠìĿ¼ ìłķ
ì¹ĺ ê³ł
Ġìŀ¥ ê¸°
ĠíĻķ ìĤ°
ĠìĹĨ ìĿĮ
ìŀĲ ìĹĲ
Ġë³´ ìŀ¥
ê°Ļ ìĿĢ
Ġì¢ĭ ìĬµëĭĪëĭ¤
íıī ê°Ģ
Ġê±´ ì¶ķ
íķĺê³ł ìŀĲ
Ġê´Ģëł¨ ëĲľ
ìĦ± ìĿĢ
Ġëĭ Ī
Ġëĭ¬ ëĿ¼
ë¦¬ ê¸°
ĠìºĲ ë¦ŃíĦ°
ëĤĺ ë¬´
Ġê°Ģ ëĬĶ
ĠëĤĺ ìĻĢ
ìĽĲ ìĹĲìĦľ
Ġê¸Ī ìķ¡
ìĺĪ ìĪł
Ġíŀĺ ëĵ¤
ë¦° ëĭ¤
Ġê°ľ ìĿĺ
ĠíĥĢ ìĿ´
ìľ¼ë¡ľ ë¶ĢíĦ°
Ġê²° íĺ¼
ĠìĦł ê±°
íĬ¸ ë¡ľ
íĸĪ ìľ¼ë©°
ìĹ¬ íĸī
ìĿ´ ë²Ī
ĠìłĢ ëħģ
Ġíİ¸ ì§ĳ
ĠìĿ´ ë¤Ħ
ĠëķĮ ëĬĶ
ĠëĲĺ ì§Ģ
ĠìĻĦ ìĦ±
ĠS NS
Ġë¶Ī ë²ķ
ìŀ¥ ê³¼
ê¸° ìĻĢ
íĸĪ ì§Ģë§Į
ĠìĤ¬ëŀĮ ìĿĢ
ĠíĻ Ģ
Ġëĭ¬ ëŁ¬
ĠìľĦ íķ´ìĦľ
ĠíļĮ ë³µ
Ġë§ ģ
Ġë§ģ íģ¬
Ġìŀĳ ê°Ģ
ĠìķĦ ëıĻ
ìŀĲ ëĵ¤ìĿĢ
ĠëĤĺ ìĿĺ
íĽ¼ ìĨĲ
ìĿ¼ ìĿ´
ĠìĿ¸ ìĤ¬
ëĮĢ ìĥģ
Ġìŀ¥ìķł ìĿ¸
íķĺ ëįĺ
íķĺ ëĭ¤ê³ł
ì£¼ íĥĿ
íķĺ ëĤĺ
Ġê¸° ì´Ī
Ġëª» íķľ
ìłģ ìĿ´ê³ł
Ġê²°ê³¼ ë¥¼
ĠìĪĺ ìļĶ
ĠìĿĢ íĸī
Ġê°ĸ ê³ł
ĠëĤ ©
ĠíĮĮ ìķħ
ĠìĨĶ ë£¨ìħĺ
ê°Ģ ê³ł
ĠêµŃ ë¦½
Ġì§Ħ ëĭ¨
Ġê·¼ ë¬´
Ġë§Į ìĹĲ
ĠíħĮ ìĬ¤íĬ¸
ĠíĶĦ ëŀĳìĬ¤
Ġì¤ĳìĭ¬ ìľ¼ë¡ľ
ĠëĳĲ ê³ł
ĠëĮĢ íķĺìĹ¬
ĠìŀĲ ê²©
ì¦Ŀ ìĿĦ
íĻĶ ëĲľ
íĸĪ ìĿĦ
ìĹĪ ëĬĶëį°
Ġê´Ģìĭ¬ ìĿĦ
ê²Į ìŀĦ
Ġ ï½ľ
Ġì£¼ ë¡ľ
Ġìĭ¤ ìłľë¡ľ
Ġê·¸ê²ĥ ìĿĢ
ĠìĦł ë¬¼
ĠìĿĺ ìĤ¬
Ġëĵľ ëĿ¼ë§Ī
ĠëĤĺ ëĪĦ
Ġë¸Ķ ë¡ľê·¸
íĪ¬ ìŀĲ
ĠíķĦ ìĪĺ
ìĬ¤ íĦ´
Ġë°Ľ ëĬĶ
ĠìļĶ ìĨĮ
ĠíĻĺ ë¶Ī
ì¤į ëĭĪëĭ¤
Ġë²ł ìĬ¤íĬ¸
ĠìŀĪìĸ´ ìļĶ
Ġê³ ¡
ë³Ħ ë¡ľ
íĺĳ íļĮ
ì§Ģ ë¡ľ
Ġë§ĪìĿĮ ìĿĦ
íķĺ ëĭ¤ëĬĶ
Ġë°Ķ ëĿ¼
ìķ½ ìĿĦ
Ġëª¨ ë¥´
ë¶Ħ ìĿ´
ĠìĬ µ
ĠëĤł ì§ľ
Ġì¤ĳ ìĹĲ
ìľĦ íķľ
Ġìĺģ ìĹŃ
Ġíı¬ ìĿ¸íĬ¸
íķĺìĭľ ë©´
ĠëĤ´ìļ© ìĿĢ
ê°Ģ ê²©
ĠâĹ İ
ëĿ¼ ë©´
ìŀĪ ëĭ¤
ĠíķĺëĤĺ ìĿĺ
ĠíĨµ ìĭł
ĠìļĶ ì¦ĺ
ĠíĹ Į
Ġë³´ íĹĺ
Ġì°© ìļ©
Ġíĸ¥ ìĥģ
ĠìĤŃ ìłľ
ì£¼ ê³ł
ĠìŀĪ ëĭ¤ë©´
ĠìĪĺ ìŀħ
ĠëıĻ ë°ĺ
ê³µ ìĤ¬
Ġê³ł ìļ©
ë¦¬ ë¡ľ
ĠìĨĮ íĨµ
ĠìĿ´ ìĻĢ
ìĺĢ ìĬµëĭĪëĭ¤
Ġíķĺ ê¸°
ĠìĨĮ ìĨį
íķĺê¸° ëıĦ
Ġë¶Ī ê°ĢëĬ¥
Ġë³´ ëĭĪ
Ġê³Ħíļį ìĿ´ëĭ¤
ĠëıĦ ì°©
Ġëĭ¬ ë¦¬
ĠìĹ¬ ìłĦíŀĪ
Ġìĸ¸ ê¸ī
ê°Ĳ ìĿ´
íķ´ ì£¼ìĦ¸ìļĶ
ĠêµŃ íļĮ
ĠìķĦë¦Ħ ëĭ¤ìļ´
ĠëĶ ¸
Ġíķ´ ëıĦ
ĠìĤ¬ ë§Ŀ
ë³¸ ë¶Ģ
Ġê³µ ë¶Ģ
Ġë¹ł ë¥¸
Ġì»¬ ëŁ¬
ĠìĿĺ íķľ
ë°© ìĨ¡
ë¿Ĳ ë§Į
ìŀ¬ ëĭ¨
Ġì±Ħ ëĦĲ
ĠíĻľ ëıĻìĿĦ
ĠK I
ĠìĿ¸ ìĭĿ
Ġíķĺ ëĭ¤
ĠìĤ¬ ëĿ¼
ĠëĤ Ļ
ĠëĮĢ ì²´
ìĪĺ ë¡Ŀ
Ġíĺķ ìĦ±
Ġì£¼ ìĦ¸ìļĶ
ĠìĿ´ê²ĥ ìĿĢ
ĠêµĲ íļĮ
Ġëĭ¤ ìĿ´
Ġê³ł ê¸ī
Ġíİ¸ ë¦¬
ëĭ¨ ê³Ħ
ĠíĪ¬ ìĸ´
ë¡¯ ëį°
ìłķ ìĿĢ
ìĭľíĤ¤ ëĬĶ
ì§ĳ ëĭĪëĭ¤
ê¸° ì¤Ģ
Ġë§Įëĵ¤ ê¸°
Ġë³¸ ë¬¸
Ġë´ Ħ
Ġìĥģ íĳľ
ĠëĲĺ ë©´
ëĭ¬ ëŁ¬
íķĺìĭľ ëĬĶ
Ġë²Ħ ìłĦ
ĠìĪľ ìľĦ
ë³´ ëĭ¤ëĬĶ
Ġâľ ħ
ì²´ ìĿĺ
ĠìĥģíĴĪ ëªħ
Ġë§Ī ì¼ĢíĮħ
ĠíķŃ ëª©
Ġì§ ķ
ĠëĦ¤ ìĿ´ë²Ħ
Ġë§Ĳ ìĿ´
íķĺëł¤ ë©´
ĠìĹĨ ìĹĪëĭ¤
Ġê°ĢëĬ¥ìĦ± ìĿ´
ĠìĹĨ ìĸ´
Ġëıħ ë¦½
ê²ł ì§Ģë§Į
Ġìŀ¥ ê´Ģ
Ġê°ľ ëħĲ
Ġì¡¸ ìĹħ
Ġë¬ »
ë§Ī ìĿĦ
Ġìŀ ĥ
Ġì¤ĳ ìĿ¸
Ġë¶Ģ ëıĻìĤ°
Ġê´ĳ ì£¼
ëŁī ìĿ´
ĠëĮĢ ìłĦ
ĠíĻķ ìŀ¥
Ġë°Ķíĥķ ìľ¼ë¡ľ
ĠìĭĿ íĴĪ
ìĦ± ìĿĺ
ì²ĺ ë¦¬
Ġê°Ģ ì¹ĺ
ĠëĨĴ ìķĦ
Ġì¡° ìłķ
Ġìĺ ¥
Ġë¹Ħ íķ´
ë°Ľ ìĿĢ
ĠìķĪ ìĹĲ
ĠìŀĲìĭł ìĿ´
Ġë¯¸ ëĶĶìĸ´
Ġë³¸ ê²©
Ġë³´ ìĿ´ëĬĶ
ìłĦ ë¬¸
ĠìĤ¬ìļ© íķĺê³ł
ĠëĮĢ íĺķ
ĠìĹĦ ë§Ī
Ġì§Ģ ìĭĿ
ĠìĹ¬ ìŀĲ
ĠëıĦìĽĢ ìĿĦ
ì²´ ë¥¼
Ġ( âĢ¦)
ëĵľ ìĿĺ
ĠìĦ¸ íĬ¸
íķĺê²ł ëĭ¤
ĠëĬĲ ê»´
ĠíĽĪ ëł¨
íĬ¸ ë¦¬
Ġë² ½
ë¦¬ íĭ°
ìĿ´ ìĿĺ
ĠìĤ¬ëŀĮ ëĵ¤ìĿĢ
Ġê³µ ëª¨
ìĭ¬ ìĿĦ
Ġëĵ¤ìĸ´ ê°Ģ
íķ´ ëıĦ
ìļ° ëĬĶ
ì²´ ìľ¡
Ġëħ¼ ìĿĺ
ë³´ ë©´
ìĶ¨ ëĬĶ
ë¦¬ ìĺ¤
ìĿ´ íķĺ
Ġì²´ ê²°
ĠëĮĢ ì¶ľ
ìĬ¤ íħĮ
ĠìĦ¸ íĥģ
ĠëĮĢ ì¤ĳ
Ġë¯¸ ëĭĪ
Ġíķĺ ëĿ½
ĠíķľêµŃ ìĸ´
Ġì²Ń êµ¬
Ġê¸°ìĪł ìĿĦ
TR I
ĠìĦľ ë²Ħ
ĠìĦľìļ¸ ìĭľ
ĠìĨĮíĶĦíĬ¸ ìĽ¨ìĸ´
Ġê¸Ģ ìĿĦ
ĠT IP
êµĲ íļĮ
Ġë°© ì§Ģ
Ġë¶Ģ ìłķ
ĠìłĦ ë°ĺ
ĠíķĺëĤĺ ëĭĺìĿĺ
íļĮ ìŀ¥
Ġë¯¸ ë¦¬
Ġíķľ ëĭ¤ëĬĶ
Ġê°ľ ìłķ
Ġë¹ł ë¥´ê²Į
Ġì½Ķ ìĬ¤
Ġë¹ ħ
Ġê³¼ìłķ ìĹĲìĦľ
Ġë§ŀ ëĬĶ
ĠìĥĿê°ģ ìĿ´
ìĤ¬ ë¡ľ
êµĲ íĨµ
íĻĶ ê°Ģ
ê²ł ëĭ¤ê³ł
ĠíķĦìļĶ ê°Ģ
Ġëª© ìĨĮ
Ġìŀĳ ëıĻ
ĠìĿ Ħ
Ġì¶ľ ì²ĺ
ë²ķ ìĿĦ
Ġìµľ ìłģ
ĠìĨĮë¹Ħ ìŀĲ
Ġì±ħ ìŀĦìĿĦ
íķĺê¸° ë¡ľ
Ġë°ľ íĸī
ĠìĨį ìĹĲìĦľ
ê°Ķ ëĭ¤
ë¶Ģ ìĿĺ
Ġì°½ ìĹħ
Ġê·¸ ëĵ¤ìĿĢ
ë¶Ħ ìĿĦ
ìĿ¸ ê³¼
Ġê²ĥ ìĿ´ëĿ¼ê³ł
Ġì£ Ħ
ĠëĤĺ ìĿ´
Ġì¸¡ ìłķ
Ġì²´íģ¬ ìķĦìĽĥ
ĠâĹ ĩ
ĠëıĻ ìĿĺ
Ġê°ľ ë³Ħ
Ġê·¸ ë¦°
ìĤ¬ ìĹĲ
ĠìŀĪ ëįĺ
ĠìĹħ ê³Ħ
ĠìĺĪ ë¥¼
ĠìĿ¸ ìĥĿ
ìľ¼ë¡ľ ëıĦ
ĠìĪ ł
Ġê·¸ ê°Ģ
ëıĦ ìĹĲ
ĠìĿ´ìľł ëĬĶ
ìľĦ ë¡ľ
ĠìłĦ ìŁģ
Ġë§Ī ìĬ¤íģ¬
Ġë´ Ĳ
ĠíĸĪ ìĬµëĭĪëĭ¤
Ġíı¬íķ¨ ëĲĺìĸ´
ĠëĲĺ ìĹĪ
ĠìķĪëħķ íķĺìĦ¸ìļĶ
íķ´ ìļĶ
ìĥģ ìĿĢ
Ġë¸Ķ ë£¨
Ġëĭ¤ ë¥´
ĠìĪĺ ê°Ģ
íĶ¼ ìĬ¤
Ġì¤ĳ ê°Ħ
ĠìĻĦ ìłĦíŀĪ
Ġê¸° ìĹ¬
ĠìĤ¬ìĿ´ ì¦Ī
ìĿ´ ìļ©
Ġê±´ ë¬¼
Ġë°° ê²½
ĠëıĻ ë¬¼
S NS
êµ¬ ê°Ģ
Ġìŀ¥ ë¹Ħ
Ġë² ¤
ìĤ¬ ê³ł
ê°ľ ë¥¼
ë¶Ħ ê¸°
Ġìłķ ê¸°
íŀĪ ëł¤
Ġê¶Į ìŀ¥
ë§Į ìĿĦ
Ġë°Ľ ìķĺëĭ¤
ë°ľ ìłĦ
ê±´ ê°ķ
ĠìĪĺ ìĹħ
Ġì§Ħ ì¶ľ
ìĿ´ ë©´
ĠìĦ¤ëªħ íĸĪëĭ¤
Ġê°Ģ ëĵĿ
Ġê·¸ë¦¬ ìĬ¤
ìĥģ ëĭ´
Ġê·ľ ìłķ
Ġìĺ Ĩ
ĠìĹĨ ìĿĦ
Ġì¡° ìłĪ
ìĿ´ëĿ¼ ë©´
ë²Ħ ìĬ¤
ìłľ ëĬĶ
ëįĶ ëĭĪ
ĠìŀĪëĬĶ ì§Ģ
Ġìĥģ íĺ¸
Ġìĭľ ëıĦ
ĠìŀĪ ìĿĮ
Ġì§Ģ ì¼ľ
ê²½ ê¸°
Ġì·¨ ìĹħ
Ġêµ¬ ê¸Ģ
Ġìłľ ëª©
ê´Ģ ìĿĦ
ĠìĿ¼ë°ĺ ìłģìľ¼ë¡ľ
Ġìĺ ·
ĠëĤĺ ìĦľ
Ġê²½íĹĺ ìĿĦ
íķ¨ ìľ¼ë¡ľìį¨
ìłľ ìĿĺ
ĠìĿ¼ ìĥģ
ìħ¨ ìĬµëĭĪëĭ¤
ĠìĤ¬ëŀĮ ìĿĺ
ì½Ķ ë¦¬ìķĦ
Ġêµ¬ íĺĦ
ìŀ¥ ìľ¼ë¡ľ
ĠìĿ´ìļ© íķ´
ê·¸ ëŀĺ
ĠëĤ® ìĿĢ
âĺħâĺħ âĺħâĺħ
Ġíķĺ ëĬĺ
ĠìĿ¸íĦ° ë·°
Ġê·¼ ë¡ľ
Ġê°ķ ìĿĺ
ê±´ ìĦ¤
Ġë°ĺ ë©´
ĠíĻķ ìĭ¤
ìĺģ íĻĶ
êµ¬ ìĿĺ
ìĨĮ ëĵĿ
Ġê·¸ ëıĻìķĪ
ìĤ¬ ìļ©
Ġê±° ì³Ĳ
Ġë¬´ë£Į ë¡ľ
ìłķ ìĿĺ
Ġìŀ¥ ì¹ĺ
ĠíĽĦ ê¸°
Ġì¶© ìłĦ
ëĭ¨ ìĿĦ
Ġíĸ¥ íĽĦ
ĠëĮĢë¶Ģë¶Ħ ìĿĺ
ëĵľ ê°Ģ
ë¦¬ ìĻĢ
¤í Ĺ
íķľëĭ¤ ë©´
êµŃ ìłľ
Ġë¹Ħ íĮĲ
ë³´ ëĭĪ
ĠìłĦ íĺĢ
ìŀĲ ì¹ĺ
ĠíĻķ ì§Ħ
ìĭĿ íĴĪ
ĠíĽĦ ìĽĲ
ĠíĶĦë¡ľê·¸ëŀ¨ ìĿĦ
ĠìķĬ ëĭ¤
ìĸ´ ê°Ģ
ê²½ ìĺģ
Ġë°ĺ ë³µ
ĠíķĺëĬĶ ëį°
ĠëıĦ ìłĦ
ê¸Ī ìķ¡
ê¸Ī ìĿĢ
ëħĦ ëĮĢ
Ġê°Ģ ìĿ´ëĵľ
ĠëĲĺ ìĹĪìĬµëĭĪëĭ¤
ë¶Ħ ìķ¼
Ġë¬´ ìĦł
ĠíĨł ë¡ł
Ġëĭ¬ ìĦ±
ê³¼ ëĬĶ
Ġê³łê°Ŀ ìĦ¼íĦ°
Ġë¶Ģ ê³¼
ĠìľĦ ìĹĲ
Ġë¶Ģ ë¬¸
Ġìµľ ìłĢ
ì§Ģ ìļĶ
ĠìĿ¼ ìľ¼
ĠíĽĦ ìĹĲ
Ġìŀħ ìŀ¥
ìĤ° ìĿĦ
ĠìĨĮ ìľł
Ġìĥ Į
ìļ´ ìĺģ
Ġëĳĺ ëŁ¬
Ġë¹ ¼
ìĿ´ íĶĦ
ëĭ¨ ìĿĺ
íķĺ ëĿ¼
íĸĪ ëĬĶëį°
ì§Ģ ë°©
Ġì¶ľ ìĭł
Ġë°ĺ ëĮĢ
Ġìķ¼ ìĻ¸
ë¦¬ ê·¸
Ġì¢ħ ë£Į
Ġê³¨ íĶĦ
Ġìłľ ê¸°
ìļ° ë¦¬
ĠëĤ¨ ìŀĲ
ĠíĹ ¬
Ġê²ĥ ìĹĲ
ĠìĿ´ ìĤ¬
ĠìłĲ ìĿĦ
ĠìľĦ ë°ĺ
Ġê°Ģ ìĬ´
ĠìŀĲ ëħĢ
Ġê²Ģ ì°°
ĠëįĶ ë³´ê¸°
Ġë¡ ¯
Ġë¡¯ ëį°
Ġì¹´ ë©ĶëĿ¼
ë¥´ ê¸°
íı¬ ìĿ¸íĬ¸
Ġê²Ģ ì¦Ŀ
ëį° ìĿ´íĦ°
ĠìĦ¸ ë¶Ģ
ìĿ´ ìĹĪ
Ġìŀ¬ ë£Į
Ġë¶Ī êµ¬íķĺê³ł
ëĬĲ ëĥĲ
Ġê°Ģ ìĥģ
Ġë¯¼ ê°Ħ
Ġê´ ´
ê¸° ê³ł
ĠíĽ¨ ìĶ¬
Ġëĵ± ê¸ī
ĠìĤ¬ ëĬĶ
ĠìĿ¼ ëĭ¨
ì¤ĳ ìķĻ
Ġëĭ¹ìĭł ìĿĺ
ëħĦ ìĿĦ
íĸĪëĭ¤ ëĬĶ
ì¤Ģ ëĭ¤
ĠíĥĢ ìŀħ
ĠìĿ¼ ìĸ´ëĤĺ
Ġëį°ìĿ´íĦ° ë¥¼
íķŃ ê³µ
Ġë°Ķ ëĭ¤
ĠìĤ¬ ìĹħìĿĦ
ĠëĤĺíĥĢ ëĤ¬ëĭ¤
Ġë°©ìĭĿ ìľ¼ë¡ľ
ĠìĤ¶ ìĿĦ
ĠìłĦ íķ´
ĠëĮĢ íķ´ìĦľëĬĶ
ìĹ°êµ¬ ìĽĲ
Ġìĭľ ìłĪ
ĠìŀĪ ìĹĪìĬµëĭĪëĭ¤
Ġë¹Ħ ì¹ĺ
Ġëł Į
ì¡° ê±´
ĠìĿĺ ë¬´
ĠíĨµ íķ´ìĦľ
ëĭµ ëĭĪëĭ¤
ĠìĤ¬ëŀĮ ìĿĦ
ëħ¸ ëıĻ
ë¦ħ ëĭĪëĭ¤
ê³ł ë¥¼
ìĭ¤ ìĿĦ
Ġìľł ëªħ
Ġê·¸ ëŁ¼
Ġë°± ìĭł
Ġë¶Ħ ëªħ
Ġë¶Ī ìķĪ
ë¦¬ íĬ¸
ìĸ´ ì§Ħ
ĠìĤ¬ìĭ¤ ìĿĦ
ë§Į íķľ
Ġíıī íĻĶ
Ġëħ¼ ëŀĢ
íĮĮ ìĿ¼
Ġë²Ī íĺ¸
Ġì§ĢìĨį ìłģìľ¼ë¡ľ
ĠìĿ´ìļ© ìŀĲ
ĠìķĦìĿ´ íħľ
ë©¤ ë²Ħ
Ġê³¼ìłķ ìĿĦ
ĠêµŃë¯¼ ìĿĺ
Ġìĺ¤ ëŀľ
ĠìłĢìŀĳê¶Į ìŀĲ
Ġê¸°ì¤Ģ ìľ¼ë¡ľ
ĠëĤĺìĺ¤ ëĬĶ
Ġë°Ľ ìķĺ
Ġì§Ģê¸Ī ê¹Įì§Ģ
ĠìĪĺ ëĬĶ
ĠìĹ° ìĨį
Ġë² ¨
Ġìĭ¤ ëĤ´
Ġì¤ĳ ëĭ¨
ĠìĪĺ ìŀĪëĬĶ
Ġë¿Ĳ ë§Į
ëıĦ ìĦľê´Ģ
ĠëĬ ¦
íĴĪ ìĿĦ
Ġëª» íķĺê³ł
ê³µ ìĽĲ
ê³µ íķŃ
ìľĦ ëĬĶ
Ġì£¼ ìĭľê¸°
ĠìłĦ ìŀ¬
ëĭ· ì»´
Ġê°Ģê¹Į ìļ´
Ġë§ ¨
ìłģ ìĿĦ
ìĦ¸ íĬ¸
ĠëĮĢ íĻĶ
Ġëªħ ìĿĺ
Ġê°ĢëĬ¥ íķĺëĭ¤
ĠìĿĺê²¬ ìĿĦ
Ġê´Ģìĭ¬ ìĿ´
ìĿ´ ìĤ¬
Ġìĭľ ëĮĢ
ĠëıĦ ë¡ľ
Ġì¶ľ ë°ľ
Ġë³´ ì¦Ŀ
Ġìķ½ ìĨį
Ġëĵľ ë¦½ëĭĪëĭ¤
Ġìĵ ¸
Ġê²ĥ ì²ĺëŁ¼
Ġì¸¡ ë©´
Ġê°Ģ ìĿĦ
Ġíŀĺ ìĿĦ
ĠëĶ ±
ĠëıĪ ìĿĦ
Ġì¡° íķ©
ĠìĺĪ ì¸¡
Ġìĭľ ê°ģ
ì§Ģ ìĻĢ
ìļ´ ëĵľ
Ġë§Ī ì¹ĺ
ĠìĿ´ìļ© íķł
Ġë¦¬ ì¡°íĬ¸
ĠìķĦëĭĻ ëĭĪëĭ¤
Ġìĭ¤ ì²ľ
ì§Ī ìĿĦ
ìĤ¬ ëŀĳ
ë¯¸ ëĶĶìĸ´
ĠìĿ´ë¦Ħ ìĿĦ
ì§Ħ íĿ¥
ĠìĦł ë°ľ
Ġëģ ¼
ĠíĶĦë¦¬ë¯¸ ìĹĦ
ëıĦ ìĻĢ
ĠëĮĢ íļĮ
Ġë¹Ħ ìľ¨
Ġëı ķ
Ġìŀ Ĭ
Ġì§ĢìĹŃ ìĿĺ
Ġ% ,
Ġë³ĳ ìĽĲ
ê¸° ê¸°
Ġìĭ¤ ìĭľê°Ħ
ì§Ģ ê¸°
ĠíĬ¹ ê°Ģ
ĠìĨĮ ëĵĿ
Ġëĸ¨ìĸ´ ì§Ĳ
Ġê¸°ë°ĺ ìľ¼ë¡ľ
ìĭľ íĹĺ
íķĻ ëħĦ
Ġëª© ë¡Ŀ
Ġë¹ĦìĬ· íķľ
ĠìŀĪìľ¼ ëĭĪ
Ġê³ł ìłķ
ĠìĤ¬ì§Ħ ìĿĦ
Ġíģ¬ ê¸°
Ġìľł ë¦¬
Ġë§Į ìķ½
ĠìłĲ ê²Ģ
ĠëĤĺ ê°Ģ
ĠíĻĶ ìĿ´íĬ¸
ĠëĤ¨ ìķĦ
ĠìĹĨ ê³ł
ĠíĬ¹ ìĦ±
ìĭľ ìĬ¤
Ġëī´ ìļķ
ĠìĦ¸ ê¸Ī
Ġê±° ì£¼
Ġíķĺ ë©´ìĦľ
íĭ° ë¸Į
ìłĲ ìĹĲìĦľ
Ġìĵ ´
ìłĲ ìĿĢ
Ġìķ ¤
ì³¤ ëĭ¤
Ġê·¸ ëĵ¤ìĿĺ
ê´Ģ ëł¨
Ġë§¤ ëħĦ
ĠìŀĲìĦ¸ íŀĪ
ĠìķĬ ìľ¼ë©´
ìŀĲëıĻ ì°¨
ë§Į ìĿ´
ë¶Ģ ìĹĲ
ĠëıĦ ìĻĢ
ĠíĬ¹ ìĪĺ
ĠëĮĢíĳľ ëĬĶ
ê°Ģ ìĿĺ
ê°Ļ ìĿ´
Ġíİ¼ ì³Ĳ
ìĨĮ ê°ľ
Ġê°ķ ìĽĲ
Ġì£¼ ê³ł
Ġì§Ī íĻĺ
Ġíı¬íķ¨ íķľ
Ġë¥ ¼
êµŃ ë¯¼
ëĵ¤ ë¡ľ
ìľĦ ê°Ģ
Ġì§Ģ íĤ¤
Ġìļ´ ìłĦ
ĠìĥĿê°ģ ìĿĦ
Ġì¹´ ì¹´ìĺ¤
ë§Į ìĹĲ
ĠìłĬ ìĿĢ
Ġì·¨ ê¸ī
ëĲĺ ë©´ìĦľ
Ġëĭ¤ ê°Ģ
Ġëĭ¤ ëĭĪ
ìĤ¬ ìĹĲìĦľ
ĠíĽ ¼
ĠíĽ¼ ìĨĲ
ìĸ´ ë¡ľ
ĠìĻĦ ìłĦ
Ġë¯¼ì£¼ ëĭ¹
Ġê²° íķ©
Ġê°ķ íķľ
Ġì±ħ ìĿĦ
ĠëĪĪ ìĹĲ
Ġìłĳ ìĨį
ĠëĿ¼ ìĿ¸
Ġë©Ķ ìĿ´
Ġì¶©ë¶Ħ íŀĪ
Ġë° ĳ
íķĻ íļĮ
ê°Ģ ì¡±
ë°Ľ ëĬĶ
ĠíĮĮíĬ¸ ëĦĪ
Ġë°Ľ ìľ¼
ìĹĲ ëĦĪì§Ģ
ĠìĤ¶ ìĿĺ
ĠìķĮìķĦ ë³´ê¸°
ê´Ģ ìĿ´
Ġë´ ¤
ìĹĲ ë§Į
ĠëĪĦêµ¬ ëĤĺ
ĠìŀĪ ìľ¼ë©´
ìķĦ ìķ¼
Ġìĸ´ ë¨¸ëĭĪ
íķĺ ìĿ´
Ġë°ľìĥĿ íķł
íķ´ìķ¼ íķ©ëĭĪëĭ¤
Ġê²ĥ ê³¼
ëĮĢ ëĬĶ
Ġë§Ī ê°Ĳ
ĠëĤ¨ ìĦ±
Ġê¸°íļĮ ë¥¼
Ġëħ¸ ì¶ľ
Ġë°©ë²ķ ìĿĢ
ì¦Ŀ ê¶Į
ëŀĲ ëĭ¤
Ġëį ĺ
ĠìĹ° ê¸°
Ġíŀ Ĳ
ĠìĹ° ì¶ľ
Ġì¦ī ìĭľ
Ġê±± ìłķ
Ġë¹Ħë¡¯ íķľ
Ġíķľ êµŃìĿĺ
Ġë³´ ê±´
ĠìłķíĻķ íķľ
ì¡° íķ©
ĠëĤĺ ë¥¼
Ġì§ĢëĤľ ëĭ¬
ĠëĬ Ķ
ĠìĦ¸ ìĥģ
ĠìķĮ ê²Į
ìłĦ íĻĶ
ìĹĲê²Į ëĬĶ
ë¥¸ ëĭ¤
ëª¨ ëį¸
Ġë© ¤
Ġë©¤ ë²Ħ
Ġìłģ ìĿ´
Ġê´ľ ì°®
Ġì»¨ íħĲì¸ł
Ġë§İ ëĭ¤
Ġë¬´ ìĬ¨
ëł¤ ëĬĶ
Ġì£¼ë¬¸ ëŁī
Ġíĭ Ģ
Ġìłľ ìĸ´
Ġíģ¬ ë¦¬ìĬ¤
ìĭľ íĤ¬
ĠìĽĲ ëŀĺ
Ġë§Ī ë¬´ë¦¬
Ġê± ·
Ġíĺ¼ ìŀĲ
ĠìĪĺ ë§İìĿĢ
Ġê°ķ ëĤ¨
Ġê°ķëł¥ íķľ
ĠëĤĺíĥĢ ëĤĺ
Ġíķľ ëĭ¤ê³ł
ĠìĹ ĳ
ì²´ ê°Ģ
ë¹Ħ ìķĦ
Ġë²ł íĬ¸ëĤ¨
Ġë³´ ìĿ´
ĠìĿ¸ ìĥģ
ĠíĨµ ê³¼
ëĲĺ ê¸°
Ġë°° íı¬
íħĮ íģ¬
Ġíı¬ íĬ¸
ĠìĨį ìĹĲ
Ġìĺģ ìĸĳ
ĠíķĦ íĦ°
ë©´ ìĿĦ
Ġìłķë¶Ģ ìĿĺ
ìĽĶ ë¶ĢíĦ°
Ġê°Ģ ë¥´
ĠìĬĪ íį¼
ì°¨ ë¥¼
Ġìĥī ìĥģ
Ġìłķë¶Ģ ê°Ģ
Ġê³µ ìłķ
ĠìĪĺìĺģ ìŀ¥
ĠìĹ° ê³Ħ
Ġë° ´
ĠìĥĪ ë¡ľ
ë¹Ħ ê°Ģ
Ġê±´ ì¡°
Ġê¼ ¬
ĠìĥĿ ëªħ
Ġë¯¸ êµŃìĿĺ
ì¹ĺ ë£Į
ìĦ¸ ìĦľ
ĠìĤ¬ ìľł
ĠìĹ¬ê¸° ìĹĲ
ë¡ľ ë¥¼
ê²° ê³¼
ëŁ¬ ë¦¬
Ġê² ¸
Ġíķ Ģ
Ġë§ŀ ìķĦ
ìĬ¤ íı¬ì¸ł
âĺĨ âĺĨ
ĠìĦľ ë¥ĺ
Ġë³¸ ìĿ¸
ìŀĲ ìĽĲ
ĠìŀĲ ê·¹
ĠìķĬ ëıĦë¡Ŀ
ê³µ ê°Ħ
ì£¼ ë¥¼
Ġíķĺ ê²Į
Ġëĭ¤ìĿĮ ìĿĺ
Ġì§Ģ êµ¬
íİĺ ìĿ´ìĬ¤
Ġì¶ķ êµ¬
ë°© ì¹¨
íķ´ ì§Ħ
ĠíķĦìļĶ íķ©ëĭĪëĭ¤
ìĤ¬ ëŀĮ
ìĹ°êµ¬ ìĨĮ
ìĬ¤ ìĹĲ
Ġë£ ¸
Ġìĭł ìĨį
ĠìĿ´ìľł ë¡ľ
ĠìŀĪìĸ´ ìķ¼
ĠëķĮë¬¸ ìŀħëĭĪëĭ¤
ìħĺ ìĿĦ
ë³´ ìĦ¸ìļĶ
ìĤ¬ìĿ´ ì¦Ī
ĠëĮĢ ì±ħ
ĠìĿĳ ëĭµ
íķĺ ê²łìĬµëĭĪëĭ¤
ë¶Ħ ìĦĿ
Ġì°¾ ëĬĶ
Ġì²´ ê³Ħ
ìĭĿ ìľ¼ë¡ľ
ë²ķ ìĿ¸
ĠíĨµ ì¦Ŀ
Ġìłķë¶Ģ ëĬĶ
ëĤ´ ê³ł
íĳ¸ ëĵľ
Ġì¼Ģ ìĿ´ë¸Ķ
êµ¬ ì¡°
ëĭĺ ìĿĢ
Ġë§¤ ëł¥
ĠìĹ¬íĸī ìŀĲ
ê¸Ī ì§Ģ
ëĭ¤ ë¥¸
ĠëĤ´ ëħĦ
ĠìĥĪ ë¡Ńê²Į
Ġëª» íķĺëĬĶ
Ġë ĳ
Ġëĳ Ķ
Ġì§Ħ ì§ľ
ĠìķĦìĿ´ íı°
Ġìłľ ëıĦ
Ġíķ´ ìĦĿ
Ġì§Ģ ë¶Ī
ĠíļĮ ìŀ¥
ê²© ìĿĦ
ĠìĽĲ ì¹Ļ
ìĹĲ ìĦł
Ġê³Ħ ìĤ°
ĠíĻķ ìłķ
. ||
ìłĢìŀĳê¶Į ìŀĲ
Ġê°ķì¡° íĸĪëĭ¤
Ġìľł ìķĦ
ĠìĦ¸ ì¢ħ
Ġëĸł ëĤĺ
íĥĢ ìŀĦ
ĠìĤ¬íķŃ ìĿĦ
êµŃ ìĸ´
Ġê·¼ ê±°
ìĭľ ë¯¼
ĠëĤ¨ íİ¸
ĠìĥģíĴĪ ìĿĺ
Ġë° ¥
Ġì§ģ ìĹħ
Ġë¯¸ ìĪł
ĠíĻĶ íķĻ
Ġë°Ķ ê¾¸
Ġë³µ ì§Ģ
ĠìłĪ ëĮĢ
ì¢ħ íķ©
Ġë°ľìĥĿ íķĺëĬĶ
Ġì¢ĭ ëĭ¤
Ġì¶© ëĤ¨
ìĪĺ ë¡ľ
Ġìĺ¤ ë¥ĺ
Ġë¬´ ìĹŃ
Ġì£¼ ê´Ģ
Ġê¹Ĭ ìĿĢ
ĠìŀĲ ëŀĳ
Ġì¼Ģ ìĿ´ìĬ¤
ê¸Ī ìĿ´
Ġê·¸ ëķĮ
Ġë¶Ģ ìĹ¬
Ġì¤ĳìĨĮ ê¸°ìĹħ
Ġìłľê³µ ëĲ©ëĭĪëĭ¤
ìĿ´ ìĥģ
ìķĦ ìĭľìķĦ
ë¬¼ ìĿĢ
ĠëĤ´ ìĹĲ
Ġë¶Ħ ë¦¬
ĠìĿ´ ë¡ł
ĠíĥĢ ê³ł
êµŃ ê°Ģ
Ġë§ŀ ì¶°
Ġíļ¨ê³¼ ë¥¼
Ġê¸° ëıĦ
Ġê±° ë¦¬ìĹĲ
Ġì°¨ ìĿ´ê°Ģ
êµĲ íĻĺ
Ġìķŀ ìĹĲ
Ġë¨¹ ê³ł
Ġíĥľ ìĸĳ
ìĺĢ ëįĺ
ìĽĲ ìľ¼ë¡ľ
ê¸° ëĬ¥
Ġëªħ ìĺĪ
ë¹Ħ ìļ©
ìĭľ íĤ¨
Ġìŀ¬ ìĥĿ
ìĭľ ëĭ¤
ìĿ´ëĿ¼ ëıĦ
Ġêµ¬ ë¶Ħ
ĠìŀĪìĹĪ ëįĺ
Ġì»¤ë®¤ëĭĪ íĭ°
ĠìĥĿ íĥľ
Ġë°Ķ ëĭ¥
Ġìļ° ìĬ¹
Ġëĭ¹ìĭł ìĿ´
ê»ĺìĦľ ëĬĶ
ìľł ìĿĺ
Ġì¢ħ êµĲ
ê±´ ìĿĦ
ĠìĹĶ ì§Ħ
ì½Ķ ë¡ľëĤĺ
Ġë ·
Ġë· °
ìĺĪ ìļĶ
ĠëıĦìĽĢ ë§Ĳ
ìľĦ ìĿĺ
Ġë³Ģ íĺ¸
ĠìĦ± ê²½
Ġìłľê³µ íķĺê³ł
ìĭ¤ ìĹĲìĦľ
íĺ¸ íħĶ
Ġê°ľ ìļĶ
íķĺëł¤ ëĬĶ
Ġâĸ ¡
íķĺ ìļ°ìĬ¤
ìĿ¼ ë¦¬
Ġë©Ķ ëª¨
Ġë°Ķ ëĢĮ
ĠíĻĺ ìŀĲ
ĠìĥģíĻ© ìĹĲìĦľ
Ġëĭ «
Ġë§Ī ìĿ´
Ġê±¸ ì³Ĳ
Ġëĭ¹ìĭł ìĿĢ
ĠìĿĺ ìĽĲìĿĢ
ĠíĮĮìĿ¼ ìĿĦ
ĠëıĻìĿ¼ íķľ
ĠìķĦìĿ´ ëĶĶìĸ´
ë²ł ìĿ´
Ġë°© ì¹¨
ĠíħĮ ìĿ´ë¸Ķ
Ġë°° ì¶ľ
ĠìĿ¸ ìĩĦ
Ġë¹Ħë¡¯ íķ´
ì¡Į ìĬµëĭĪëĭ¤
ĠìĨĮ ìļĶ
ĠìĦŃ ì·¨
ë¦¬ ìłģ
ë¹Ħ ëĬĶ
ìĦ¸ ê°Ģ
íĸī ìĿĦ
Ġìŀ ĩ
ì£¼ ë¯¼
ĠìĬ¤ìľĦ íĬ¸
Ġì§ĢìĽĲ ìĿĦ
AP AN
ê°Ģ ëĿ½
ìĨĮ ìĹĲ
Ġë©´ ìłĳ
Ġë²Ķ ì£Ħ
Ġìľł ìĤ¬
Ġê³³ ìĹĲ
ìĿĺ ë£Į
ĠN FT
ìŀ¬ ë¥¼
Ġê¶Į íķľ
Ġë°ĸ ìĹĲ
ìķĪ ìĹĲ
ĠìłĦ íĪ¬
êµ¬ ëĬĶ
ĠìĹĨ ëĭ¤ëĬĶ
Ġì°¨ ë³Ħ
ëħĦ ê¹Įì§Ģ
ĠìĤ¬ ê³¼
ìĿ´ ê¸°ëıĦ
ĠìĹ´ ìĭ¬íŀĪ
ë³´ ëĵľ
ĠíĮ¨íĤ¤ ì§Ģ
êµ¬ ëĤĺ
Ġë§ĪìĿĮ ìĿ´
Ġë°ľìĥĿ íķľ
Ġë§Įëĵ¤ ê³ł
ĠHost el
Ġê·¹ ë³µ
Ġëĵ£ ê³ł
Ġì§ĢìĽĲ íķ©ëĭĪëĭ¤
Ġê²½ ëĤ¨
Ġê°Ļ ìķĦìļĶ
ĠìĥģíĻ© ìĿĦ
ê²½ ì°°
ĠíķĦìļĶ íķĺëĭ¤
Ġë¶Ī ëŁ¬
Ġê±° ë¶Ģ
ìľ¼ë©´ ìĦľ
Ġìŀħ ê¸Ī
ìĽĶ ìĹĲ
íķĺ ëĭĪ
Ġë¹¨ ë¦¬
Ġíľ ĺ
Ġë¦¬ ëįĶ
ëĭĺ ê»ĺìĦľ
Ġê·¸ê²ĥ ìĿĦ
ĠìŀĲìĭł ìĿĦ
ìĦł ê±°
Ġì¢ĭìķĦ íķĺëĬĶ
ĠìĿ´ ìĿµ
ìĽ¨ ìĿ´
ì§Ģ ê²Į
Ġì¹ľ íĻĺê²½
ëªħ ìĿĢ
Ġìłľ ìĿ¼
ìĶ¨ ê°Ģ
Ġê¸¸ ìĿĦ
Ġìĸĺ ê¸°
Ġìľł ìļ©
ĠìłľíĴĪ ìĿĢ
Ġíļ¨ê³¼ ê°Ģ
Ġì¡° ì¹ĺ
Ġì§ģ ìŀ¥
Ġê±´ê°ķ íķľ
Ġë¶Ī ê³¼
ĠìĪĺ ê°ķ
ĠìĤ¬ëŀĮ ëĵ¤
ĠìĥģíĴĪ ìĿĦ
ĠìĤ¬ íĥľ
ĠìĿ´ ìĻ¸
ĠìłĢëł´ íķľ
ì£¼ ê°Ģ
Ġê·¸ëŀĺ ëıĦ
ĠíļĮìĤ¬ ëĬĶ
ìĪĺ ëıĦ
ĠëĿ¼ìĿ´ ë¸Į
ìĬ¤ ìĻĢ
ëĶĶ ìķĦ
Ġë° ¸
Ġìľł ì¹ĺ
ë¬¸ ìłľ
Ġì£¼ ìłľ
Ġê·ľ ìłľ
ĠìłĦ ë¶ģ
ĠìĿĺ íķĺìĹ¬
ĠìĹ°ëĿ½ ì²ĺ
íĸī ìłķ
ĠíĿĲ ë¦Ħ
ë¬¸ ìĹĲ
Ġëĭ¨ ìĿ¼
ëªħ ìľ¼ë¡ľ
íĺĳ ëł¥
ĠíĿ¥ ë¯¸
Ġë§ º
Ġë°° ì¹ĺ
Ġê¹¨ ëģĹ
Ġë¶Ħ ëĵ¤ìĿ´
ĠìŀĲ ë³¸
Ġëª© ìłģìľ¼ë¡ľ
Ġìľł ëªħíķľ
Ġìµľ ìĦłìĿĦ
Ġë§İ ìķĦ
Ġìľł íĬľë¸Į
ĠìĤ° ë¦¼
ìķĺ ëįĺ
ì¡° ìĦł
ĠìĤ¬ìĿ´ ìĹĲ
íħĶ ëłĪ
ĠíĤ¤ ìĽĮ
Ġë¬¸ìłľ ëĬĶ
ìĭľ ìĿĺ
Ġì£¼ ìłľë¡ľ
ê´Ģ ìĿĢ
Ġì¤ĳ ìĿ´ëĭ¤
Ġëĵ ł
Ġìĵ° ê¸°
Ġê³µ ì§Ģ
Ġë§Ĳ íķľëĭ¤
Ġì§ Ĳ
Ġì¦Ĳ ê±°
ĠíĮ ©
Ġìļ¸ ìĤ°
ĠíĻĺ ìĺģ
ìĿ¸ ëĵ¤ìĿ´
ĠìĿ´ ìŀ¬
Ġë³ĦëıĦ ìĿĺ
Ġë¡ ¤
ĠíĨµ íķĺìĹ¬
Ġë¹Ħ ëĶĶìĺ¤
Ġí ĥģ
ìĥģíĴĪ ëªħ
Ġë¶Ģíĥģ ëĵľë¦½ëĭĪëĭ¤
ìļ° ê³ł
Ġì£¼ ë§Ĳ
Ġê²Įìĭľ ë¬¼
Ġìĭľìŀĳ íĸĪëĭ¤
ĠíĺĦ íĻ©
ĠìĪĺ ìĤ¬
Ġíģ´ ëŁ½
Ġê°ľ ë´ī
Ġê´Ģ ëŀĮ
Ġê¸° ìļ¸
Ġê²½ ë¶ģ
ĠìĿ´ìļ© íķĺìĭ¤
ìĭľ íĭ°
Ġë¨¹ ëĬĶ
Ġë³µ íķ©
Ġíķ© ìĿĺ
ëħĦ ìĿ´
Ġíİ ľ
Ġìĭ¶ ëĭ¤
ĠìķĦ ëĭĲ
ë´ħ ëĭĪëĭ¤
ìĭľ ë¥¼
Ġìĭ¬ ìĤ¬
ĠìºĲ ëĤĺëĭ¤
ĠíĮĮ ìĽĮ
ĠíĨµ ê³Ħ
ìĭľíĤ¤ ê³ł
Ġì£¼ìĿ¸ ê³µ
ĠìĿ¸ ë¬¼
ìĿ¸ ìľ¼ë¡ľ
ĠìĪĺ ë¦½
Ġê°Ģ ì¹ĺë¥¼
ĠìĥĿê°ģ íķ©ëĭĪëĭ¤
Ġì§ ľ
íĻĶ ìĹĲ
Ġìĭ¤ íĺĦ
ìķĪ ëĤ´
Ġìŀĳ ìĹħìĿĦ
ë¥ł ìĿ´
ĠëĤ´ìļ© ìĿ´
Ġëĭ¤ ìĨĮ
ĠìĹ¬ ìľł
Ġìĸ» ìĿĦ
Ġíķ© ê²©
Ġë¶Ģ íĴĪ
ëĭ¨ ìĹĲ
ìłķ ëıĦ
ĠìĺĪ ë¹Ħ
ĠëķĮ ê¹Įì§Ģ
ìĭł ìĿĦ
Ġ% )
ëĵ¯ ìĿ´
ìĭľ ê°Ģ
Ġë¬¸ ìŀ¬ìĿ¸
ìĭĿ ìĤ¬
Ġë³´ ì¡°
ĠìłĦ ê³µ
ì§Ģ ë©´ìĦľ
íĶĦ ë¡ľê·¸ëŀ¨
ê²¼ ëĭ¤
ìłĢ íŀĪ
ĠìĿ´ë²Ī ìĹĲ
Ġë°ľ ìĨ¡
ĠìłĲ ìłĲ
ĠìĪ «
ĠìĭľìĬ¤íħľ ìĿĦ
Ġì°¨ ë¡Ģ
ĠëıĻ ìĺģìĥģ
ĠìĿ´ìļ© íķľ
ĠíĺĦ ê¸Ī
Ġìĥģëĭ¹ íŀĪ
Ġì¹´íħĮê³ł ë¦¬ìĿĺ
ê³Ħ ìķ½
ĠìĿ¸ ìĪĺ
Ġê²½ ëł¥
Ġìĺ Ľ
Ġì¤Ģ ìĪĺ
ĠíĨµ íĻĶ
íĺķ ìĿĦ
Ġë°© ìĹŃ
ĠìĹ¬ê¸° ìĦľ
ĠìĿ´ìļ© íķĺìĹ¬
Ġë©Ķ ìĿ¸
Ġìľł ë°ľ
ì¹ĺ ì§Ģ
Ġëį ľ
íļĮ ìĹĲ
Ġë¥ ĺ
ë³´ ê±´
ĠìĿ´ ìĬĪ
Ġë°ľ êµ´
ê³Ħ ìĿĺ
íķ¨ ìĿ´
Ġë¬´ ê²Į
ĠìŀĪ ëĤĺìļĶ
ìŀĪ ê²Į
Ġê¼ ½
âĸł âĸł
Ġëĭ¨ ìĸ´
ĠìĹĲ ìĦľ
ìĽĢ ìĿ´
Ġê¸¸ ìĿ´
Ġë°ľ ëĭ¬
íķĺìĭľ ê¸°
Ġê°Ħ íİ¸
íĥĢ ìļ´
Ġì·¨ ëĵĿ
ìĦ¸ ê¸°
Ġêµ ³
Ġìľ µ
ìĿĮ ìĿ´
ĠìľĦ íĺĳ
ë¡ľ ìĬ¤
Ġíļį ëĵĿ
Ġê²Į ìŀĦìĿĦ
ĠìĨĮ ìĦ¤
ê¸¸ ìĿĦ
ĠíĮ¨ ìħĺ
ĠìĪĺ ë°ĸìĹĲ
Ġê¸Ī ìĹ°
Ġëªħ ëł¹
ĠíĥĿ ë°°
Ġì²ĺìĿĮ ìľ¼ë¡ľ
Ġê³µ ìļ©
ĠìĻ¸êµŃ ìĿ¸
ì¢ħ ìĿĺ
ìŀħ ëĭĪê¹Į
ë´ī ìĤ¬
ìłĲ ìĹĲ
Ġì°¾ ìĿĦ
ĠìŀĲ ìłĦê±°
âĢĻ (
Ġë´ī ìĤ¬
ĠìŀĲ ìĽĲ
Ġë§Ĳ ê³ł
ĠìĨĮ ë¦¬
Ġì£¼ ëıĦ
ĠìĥģíĻ© ìĹĲ
ëĭ¨ ìĿĢ
ë¡ľ ìļ°
Ġìĵ° ëĬĶ
Ġìĭł ì²´
ëĦĲ ë¦¬
ĠìłľíĴĪ ìĿĺ
ĠìĪĻ ìĨĮ
Ġê½ ¤
Ġë°Ŀ íĺĢ
Ġíķĺ ê²łìĬµëĭĪëĭ¤
Ġìŀĳ ìļ©
ĠëĬĲ ëĤĦ
ĠìĭĿ ëĭ¹
Ġê°¤ ëŁŃìĭľ
ì§Ģ ë©´
Ġê°Ģ ê³µ
ìĦ¤ ëªħ
Ġë³´ê³ł ìĦľ
ëĭĺ ìĿĦ
ĠìĤ¬ëŀĮ ëĵ¤ìĿĺ
Ġê¸°ìĹħ ìĿĺ
Ġì§ ĵ
ĠìĹ° ìŀ¥
Ġì¶ľ ëł¥
ĠíļĮìĽĲ ê°Ģìŀħ
ë³´ ìŀĲ
ĠìĻĶ ëĭ¤
ĠìĿĳ ìļ©
Ġëĵ± ìĿĢ
Ġìĭ Ń
ĠìŀĲ ìĤ°
Ġì°½ ì¶ľ
Ġê°Ģ ì¹ĺê°Ģ
Ġê²½ìļ° ìĹĲ
Ġì§Ģê¸Ī ìĿĢ
ĠíĶĮ ëĿ¼ìĬ¤íĭ±
ĠìĦ± ìĿ¸
ĠìĨĮ ìĭĿ
Ġë¬ ĺ
Ġì°¨ ìĿ´
ìŀ¬ ìĥĿ
Ġë¶Ħ ìŁģ
Ġë¡ľ ë´ĩ
ĠìĦł ìĸ¸
ê±°ëĵł ìļĶ
ë°Ľ ê³ł
íķĺìĹ¬ ìķ¼
Ġë§ĪìĿĮ ìĹĲ
Ġìµľì´Ī ë¡ľ
ìłľ ëıĦ
ĠëĦĪ íĿ¬
ĠìĹ¬íĸī ìĿĦ
Ġìľł ëĭĪ
ĠìłĦ ìĽĲ
ĠìĿ´ ìĽĥ
Ġë§Īëł¨ ëĲĺìĸ´
Ġë°ĺ ëł¤
Ġë°ľ ê¸ī
ĠíĴįë¶Ģ íķľ
Ġìķ¨ ë²Ķ
Ġê¾¸ì¤Ģ íŀĪ
ë¯¸ íĦ°
Ġê²ģ ëĭĪëĭ¤
ĠìĦł íĺ¸
Ġëħ¼ ë¬¸
ìłĲ ìľ¼ë¡ľ
Ġëŀľëĵľ ë§Īíģ¬
ë¶Ģ ìĻĢ
ìĽł ëĭ¤
Ġê³ ¤
ĠëĨį ìĹħ
Ġìľł ìĿĺ
Ġì°¨ ëĭ¨
íĺĦ ì§Ģ
ì§ģ ìĽĲ
íķ´ ë¥¼
, ..
Ġë³Ħ ë¡ľ
Ġìĭľ íĭ°
Ġê°ĳ ìŀĲê¸°
ìĿ¸ ì¦Ŀ
Ġê°ĸ ì¶ĺ
ĠìĿĺ íĺ¹
Ġíķĺ ëĵľ
Ġë°ĶìĿ´ ëŁ¬ìĬ¤
ĠìĪ ²
ĠìĿ¼ë°ĺ ìłģìĿ¸
ë©´ ìĹĲ
Ġìī¬ ìļ´
ì²Ń ìĨĮëħĦ
Ġíŀĺ ëĵł
Ġëĭ¤ ëħĢ
Ġìŀł ìĭľ
ĠìĿ´ ëĵ¤ìĿĢ
Ġíķĺ ìĺĢëĭ¤
íķĻ ìłģ
Ġì¢ħ ì¢ħ
ĠíĮ ģ
ĠëĤĺ ìĻĶ
ë¶Ģ ìŀ¥
Ġëª¨ëĳĲ ê°Ģ
Ġëª¨ íħĶ
Ġìŀĳ ëħĦ
Ġë°° íĦ°ë¦¬
Ġë³´ ìĺĢëĭ¤
Ġê³łê°Ŀ ìĿ´
ë¶Ħ ìĿĺ
ìĿ¼ ìĿĢ
íŀĪ ëĬĶ
ĠëĶ° ë¡ľ
Ġë§ŀ ìĿ´
Ġì²Ń ìĨĮ
íĬ¸ ê°Ģ
Ġê´Ģ ìłĪ
Ġìº ¡
ê¸° íļį
Ġëį° ìĬ¤íģ¬
ĠëĮĢíĨµëł¹ ìĿĢ
ìķ½ íĴĪ
Ġëª¨ìĬµ ìĿ´
Ġëª ¬
íĬ¸ ëĬĶ
Ġìķŀ ëĳĲê³ł
Ġë²Ħ ìĬ¤
ĠìŀĦ ìĥģ
ĠìŀĲ ìľ¨
Ġë°° ëĭ¬
ìĿ¸ê°Ģ ìļĶ
Ġë°©ë²ķ ìľ¼ë¡ľ
êµ¬ ìĹĲ
íĴĪ ì§Ī
Ġì¦Ĳ ê±°ìļ´
Ġìĥģ ê´Ģ
ĠìļĶê¸Ī ìĿ´
Ġíĺķíĥľ ë¡ľ
ì°¨ ê°Ģ
Ġë©Ģ íĭ°
Ġíģ´ ëĿ¼ìļ°ëĵľ
ë°ĺ íĴĪ
ĠìĿ´ëĤ´ ìĹĲ
âĿ¤ ï¸ı
Ġë¬¼ ì§Ī
ĠìĥģíĻ© ìĿ´
ĠëĤ¨ ë¶ģ
Ġë¡ľ ë§Ī
Ġì½Ķ ëĵľ
Ġíķľ ê¸Ģ
íĺģ ëªħ
Ġê·¼ ìľ¡
ĠìķĦ ëĤ´
ê°ľ ìĿ¸
ëĮĢ ì±ħ
Ġë°Ķ ëŀĢëĭ¤
Ġìłķë³´ ê°Ģ
ĠìłĲ ìĭ¬
ĠìĤ¬ëŀĮ ëĵ¤ìĹĲê²Į
ĠìķĪìłĦ íķľ
ê²½ ìĿĦ
ì£¼ ìĨĮ
ĠíĿ °
ê°Ĳ ëıħ
ĠëĮĢ ê·ľëª¨
ìĤ¬ ë¬´
Ġê³µ ê°Ĳ
Ġê²½ìļ° ëĬĶ
ĠëĶ°ëľ» íķľ
ĠìłĦ ìĨ¡
ìĥģ ìľ¼ë¡ľ
Ġì§Ģ ìĹ°
ĠK BS
Ġë°ķ ë¬¼ê´Ģ
Ġëª ½
ëħĦ ìĥĿ
ìļĶ ê¸Ī
ìĤ¬ ìłĦ
Ġê°Ī ëĵ±
K m
Ġì ĮĢ
ĠìĬ¹ ìĿ¸
Ġë³´ ìĦ¸ìļĶ
Ġêµ ´
ë²ķ ìĹĲ
Ġìĺ¬ ëł¤
Ġì¢ĭ ìĿĦ
Ġì§ĳ ëĭ¨
ĠìŀĦ ëĮĢ
ì¡° ìĿĺ
ĠìĹĲìĸ´ ì»¨
Ġì¤ĳ ìĹĲìĦľ
Ġìĸ´ ìļ¸
Ġìĭł ë¬¸
Ġê¸´ ê¸ī
Ġëĭ¬ ëł¤
Ġìĥ¤ ìĽĮ
ĠëĤ´ìļ© ìĹĲ
Ġìķ½ ê°Ħ
ĠëĮĢ ê¸°
ĠìķĦëĭĪ ìĺ¤
ëł¥ ê³¼
ĠìĿ´ ëĵ¤
ìłķ ìľ¼ë¡ľ
Ġìĺ¬ë°Ķ ë¥´ê²Į
Ġì£¼ ìµľ
ë¬´ ë¥¼
ìļ© íĴĪ
ĠëıĦ ìĭ¬
Ġë¯¼ ì¡±
ĠìĻĦë²½ íķľ
Ġìĺ¤ë¥¸ ìª½
ĠìŀĲ ë¦¬ë¥¼
Ġë°ľ ìĸ¸
Ġìĭł íĺ¸
ĠíĸĪ ëįĺ
ĠëĤ´ ìĹĲìĦľ
ĠëĤĺ ìĦł
Ġ ãħĩ
ìłĦ ëŀµ
ìłľ ìŀĳ
ìĿ¼ ê¹Į
Ġì¦Ĳ ê¸°
ĠìĪĺ ìļ©
Ġíķ «
ĠìľĦ ë¡ľ
ìĤ° ë¬¼
ìĦł ìĿ´
ê³ł ê¸°
Ġíķ´ ìĸĳ
ĠìŀĪìľ¼ ë¯Ģë¡ľ
ìĨĮ ë¹Ħ
ì§Ī íĻĺ
ìĿ¼ ë³¸
Ġê¸° ë¶Ģ
Ġìĭľìŀĳ íķľ
ĠíİĺìĿ´ìĬ¤ ë¶ģ
Ġìĺ¤ëĬĺ ìĿĢ
ë¥´ ì§Ģ
ĠíĬ¸ ëłĮ
ĠìŀĲëıĻ ìľ¼ë¡ľ
Ġë¨¸ ë¦¬
ĠíĻį ì½©
íĮĮ íģ¬
Ġìĸ´ ê¹¨
Ġìłģ ë¦½
ĠíĮ¨ íĦ´
êµ° ìĿĺ
ĠíĪ¬ ìŀħ
ĠíĿ ĳ
Ġê¸Ī ìĨį
ìĦł ìĿĺ
íį¼ ìĬ¤
ĠìĻĦ íĻĶ
ĠëĪĦ ê°Ģ
Ġìŀ¥ ì°©
ĠìĤ¬ëŀĳ ìĿĦ
Ġ ãĢį
ĠìŀĪ ìĿĮìĿĦ
Ġíķ´ ìłľ
ĠëĤ´ìļ© ìĿĺ
ĠêµŃ íĨł
Ġìłģ ìłĪíķľ
ĠPM I
ìĹŃ ìĿĦ
Ġê·ľ ì¹Ļ
ëįĶ êµ°ìļĶ
ĠìĿ¼ ìŀĲë¦¬
ĠëĨĴ ìĿ´
Ġëĵľ ë¦¬
ìĨĮ ê°Ģ
ĠëįĶ ë¸Ķ
Ġëªħ íĻķ
ìĪĺ ìĻĢ
Ġì¡° ìĸ¸
Ġì£¼ ë°©
ĠìĨĲ ìĿĦ
Ġíĺ¼ íķ©
Ġê°Ħëĭ¨ íķľ
íĳľ ë¥¼
ĠíĹ¤ ëĵľ
ĠëĶĶ ìĬ¤íĶĮëłĪìĿ´
ëŁī ìĿĺ
Ġëĵ¤ ê³ł
Ġì§ĢìĽĲ íķĺëĬĶ
ĠëıĦ êµ¬
ĠìĽĮ íģ¬
ìĭľ ëĮĢ
Ġëª¨ ìĹ¬
Ġìķŀ ìĹĲìĦľ
Ġë¹ł ìł¸
ê¸° êµ¬
ìĭľ íĶ¼
ĠìµľëĮĢ íķľ
ë¯¸ êµŃ
ì£¼ ìĿ¼
ĠëķĮ ë§Īëĭ¤
ĠìĿ´ìłľ ëĬĶ
ìĿ´ìĹĲ ìļĶ
ìĿ´ ëĭĪ
ĠìłĪ ìķ½
ĠìłĦ ëł¥
Ġì² Ļ
ì½Ķ ëĵľ
Ġë°© ìķĪ
ĠíħĮ ë§Ī
ìľ¨ ìĿ´
ĠêµĲ ì²´
Ġë¸ĮëĿ¼ìļ°ìłĢ ë¥¼
Ġëĭ´ ìĿĢ
Ġì§ĢìĽĲ íķĺì§Ģ
Ġë²ķ ìłģ
Ġë¹Ħ ìĥģ
ĠìĪĺ ìĽĲ
Ġê·¸ ëĵ¤ìĿ´
Ġê´Ģê´ĳ ì§Ģ
Ġë³Ģ íĻĶë¥¼
ìĿ¸ ìĹĲ
Ġíĥĳ ìŀ¬
Ġíı¬ ê¸°
ĠëĨĵ ê³ł
ĠíĶ ½
Ġê¹Ģ ìĺģ
Ġë¶Ģë¶Ħ ìĿ´
ĠìĤ¬íķŃ ìĿĢ
ĠíĸĪ ëĬĶëį°
ĠëĮĢ íĸī
Ġìĥģ ìŀĲ
ê´Ģ ìĹĲìĦľ
Ġíİ Ģ
ë¦¬ íķĻ
ĠK U
Ġíķ´ ì£¼
ĠëĬĺ ìĸ´
ìĤ° íĻĶ
Ġìłĳ ì¢ħ
ì§Ģ ëĤľ
Ġê²° ë¡ł
ĠD HL
ìłľ ê³µ
ëŀĢ ëĵľ
ĠëĪĦ êµ°
Ġëĭ¤ ë£¨
ĠìķĦëĭĪ ë©´
Ġë¹Ħ ì¤ĳ
Ġì¶Ķ ìłķ
ê¹Įì§Ģ ëĬĶ
Ġë°ľíĳľ íĸĪëĭ¤
ĠíķĻ ìĪł
ĠëģĿ ëĤĺ
ĠíķŃê³µ ê¶Į
ìĭľ ì¼°
ĠëĦ£ ìĸ´
Ġìłģê·¹ ìłģìľ¼ë¡ľ
ì¡° ì°¨
Ġìļ° ì£¼
ĠìĦ± ê²©
íķĺ ìħ¨
Ġë¯¸ ë§Į
Ġê·ľëª¨ ìĿĺ
ĠíĬ¸ ëŁ¼íĶĦ
ìľĦ ì¹ĺ
Ġë¹Ħ íĸī
ĠìĹ° ìĬµ
íļĮ ìĹĲìĦľ
ĠìĮ į
Ġë¸Į ëĿ¼
ĠìĪĺ ëł¹
ĠíĶĦ ë¦°
Ġë© Ī
Ġë©ĭ ì§Ħ
Ġë²Ķ ìľĦ
ìľĦìĽĲ ìŀ¥
ìĿ´ ìķ¼
ĠëĦĺ ëĬĶ
Ġê´Ģ ê°Ŀ
íķĻ ìĬµ
Ġê¸° íĽĦ
Ġì§§ ìĿĢ
ĠíĻĶ ìŀ¬
íķĺëł¤ ê³ł
Ġì§ĳ ìĹĲ
Ġì´Ī ëĮĢ
ë¸Į ë¦¬
íĬ¸ ìĿĺ
Ġìľł ê¸°
Ġê²ĥ ìĿ´ëĿ¼ëĬĶ
J U
Ġìłģ ìĿĢ
âĹĭ âĹĭ
íĻķ ìĿ¸
ĠìħĢ íĶĦ
Ġìŀ¥ ë©´
íĮĲ ìĿĦ
Ġê³³ ìĿ´
ĠìĻ¸ ìĹĲëıĦ
Ġêµ¬ ìĹŃ
íĶĮ ëŁ¬ìĬ¤
ĠëıĻ ê¸°
ĠíĺĪ ìķ¡
ìĹĲ ìļĶ
Ġìĸĳ ìĦ±
Ġì´Ī ê³¼
ìĹĪ ì§Ģë§Į
Ġë§ŀì¶¤ íĺķ
ëħĦ ìĿĺ
ëĭ¨ ìĿ´
ì§Ħ ìĿĦ
Ġíĺ¸ ì£¼
ê¶Į ìĿĺ
ëĵ± ê¸ī
ì§Ħ ìĿ´
Ġê³µ ê¸°
ĠìķĦ ëĬĶ
ĠíĶĮëłĪìĿ´ ìĸ´
ìĿ¼ ë°ĺ
Ġìĥģ ê¸°
ë¬¸ íķĻ
Ġê°Ģ ìĦľ
ĠëıĦ ìĦľ
Ġê¸°ì¡´ ìĿĺ
ë©´ìĦľ ëıĦ
ĠëĽ° ìĸ´ëĤľ
Ġë°ĶìĿ´ ìĺ¤
ĠìĤ´ ê³ł
ĠìĻ¸ êµĲ
Ġíıī ìĨĮ
ì²´ íĹĺ
ĠE SS
ë²Ħ ê·¸
Ġê¹Ķ ëģĶ
Ġëª¸ ìĿĦ
ìĿ¸ ëį°ìļĶ
K g
ë¥´ íģ¬
Ġíĺĳ ìĿĺ
ĠìĦ¸ íı¬
ĠìĿ¸ ê³µì§ĢëĬ¥
ëª© ìĿĦ
Ġìĥģ ì²ĺ
ĠìłĦ ë¶Ģ
Ġë¯¸ ì¹ĺëĬĶ
ĠìĦ¸ ìĥģìĿĦ
Ġë³´ ìĪĺ
ĠìłĦ ëĤ¨
Ġì°½ ì¡°
Ġìĭ «
ê³µ ê°ľ
êµ¬ ìĹŃ
Ġì·¨ ìķ½
ĠìķłìĻĦ ëıĻë¬¼
ĠëĶ ľ
Ġëľ» ìĿĦ
ĠìķĦ ìī¬
Ġëª©íĳľ ë¡ľ
Ġìļ°ìĪĺ íķľ
ãħł ãħł
ì±ħ ìŀĦ
ĠN TT
ê³Ħ ê°Ģ
ĠêµĲìľ¡ ìĿĦ
Ġê° Ķ
ë°Ľ ìĿĦ
ĠìĭĿ ë¬¼
Ġëĭ´ ìķĦ
ĠíĶ¼íķ´ ë¥¼
ĠìĿ´ë¯¸ ì§Ģë¥¼
ìĹĪ ìĿĦ
ìłľ íķľ
Ġì²¨ ë¶Ģ
ĠíĻĶìŀ¥ íĴĪ
ĠìĤ¬ìĿ´íĬ¸ ìĹĲ
íĶĦ ëłĪ
Ġë³´ ìĥģ
ĠM BC
ìĽĲ ê³¼
ĠìĥĿê°ģ íķľëĭ¤
ĠìĨĲ ìĥģ
ĠC FD
ëĭ¹ ìĿ´
ì¹´ ìĿ´
Ġê·¸ ë¥¼
ĠìķĬ ê²Į
Ġëħ¸ ìĿ¸
ìłĦ ìĿ´
ëĶĶ ìŀĲìĿ¸
ĠìĹĲ ìĿ´
Ġê³¼ ìĹ°
Ġìĺ¬ ë¦¬
Ġì¶ľ íĮĲ
Ġë¶Ģë¶Ħ ìĿĦ
Ġíĳľìĭľ ëĲ©ëĭĪëĭ¤
Ġì¹ ł
Ġíħ Ĳ
ìĦĿ ìĿĦ
Ġê³µ ìŀ¥
Ġì± Ļ
ìĥĿ ìĿĦ
ĠìłĦ ëħĦ
ĠìķĦ ë¥´
ìĥģ íĥľ
íķ¨ ìĹĲ
ĠíĮĮ íĭ°
Ġê°Ģê²© ìĿ´
ìĺ¤ ëĬĺ
Ġìłķ ê·ľ
ĠëĮĢíĨµëł¹ ìĿ´
ê°Ħ ëĭ¤
Ġì£¼ ê±°
Ġê°Ħ ìĿĺ
ĠìĹ´ ë¦¬ëĬĶ
Ġìº ĺ
ê´Ģ ìĿĺ
ìŀĲ ìĤ°
ĠêµĲ ë¥ĺ
ĠíĬ¹ íĹĪ
ĠìłĲ ìĿ´
ĠëĮĢíĳľ ìłģìĿ¸
Ġìĸ´ëĸł íķľ
Ġëį ®
Ġë Ŀ
ĠëĿ Ħ
Ġìŀ¬ ìłķ
êµ° ìĿĢ
Ġê³Ħ ì¢Į
Ġë¶Ħ ìĸĳ
Ġê°Ģ êµ¬
Ġìĺ¨ ëıĦ
Ġê·¸ê²ĥ ìĿ´
Ġëį§ë¶Ļ ìĺĢëĭ¤
Ġìĥģ ì§ķ
ĠëģĮ ìĸ´
ĠëĳĲ ëł¤
Ġíķ´ ìĨĮ
ë©ķ ìĭľì½Ķ
ĠíĻľìļ© íķľ
Ġíķ´ëĭ¹ íķĺëĬĶ
ë¡ľ ìĿĺ
ìĹ¬ ìĦ±
Ġëª¨ ìķĦ
Ġíķ¸ ëĵľ
ìĨĮ íĶĦíĬ¸
ĠìĻ¼ ìª½
Ġì¶ľ ìŀħ
ĠìĿĺ ìĭ¬
Ġìŀ¥ ìĭĿ
ĠìłĢ ëıĦ
ĠíĬ¸ ëłĪìĿ´
íļĮ ìĽĲ
Ġìĭľ ìĽĲ
ĠëıĻ ìŀĳ
ĠìķĮëł¤ ìł¸
ĠíķĺëĤĺ ë¡ľ
ìĦ± ìŀ¥
ìĹ°íķ© ëī´ìĬ¤
ì¶Ķ ê°Ģ
ĠëĤ´ ëĨĵ
ĠëĬĺ ìĸ´ëĤĺ
ĠìĹĨ ëĭ¤ê³ł
ĠìĿ´ ëķĮ
Ġíĸ¥ íķ´
ĠìķĦëŀĺ ìĻĢ
Ġìĥģ ìĥģ
ê³¼íķĻ ê¸°ìĪł
Ġì²Ń ìĻĢ
Ġë¬´ìĹĩ ë³´ëĭ¤
Ġê´Ģê´ĳ ê°Ŀ
ĠìĿµ ìĬ¤
ì£¼ ë¡ľ
Ġìļ´ìĺģ íķĺëĬĶ
ĠìĹ¬ëŁ¬ë¶Ħ ìĿĺ
Ġë°Ľ ì§Ģ
ĠíĻĺê²½ ìĿĦ
ì£¼ ì°¨
Ġë²Ĺ ìĸ´ëĤĺ
ĠìĺĪ ê³ł
ëĭ¹ ìĿĺ
Ġë¨¹ ìĿĦ
Ġë³µ ìļ©
Ġëª¨ ë¥´ëĬĶ
Ġë°©ë²ķ ìĿ´
ĠìķĮëł¤ ì¡Įëĭ¤
ìĿ¼ ë¡ľ
Ġì²ľ ìĹ°
ëĭ¨ ì§Ģ
ĠìĿĺ íķĻ
ê°Ģ ìĬ¤
Ġë³Ģ ëıĻ
ëĮĢ ì¶ľ
ìĺģ ìĹħ
ĠëĤĺ ìĻĶëĭ¤
ĠìĥĿê°ģ íķĺëĬĶ
Ġìłķ ë¹Ħ
Ġë°ĺ ëıĦì²´
Ġíı¬ ìĬ¤íĮħ
Ġë¬¼ ìĿĦ
âĨĵ âĨĵ
ìĦľ ê°Ģ
H OT
Ġë¡ľë§¨ íĭ±
ĠìĤ¬ëŀĮ ëĵ¤ìĿĦ
ìĿ¼ ê°Ħ
Ġëį° ë·Ķ
ë¬¼ ì§Ī
Ġê°ľ ë°©
Ġëĭ¨ ì§Ģ
ĠìĿĮ ë£Į
Ġê°Ģ ë°©
ĠìĿ´ ë¥´
Ġëĭ¹ ìĿ¼
Ġìłķ ìĽĲ
ë¦¬ ìĬ¤íĬ¸
Ġìĭľìŀĳ ìľ¼ë¡ľ
ìĬ¤ ëŁ¬
íĺĦ ëĮĢ
ĠìłĦ ë©´
ĠìĿ¸ê°Ħ ìĿĺ
Ġíĳľìĭľ ëĲĺì§Ģ
ë¦¬ ëĿ¼
Ġê¸° ìŀ¬
ĠìĺĪ ë°°
Ġì¡° ê°ģ
ĠíĮ¨ ë°Ģë¦¬
Ġëĵ± ê³¼
ê²Ģ ìĤ¬
ĠìĿĺë¯¸ ë¥¼
ëŁī ìĿĢ
Ġê²Į ìĿ´
Ġê´Ģ ì°°
ĠíĶ¼ ìŀĲ
ĠìĿ¼ ìĿĢ
ì§ģ íķľ
Ġìŀ¬ ìĤ°
Ġêµīìŀ¥ íŀĪ
ĠìķĦëŀĺ ìĿĺ
ĠìķĬ ìľ¼
ĠíĻĶ ëł¤
ëħ¼ ë¬¸
ĠìķĮ ë¦¼
IST I
ĠìĿ¸ ê¶Į
Ġë¹Ħ íĥĢë¯¼
Ġê³łê°Ŀ ìĿĺ
Ġì¦Ŀ ê±°
Ġíĺ¸ íĿ¡
Ġâĺħ âĺħâĺħ
Ġâĺħâĺħâĺħ âĺħ
ëĵ¤ ìĸ´
Ġì¶ķ íķĺ
ê³µ ëıĻ
íĤ¤ ëĬĶ
Ġëªħ ìĿ´
ê²Ģ ìĥī
ë¯¸ ìĪł
ìľ¨ ìĿĦ
ĠìĹĺ ë¦¬
ĠìĿ½ ìĸ´
Ġíľ´ëĮĢ íı°
ë°Ķ ë¡ľ
... âĢĿ
Ġê³µ ê³ł
ĠìĽĲ ìĸ´ë¯¼
ĠíĦ ¸
íģ´ ëŁ½
Ġìĥģ ìĹħ
ĠìłĦíĻĶ ë²Īíĺ¸
Ġëħ¸íĬ¸ ë¶ģ
Ġìĭľìŀ¥ ìĿĺ
Ġíĸīë³µ íķľ
íĨł ë¦¬
Ġíķľ ìłķ
Ġëįķ ë¶ĦìĹĲ
Ġë§Ĳ íķĺëĬĶ
Ġê°Ģ ë¡ľ
Ġë§Ľ ì§ĳ
ĠìķĮëł¤ ì§Ħ
ĠìĤ¬íļĮ ë³µì§Ģ
Ġëª» íĸĪëĭ¤
ìĭĿ ìĿĺ
Ġëħ¸ ëł¥ìĿĦ
Ġìĭ¬ê°ģ íķľ
ëł¥ ìĿĺ
ë°Ľ ìķĦ
ì£¼ ê¸°
Ġì¡° ëªħ
Ġ ãĢĳ
ìĿĮ ìķħ
Ġëĭ¨ ëıħ
ĠìĨĮ íĻĶ
Ġê´Ģëł¨ íķ´
Ġêµ¬ìĦ± ëĲľ
ĠëĬ¥ ëł¥ìĿĦ
ìĥģ íĻ©
ìĦľ ìĹĲ
Ġê·¸ëŁ¬ íķľ
Ġíķĺ ìĭľ
ĠíĸĪ ì§Ģë§Į
íķľ íħĮ
Ġëªħ ìĭľ
ĠìŀĦ ìĭľ
Ġìŀ¡ ìķĦ
Ġì¶© ì¡±
ìĤ° ì§Ģ
âĢ¦ ,
ìĿ¼ ìĿĺ
Ġëį ¸
Ġê³ł ìĨį
ĠìĤ¬ìļ© íķĺë©´
êµŃ ìĿĢ
Ġê·Ģíķĺ ìĿĺ
Ġê³µ ìĽĲ
íĦ° ë¥¼
Ġë°ľíĳľ íķľ
Ġì²´ ìľ¡
Ġê°Ģê²© ìĿĢ
ìĹħ ë¬´
Ġê´Ģê³Ħ ë¥¼
ĠíĨµ ìłľ
ĠìŀĲì²´ ê°Ģ
Ġìĭ¤ ì§Ī
ĠìĹ´ ê³ł
êµŃ ìĿ´
ĠìĿ´ ì¤ĳ
ĠëĤĺìĺ¨ ëĭ¤
íķĳ íģ¬
íķĻ ìĿĦ
íļ¨ ê³¼
Ġë¬´ìĹĩ ìĿĦ
Ġì¹´íħĮê³ł ë¦¬
ĠëĤĺ ê°Ī
ê°Ģ ìĹĲ
êµ¬ ë§¤
ĠëĮĢ ìĦł
Ġë¶Ģ íĦ°
Ġìĵ° ê³ł
íķ´ë³´ ìĦ¸ìļĶ
Ġì¦Ŀ ëªħ
ë³´ ë¥¼
Ġë²Į ìĸ´
Ġì¶ķ ìłľ
ìĺĪ ìĤ°
Ġëª© ìĤ¬
Ġìľł ìłĢ
ĠíĻľ ë°ľ
ĠìĪĺì¤Ģ ìĿĺ
Ġê¸°ë¡Ŀ íĸĪëĭ¤
Ġë§ĪìĿ´íģ¬ ë¡ľ
ë¬´ ë£Į
ĠêµŃ ìłķ
ìĿ¸íĦ° ëĦ·
ĠìŀĪìľ¼ ëĤĺ
Ġëª¨ ëĵľ
ĠìķĦëĭĪ ê³ł
ìŀĲ ëĵ¤ìĹĲê²Į
Ġë¬ µ
ĠìľĦ ê¸°
Ġíĸī ìľĦ
Ġë³´ ì¡´
ĠìĨĮ ìħľ
Ġë§Į ëĤľ
ëĲĺìĸ´ ìķ¼
Ġê¸°ëĬ¥ ìĿ´
Ġëĥīìŀ¥ ê³ł
ìĭł ê³ł
íĻĶ íķĻ
Ġë§ŀ ì¶Ķ
ĠìŀĪ ìĿĦê¹Į
Ġìĭľìŀ¥ ìĹĲìĦľ
Ġìĭľìŀ¥ ìĹĲ
Ġìĸ´ëł¤ ìĽĢìĿĦ
ëĭ¤ ìĿĮ
Ġì¢ĭ ìĿĮ
ëĮĢ ìĹĲìĦľ
ë²ł ìĿ´ìĬ¤
Ġê³Ħíļį ìĿĦ
Ġë¶Ħëĵ¤ ê»ĺ
ĠRT X
Ġë¶Ħìķ¼ ìĹĲìĦľ
E IC
Ġìĭľ ìĤ¬
Ġë³¸ ìĿ¸ìĿĺ
ĠíĺľíĥĿ ìĿĦ
ĠìĽ¹ìĤ¬ìĿ´íĬ¸ ê°Ģ
Ġì¢ ģ
Ġê°ľ ìĦ¤
ĠìĹ´ ìĸ´
Ġê·¸ëħĢ ëĬĶ
Ġêµ¬ ëıħ
ĠëĪĪ ìĿĦ
Ġì¶Ķê°Ģ ë¡ľ
Ġíķĺ ìļ°ìĬ¤
ëĤ´ ê¸°
Ġìĭľ ê¸°
ĠëĦ ·
ĠíĥĦ ìĨĮ
ëłĪìĿ´ ìħĺ
ë¥ł ìĿĦ
ĠS BS
ĠìĦ±ê³¼ ë¥¼
Ġë®¤ ì§Ģ
Ġì¦Ŀ ìĥģ
Ġì§ĳ íĸī
Ġë© ķ
Ġë©ķ ìĭľì½Ķ
Ġìłķë³´ ëĬĶ
ĠëĤł ìĶ¨
ìĬ¤ íı¬
Ġê·¸ ëł¤
Ġë¶ĦìľĦ ê¸°
Ġì¸ µ
Ġì¡° ìļ©
ĠìłĦê¸° ì°¨
ĠëĽ° ìĸ´
Ġìĭ¬ ì§Ģìĸ´
ë¶Ģ ë¬¸
Ġì°½ ìĿĺ
ê´ĳìĹŃ ìĭľ
íķ´ ì£¼ëĬĶ
Ġë§Į íķľ
ĠìĥĿ ê¸´
Ġì¦Ŀ ê¶Į
ë°ķ ìĬ¤
( ?)
Ġë³Ģ íĻĺ
ĠêµĲ ìĪĺëĬĶ
íĬ¸ ìĹħ
ĠíĶĮ ëĿ¼
ë°ĶìĿ´ ìĺ¤
Ġê°Ģ ê²Į
ĠìĦ± ìłģ
ĠìŀĲ ê°Ģ
ëĿ¼ìĿ´ ìĸ¸
K U
êµ¬ ëĭĪ
ìĹ¬ ìŀĲ
Ġì§Ħ ìŀħ
ĠíĶĮ ëŀĺ
ì§Ģ ìĹĲìĦľ
Ġì¹ĺ ë£Įë¥¼
ìĹ° ìĿĦ
ĠìĿĮ ìĭĿìĿĦ
Ġë© ¸
ìĪĺ ìĹĲ
ĠëĤĺ ëĪĶ
ĠëĤ¨ ê²¨
ĠíĮĮ ê´´
ĠìłĲ ìĹĲìĦľ
Ġë§Īì§Ģë§ī ìľ¼ë¡ľ
Ġì¶Ķ ì¶ľ
ĠíĽĮë¥Ń íķľ
ĠíĥĦ ìĥĿ
........ ..
ìĿ´ ì¦Ī
ì¼Ģ ìĸ´
ĠëĤ Ń
íĻĶ ìĻĢ
ìŀ¥ìķł ìĿ¸
? âĢĿ,
Ġìĭł ìĦł
Ġìŀ¬ ëĤľ
ĠëĤĺë¨¸ ì§Ģ
Ġì¤ĳ êµŃìĿĺ
Ġëªħ ìĨĮ
ĠìĤ¬ìļ© íķľ
Ġì°¾ ê¸°
ê³ł ê°Ŀ
ëĭ¤ ëĭĪ
ìĿĺ ìĽĲ
Ġìľ¼ ëľ¸
Ġë³´ ìĿ´ê³ł
ĠìľĪ ëıĦìļ°
ĠëłĪ ëĵľ
ì¹ĺ ìĿĺ
ĠìķĪ íĥĢ
ĠìĿ´ê²ĥ ìĿ´
ĠìĤ´íİ´ ë³´
íĸ¥ ìĿĦ
Ġë³´ ìĿ´ì§Ģ
ĠìķĦìļ¸ ëŁ¬
Ġìłľê³µ íķľëĭ¤
Ġê°Ĳ ìłķ
ĠëĮĢ ë¦¬
Ġíıī ìĥĿ
ëĭ¹ ìĿĢ
Ġì¡° ì¹ĺë¥¼
Ġì§ĳ ìĹĲìĦľ
ĠëĤ¨ ìĿĢ
íĻĶ ìĿĺ
ĠëĪĦ ë¦¬
ĠìĿ¼ ìĭľ
Ġì¶Ķ êµ¬
Ġëĭ¨ìĪľ íŀĪ
Ġë²ĦíĬ¼ ìĿĦ
Ġë°ķ ìĤ¬
Ġìĭ± ê¸Ģ
ĠìĺĪìłķ ìŀħëĭĪëĭ¤
ìłĦ ìĿĺ
ìłĦ ê¸°
ĠìĬ¤ ì¼Ģ
Ġìĭ¤ ìłģ
Ġëĭ¤ ë¥´ê²Į
Ġëģ Ī
ìĭĿ ìĿĢ
Ġêµ° ìĤ¬
Ġëª¨ ìŀĦ
ĠìĿ´ íĸī
íķĺìĺĢ ê³ł
ĠìĹ° ëł¹
íĬ¸ ëĭĪìĬ¤
Ġíľ ł
ìĪĺ ìĪĺ
ĠìĦł ëıĦ
ëĵľ ìĹĲ
ĠìĬ¹ ë¦¬
ëĤ© ëĭĪëĭ¤
Ġì§ĢìĹŃ ìĹĲ
Ġë¶Ģ ì°©
Ġì§Ģ ì¹¨
Ġì¶Ķ ìĸµ
ĠìĦľë¹ĦìĬ¤ ìĹĲ
Ġì´Ī ëĵ±
ìĨĮ íķľ
ĠìĿ¸ êµ¬
ĠëıĻ ìķĦ
ĠìĽĲ ìĿ¸
Ġì§ģ ë¬´
Ġì§Ħ ìĭ¤
ĠíĴĢ ìĸ´
Ġíŀĺ ìĿ´
ê²° ìłľ
ĠìĿ¸ íħĮë¦¬ìĸ´
ĠìĹ¬ ë¶Ģ
Ġêµ¬ë§¤ íķľ
ë§Ī ì¼ĵ
ĠìĨį ëıĦ
ê±´ ì¶ķ
Ġìłĳ ì´ī
ĠìĤ¬ìļ© ëĲĺëĬĶ
Ġì§ĢìĨį ìłģìĿ¸
êµ° ìĿ´
ĠìĿ´ ë¡ľ
ĠìĿ´ìĬ¤ ëĿ¼ìĹĺ
ĠìŀĦ ìĭł
Ġê³³ ìĹĲìĦľ
Ġê³µê°Ħ ìĿĦ
ĠìĮ ¤
ì¡° ë¥¼
Ġë©´ ìĹŃ
Ġê·¸ëłĩ ì§Ģ
Ġê°ĢëĬ¥ íķĺë©°
Ġë©Ķìĭľ ì§Ģ
Ġê°ľìĿ¸ìłķë³´ ë¥¼
ĠìľĦ ìĿĺ
Ġíķ¨ ìľł
Ġì¹ Ń
ìłľ ì£¼
ĠëłĪ ë²¨
Ġì¢ħ ìĿ´
ĠìłķëıĦ ìĿĺ
ì§Ħ ìĿĢ
ĠìĨĮ ë°©
ĠìĿ¸ ì§Ģ
ìľ¨ ìĿĢ
ì¹´ ëį°ë¯¸
Ġê²½ìļ° ëıĦ
ĠëŁŃ ìħĶë¦¬
ĠìĿ¼ë³¸ ìĿĺ
íķĺë©´ìĦľ ëıĦ
ìĸ´ ë²Ħ
Ġê°Ħ íĺ¸
Ġì¡° ìŀĳ
Ġë© °
Ġìº Ķ
ëł¥ ìĿĢ
ĠìĿ¸ íĶĦëĿ¼
íĻĶ ë¡ľ
ĠìĦ¬ ìľł
ĠìłĦ ëĤł
Ġë© ĺ
ĠìŀĪ ìĬµëĭĪê¹Į
ĠìĿ¼ ìĸ´
íĸī ìĤ¬
Ġëª¨ ë¦Ħ
ĠíĪ¬ íĳľ
ĠìĹ° ê°Ħ
Ġê·¸ëŀĺ íĶ½
ĠìŀĲ ë£Įë¥¼
ĠìľĦ ìĦ±
ëıĻ ìĿĺ
ì£¼ ê°Ħ
Ġìĭłìļ© ì¹´ëĵľ
Ġìĭľ ìĥģ
Ġíķ´ ìĥģ
íĮĲë§¤ ê°Ģ
Ġë¹Ħì§Ģ ëĭĪìĬ¤
Ġì§Ģ ë°°
Ġì°¸ìĦĿ íķľ
ì¦Ŀ ìĿ´
ĠìıŁ ìķĦ
ĠìĥĿ ê¸°
ĠëıħíĬ¹ íķľ
ĠìłĪ ë°ĺ
ìĹĪ ìĸ´ìļĶ
ìŀĲ ëĵ¤ìĿĦ
Ġíĺ¸íħĶ ìĿĺ
Ġìŀħ ê³ł
Ġìŀ¬ íĮĲ
Ġìħ Ī
ìľ¼ ìĭł
Ġê°Ģ ìĬ¤
Ġìĥģ ë°ĺê¸°
Ġì¤ĳìļĶ íķ©ëĭĪëĭ¤
ëĵŃ ëĭĪëĭ¤
ìŀ¬ ë°°íı¬
Ġ ãĪľ
ìĭĿ ìĹĲ
Ġê°Ĳ ê°ģ
Ġë³´ ê¸ī
ëĭĺ ê³¼
Ġë§ŀ ê²Į
ĠìłĦ ê°ľ
Ġë¶Ģë¶Ħ ìĿĢ
Ġëĵ± ìĹĲìĦľ
ĠëįĶë¶Īìĸ´ ë¯¼ì£¼ëĭ¹
ëĤ¸ ëĭ¤
Ġì¹¨ íķ´
Ġê¸°íļĮ ê°Ģ
Ġìľł ëıĦ
ê³Ħ ìĹĲ
Ġê·¸ ìĹĲ
ĠìķĪ ìĹĲìĦľ
Ġì°¨ ë¡ľ
Ġìłľê³µ íķł
ĠìĬ¤íĬ¸ ëłĪìĬ¤
ĠìĤ¬ ìĥģ
ëĨĵ ê³ł
ìĦľ ìĿĺ
I PO
Ġìī½ ì§Ģ
Ġë§Īì°¬ê°Ģì§Ģ ë¡ľ
ì£¼ ëħĦ
ĠëĮĢ ëĭµ
ë³´ ì¦Ŀ
ìĦ¸ íı¬
ìķĦ íĬ¸
ĠìķĦ ëĵ¤
ĠêµĲ ê³¼
ĠëĤĺ ìĺ¬
ĠìĿ´ìļ© ìŀĲìĹĲê²Į
ê°Ģ ë¡ľ
ĠíıŃ ë°ľ
ĠëıĦ ìĦľê´Ģ
Ġ ãħİãħİ
Ġìĭľìŀ¥ ìĿĢ
Ġì¢ħë¥ĺ ìĿĺ
ĠíĶĦë¡ľ íķĦ
Ġë ¦
Ġë¦ ´
ê¶Į ìĿ´
íķ¨ ê³¼
ĠìĥĿ ì¡´
ê²ł ì£ł
ĠìĻĢ ìĿ¸
Ġíħį ìĬ¤íĬ¸
Ġê°Ģ ìĪĺ
Ġìłľ íľ´
ĠìĿĮ ìĦ±
ĠëĮĢ ì²ĺ
Ġìĥģ ìŀ¥
Ġê·¸ëłĩ ëĭ¤ë©´
íĸĪ ìĸ´ìļĶ
ĠëĤĺ ìķĦê°Ģ
ë§Ĳ ë¡ľ
Ġìľ¡ ìĦ±
ìĸµ ìĽĲìĿĦ
Ġê²½ ë¡ľ
ĠìĹ° ì£¼
łí ļ
ì¤ĳ êµŃ
ĠìĿ¸ ìŀ¬
ĠìĤ¬ìļ© íķ´
ê´Ģ ìĹĲ
Ġíĺ¹ ìĭľ
ĠìŀĪìĹĪ ê³ł
ìĥĿ ìĤ°
ĠíĨµ ìĿ¼
Ġë©Ķìĭľ ì§Ģë¥¼
ĠëıĦ ì¿Ħ
Ġíıīê°Ģ ë¥¼
ìķĪ ìĿ´
ê²ł ìĬµëĭĪê¹Į
ĠêµŃëĤ´ ìĻ¸
ĠìŀĪëĬĶ ëį°ìļĶ
ĠíĿĶ ëĵ¤
Ġë¥ ´
ĠìĦ ŀ
ĠìĹ ī
ì¡° ì§ģ
ĠìĹ°íķ© ëī´ìĬ¤
ëĮĢ ìłĦ
Ġê±° ëĵŃ
Ġë¬¼ ë¥ĺ
ëħĦ ìĹĲëĬĶ
ìĭŃ ëĭĪëĭ¤
Ġë© ľ
Ġíı °
ëĤĺ ê°Ģ
ĠëĬĲëĤĮ ìĿ´
ìĺĢ ê³ł
Ġì´Ī ì²Ń
Ġì¶© ë¶ģ
Ġëĭ¹ ìĤ¬
ĠëĿ¼ ëĬĶ
íĻľ ëıĻìĿĦ
ë°ķ ë¬¼ê´Ģ
Ġëĭ¹ ìĤ¬ëĬĶ
Ġë¶ ī
êµŃ ìŀ¥
ë¯¸ ëŀĺ
Ġëĭ¤ ë¦¬
ĠìĿ´ ëĭ¬
Ġíķĺ ëĭĪ
íķĺìĭľ ê³ł
Ġê¸° ë¦Ħ
ĠëģĿ ìĹĲ
Ġìĭł ë¶Ħ
Ġìĸ´ íĶĮ
ĠëĦĵ ìĿĢ
ìĿ´ ê±°ëĤĺ
Ġìľł ìĹ°
Ġì½ĺíħĲì¸ł ë¥¼
Ġë¹Ħ ëĮĢ
ĠìŀĲ ê¸Ī
Ġìłľ ìķ½
Ġì±Ħ íĥĿ
ëĬ¥ ëł¥
Ġë²ķ ëł¹
ëłĪ ìĿ´íĬ¸
Ġì»¨ íĬ¸ë¡¤
ì§Ģ êµ¬
Ġë§Ĳ ìĿ´ëĭ¤
Ġëª¨ ëĵĪ
Ġíĥľ ê·¸
ìĭ¬ ìľ¼ë¡ľ
ê²½ ëł¥
Ġë°ľ ë§¤
ĠìĿ´ ë¥¸
ê²ĥ ëıĦ
ì²Ń ìĿĢ
Ġíı´ ë¦¬
Ġíĳľ ë©´
Ġíĺķíĥľ ìĿĺ
ë¦¬ ë©°
ĠëıĮ íĮĮ
Ġëĭ¹ìĹ° íŀĪ
ĠíķĺëĤĺ ëĬĶ
ĠìĤ¬ëŀĮ ìĹĲê²Į
ë¬¸ ìĿ´
ĠìĹ¬ ë¶Ģë¥¼
Ġì½ ©
ìļ° ìĪĺ
Ġì¤ĳ ê³ł
ĠíĮĮ ìĿ´
Ġëĭ¤ ìĿ´ìĸ´
ĠìĦ± ë¶Ħ
ĠìĿµ ìĪĻ
ĠìĤ¬ìĭ¤ ìĥģ
ëĵľ ë¦´
ĠêµŃ ë¬´
ĠìĤ° ë¶Ī
Ġë¶Ī ë¦¬ëĬĶ
ĠìĤ¬ìļ© íķĺê¸°
ìĩ¼ íķĳ
íģ¬ ëĿ¼
ĠìķĦëĭĪ ë©°
ìĭł ìĿ´
Ġìŀħ íķĻ
Ġì²ĺ ë°©
ìłģ ìĿ´ëĭ¤
ĠìĤ¼ìĦ± ìłĦìŀĲ
Ġê¸°íļį ìłĦ
ĠëķĮ ìĹĲëĬĶ
Ġìĺ¤ëĬĺ ëĤł
ìĿĺ íķĻ
íĸ¥ ìĿ´
Ġê²½ ë¹Ħ
Ġëľ¨ ê±°ìļ´
ĠìĿ´ìľł ê°Ģ
ìŀĲ ëĵ¤
Ġëĭ¹ ìĦł
Ġìľł ë£Į
Ġíķ´ ë³Ģ
ĠëĵľëĿ¼ìĿ´ ë¸Į
ëĵ± ìĿĺ
íĨµ íķ©
Ġë§Ľ ìŀĪëĬĶ
Ġë¶Ħìķ¼ ìĿĺ
ĠìĤ¬ëŀĳ íķĺëĬĶ
ĠìĦł êµĲ
Ġìĭ¶ ìĸ´
ĠìķĪ ëĵľë¡ľìĿ´ëĵľ
Ġë¹ĦíĬ¸ ì½Ķ
ĠíļĮìĤ¬ ìĿĺ
Ġì§Ħíĸī íķĺê³ł
ĠìĹ¬ ë¡ł
ĠìĿĳ ìĽĲ
Ġê³µ ë¬´ìĽĲ
ĠìĤ¬ìļ© ìŀĲê°Ģ
ìĺĪ ìłķ
Ġë¬¸ ìĿĦ
ĠìłĲ ìĿĢ
ĠE SG
Ġìĭł ìŀħ
ĠíĮĮ ë¦¬
Ġë¯¸ìĦ¸ ë¨¼
ëĿ¼ ìĦľ
Ġê³Ħ ìĹ´
Ġì¸¡ ìĿĢ
íİĺ ìĿ´
íĺĦ ìŀ¬
ĠìĥĪ ë²½
Ġì²ĺ ë²Į
Ġíķľ ë°ĺ
ìĹĲìĦľ ë§Į
ìķĺ ê³ł
ìĺ¤ ê³ł
Ġë§ĲìĶĢ ìĿĦ
íķĻ ê¸°
Ġê³ °
ë¬¼ ìĹĲ
Ġì§Ģíķĺ ì²ł
Ġê³³ ê³³
Ġê¸° ëıħêµĲ
ĠìķĮìķĦ ë³´
íķĺìĺĢ ìľ¼ë©°
ë¶Ģ ìĤ°
ëĿ¼ ìĿĺ
ë¦¬ ê²Į
Ġê³µ ìĤ¬
Ġë³´ ìŀħëĭĪëĭ¤
Ġìħ ĭ
Ġê²Įìĭľ íĮĲ
ìĿ¼ ìŀĲ
Ġìķŀìľ¼ë¡ľ ëıĦ
ì¡° ìłķ
ĠëĿ¼ ê³ł
Ġìŀł ìŀ¬
Ġìµľê·¼ ìĹĲ
ìĺµ ëĭĪëĭ¤
ìķĦ ë²Ħ
íĶ¼ ìķĦ
Ġê±¸ ìĸ´
Ġëĭ¤ ë¥¼
ĠìĿ´ ê²Į
Ġê¸°ìĹħ ìĿ´
Ġìłģíķ© íķľ
Ġ ãħ£
Ġëĵ±ë¡Ŀ ëĲľ
Ġíİ¸ìķĪ íķľ
Ġíķĺ ë°ĺê¸°
ìĬ¤íĭ° ë²Į
ĠìķĦë²Ħ ì§Ģ
ĠìĶ »
ê³µ ìĹ°
ĠêµŃ ë°©
ĠíļĮ ìłĦ
ĠíļĮ ìŀ¥ìĿĢ
Ġëĵ¤ ìĹ¬
Ġëĵ Ģ
ìŀĲ ìľł
ĠìļĶ ìķ½
ĠF AX
ĠìĤ¬ìĹħ ìŀĲ
Ġê³µ íĨµ
Ġë³µ ìĤ¬
Ġìłģê·¹ ìłģìĿ¸
Ġì¦Ĳ ê²¨
ĠT ES
ĠìĹĦì²Ń ëĤľ
Ġê°Ģê¹Į ìĿ´
Ġë¯¸ëŀĺ ë¥¼
Ġë³´ìĹ¬ ì£¼
ëł¸ ìĬµëĭĪëĭ¤
) ãĢį
Ġëĭ Ń
ìĽĶ ëĵľ
Ġìĭľê°Ħ ìĹĲ
Ġìĺģ ìĥģìĿĦ
Ġëª¨ëĭĪíĦ° ë§ģ
ìĻĢ ëĬĶ
ĠëĦ Ĳ
ĠëĦĲ ë¦¬
ĠìĦ¸ ìĿ¸íĬ¸
Ġìŀ¬ ë¬´
Ġê·¸ëħĢ ìĿĺ
ĠìĿ¸ ê¸°ë¥¼
Ġìŀħ ìŀ¥ìĿĦ
ĠíĶĦë¡ľ ëª¨
ĠíĺĦìŀ¥ ìĹĲìĦľ
ĠìĨĮ ìĨ¡
ëĤ´ ê°Ģ
ëĭ´ ëĭ¹
ìĭł ìĿĺ
ìĨĮ ëĬĶ
Ġê²½ ê³ł
ìĿ¸ ëĵ¤ìĿĺ
ĠB IM
Ġê±° ì§ĵ
ìĭľ ë¶ĢíĦ°
ê¸° íķľ
Ġë¶Ģ ìłģ
Ġê²°ê³¼ ê°Ģ
ĠëĿ¼ ìĿ´íĬ¸
Ġìĥģíĥľ ë¥¼
Ġê¹ ľ
Ġê¿Ī ìĿĦ
ĠìŀĳíĴĪ ìĿĦ
Ġíĺ¸íħĶ ìĿĢ
Ġì´ī ì§Ħ
Ġë¶Ģëĵľ ëŁ½
Ġìłķì±ħ ìĿĦ
ĠMIN I
ìĨĮ ìŀ¬
ìŀĲ ê²©
íŀĪ ê³ł
Ġê¹Ĭ ìĿ´
Ġë§¤ ì£¼
ĠìĿ¸ ë¥ĺ
ìŀĳìĦ± ìŀĲ
Ġë³´ìĹ¬ ì£¼ëĬĶ
OD A
Ġê°Ģ ê³ł
íģ´ ë¦¬
ĠëĪĮ ëŁ¬
Ġìŀ¥ ìłĲ
ĠìĶ¨ ëĬĶ
Ġì§ĢìĹŃ ìĤ¬íļĮ
Ġì°½ ìŀĳ
Ġì¡° ê¸°
ĠìĿ´ëģĮ ìĸ´
ĠìłľìĻ¸ íķľ
Ġë§¤ ìŀ¥
Ġìĥģ ìľĦ
ìĭľ ê¹Įì§Ģ
Ġëĸ¨ìĸ´ ìł¸
ĠëĤĺ ì¤ĳìĹĲ
Ġë³´ìľł íķĺê³ł
ì§Ģ ê¸Ī
ê³µ ëĭ¨
ĠìĻ¸ ìĹĲ
ìĨį ìĹĲ
Ġìĭł ìĦ¤
Ġì»¤ ë²Ħ
íķĺ ë¯Ģë¡ľ
ĠìĥĿê°ģ íķ´
Ġë¶Ģëĵľ ëŁ¬ìļ´
Ġê°Ģ ë²¼
Ġëį° ìĿ´
ĠìĤ¬ ìŀ¥
ìª½ ìľ¼ë¡ľ
ëĤĺ ìĿ´
ëªħ ê³¼
ĠëķĮ ê°Ģ
Ġì´ī êµ¬
ëĶĶ ìħĺ
ĠìĪĺëıĦ ê¶Į
Ġë ¼Ī
ë¦¬ íı¬
ĠëĮĢ ë¡ľ
Ġìĭ¤ ë¬´
Ġìĥģ ëĮĢë¡ľ
ìĭ¬ ìĿ´
ĠëĪĦ ìłģ
ĠíĪ¬ ëªħ
ëĭ¹ ìĿĦ
ìĭ¤ ìĿ´
Ġì§Ħ ë£Į
Ġì§Īë¬¸ ìĹĲ
êµ¬ ì²Ń
ìłľ ì¡°
ì°¨ ëĬĶ
Ġìķ¡ ìĦ¸ìĬ¤
ìª½ ìĹĲ
Ġëĸł ìĺ¤
Ġìŀ¬ íĻľ
Ġë§Įëĵ¤ìĸ´ ì§Ħ
êµŃ ëĤ´
íĮ¨ ëĵľ
íļĮ ëĭ´
íĺĳ ìĿĺíļĮ
Ġìĸ´ëĶĶ ìĦľ
ĠëĮĢ ëĭ¨
ĠìĦł ìĤ¬
ëĲĺìĹĪ ìľ¼ë©°
ĠìĦ± ëĤ¨
ĠìķĦ ìĽĥ
Ġìĺ¬ë°Ķ ë¥¸
ê°Ģ êµ¬
ê³ł ìĨį
íĶĦ ë¦¬
ĠëĤĺ ìĿĢ
Ġë§Į ëĤ¨
ìĤ¬ ìĹħìĿĦ
Ġê¸°ë³¸ ìłģìľ¼ë¡ľ
Ġê³¼ ìłľ
Ġíķĺ ìŀĲ
ìĨĮ ìĿĺ
Ġê³µ íı¬
Ġë¬´ ìĭľ
Ġì¶ľ ë²Ķ
ĠëģĬ ìŀĦ
Ġëĳĺ ì§¸
ĠíĮĲ ê²°
ĠìĦ± ìŀ¥ìĿĦ
ĠìµľìĨĮ íĻĶ
ëĤĺ ë§Ī
Ġì£½ ìĿĮ
? ...
Ġíĸī ìĤ¬ë¥¼
ĠìĦľë¹ĦìĬ¤ ê°Ģ
ìĿ¸ ì²ľ
Ġê·¸ ìłĢ
ĠìĪĺ ëĭ¨
ĠìĹ° ìĺĪ
ĠìĽĲ íĻľ
Ġì¦Ŀ ìĥģìĿ´
ĠìĿ´ìļ© íķĺëĬĶ
Ġê¹Į ì§Ģ
Ġì¤ĳ ì§Ģ
Ġë¹Ħìļ© ìĿĦ
ìłķ ìĥģ
Ġì¤ĳìļĶ íķĺëĭ¤
Ġì į¼
Ġìĩ¼íķĳ ëª°
ĠíķĻ ë¶Ģëª¨
ê°Ħ ìĹĲ
ê·¸ ëŁ¬
ë¯¸ ëĭĪ
ĠìĦ¸ ìĽĶ
Ġìĭľìŀ¥ ìĿĦ
ĠíĻľìļ© íķ´
Ġíķ¨ê»ĺ íķĺëĬĶ
Ġë§ ¹
ĠìĦłìĥĿ ëĭĺ
ìŀĪ ìĬµëĭĪëĭ¤
ĠìĹŃ ëĮĢ
ĠìĹħë¬´ ë¥¼
ĠíĬ Ģ
Ġë¬¼ ê±´
Ġë¬¼ ìĸ´
Ġìŀ¥ íķĻ
Ġíı´ ëįĶ
Ġë°©ë²ķ ìĹĲ
Ġê²½ìłľ ìłģ
ĠìłĦ ìĦ¸ê³Ħ
Ġì½Ķ ë¦¬ìķĦ
Ġë³´ëıĦ ìŀĲë£Į
Ġì¹ľêµ¬ ëĵ¤ê³¼
Ġì§Ħ ìłķíķľ
Ġë³¸ ëĭ¤
Ġê·¸ ëŁ´
ĠëĦ£ ê³ł
ĠìĿ½ ê³ł
ĠíĹ¤ ìĸ´
ĠM RT
Ġê´Ģëł¨ íķľ
ĠìłĢ íķŃ
ĠìĹħì²´ ìĿĺ
ĠëıĦ ëĭ¬
ĠëĮĢ ìĹ¬
ĠëķĮ ëıĦ
ë§Į ìľ¼ë¡ľ
ĠìķĦíĶĦ ë¦¬ì¹´
Ġëĵ¤ ìĹĪëĭ¤
ĠìĹĨ ì§Ģë§Į
âĢĿ âĢ¦
Ġ ãĢĪ
ìĦ¤ ìłķ
Ġëĭ´ ê¸´
Ġë°© ìķĪìĿĦ
Ġêµ¬ ìĨį
Ġê·¸ ê²Į
Ġëĸł ìĺ¬
Ġì¡° ìĭ¬
ĠìĤ¬ìĿ´ ìĿĺ
ĠìĹħ ê·¸ëłĪìĿ´
ĠìĤ´ ì§Ŀ
ĠìĿ´ ëĵ¤ìĿĺ
ê°ľ ê°Ģ
ì½Ķ ìĬ¤
Ġì¤ĳ ë³µ
íĦ° íħĮìĿ¸ë¨¼íĬ¸
ĠìĤ¬ìļ© ëĲ©ëĭĪëĭ¤
ë¬´ ìĹŃ
ìĦĿ ìĿ´
ìĿ¸ ì¹ĺ
ĠìĹ° ë§Ĳ
Ġìļ´ìĺģ íķĺê³ł
ë¹Ħ ìĹĲ
ĠëĮĢíķĻ ìĥĿ
ĠìĥģíĴĪ ìĿĢ
ëŁ° ìĬ¤
Ġë¦¬ ê·¸
Ġìĺ¤ ë¸Į
Ġì¶© ê²©
ĠìķĬ ìĿĦê¹Į
ĠìĿĺë¯¸ ê°Ģ
ĠìĪĺ ìĨĮ
ëĿ¼ìļ´ ëĵľ
ĠëĤĺ ìķĦ
ĠìĨĮ ëħĢ
Ġìļ°ë¦¬ ìĹĲê²Į
ìĿ´ ë¯¸
ì¶ķ ìłľ
Ġê°Ģ ë³į
ìĿ¸ ìĹĲê²Į
ìŀĳìĦ± ìĿ¼
ĠìĪĺìĪĺ ë£Įê°Ģ
Ġìĭľ ëĤ´
ĠìĿ¼ ì¹ĺ
Ġìłģ ìĿĳ
Ġíķľ ë§Ī
ë²ķ ìĿ´
ìĽĮ ëĵľ
ì±ħ ìĿĦ
Ġê³Ħ ìłķ
ĠìľĦ íĥģ
ëįĶëĿ¼ êµ¬ìļĶ
Ġìĸ¸ìłľ ëĵłì§Ģ
ì§Ģ ìĤ¬
Ġê·¸ëŁ¬ ë©´ìĦľ
ê¸¸ ìĿ´
ë¥ł ìĿĢ
ìłĦ íķľ
ìľł ëŁ½
Ġë©Ģ ë¦¬
Ġìŀ¡ ê³ł
ĠRO G
Ġëĭ¨ë°± ì§Ī
Ġë¶Ħ ëĵ¤ìĿĢ
ìĨĮ ë¦¬
ëłĪìĿ´ íģ¬
ìłĦ ìĹĲìĦľ
Ġìŀĺëª» ëĲľ
Ġì¢ħ ëª©
Ġíģ¬ ë¦¼
ê¸° ë³¸
Ġê²ĥ ìĿ´ê³ł
ìĺĪ ë°©
Ġëª» íķł
ìĦľ ë¥ĺ
ìĿ¼ ëŁ¬
Ġëģ ĵ
Ġê³Ħ ìłĪ
ĠìĨĮ íĺķ
íķĺê¸° ë¥¼
ê°Ģ ë£¨
ìĹ° ê¸Ī
ĠëıĻ ë£Į
Ġëı ĭ
Ġì¶Ķ ìłģ
Ġê²ĥ ìĿ¸ê°Ģ
ë¥´ íĬ¸
IB A
ĠìłĦë§Ŀ ìĿ´ëĭ¤
Ġì§ĢìĹŃ ìĹĲìĦľ
ë²Ķ ì£Ħ
ì§Ģ ë©°
ĠëĮĢ ê¸°ìĹħ
ëĭ¤ ìĿ´
ĠíĬ¸ ëŀĻ
ì²´ ê³Ħ
ì¹´ íİĺ
ĠìłĢ ìŀĳ
ĠìĿ´ìĥģ ìĿ´
Ġë¹Ħë°Ģ ë²Īíĺ¸
ë¥´ ìĭł
ë¹Ħ ìĿĺ
ĠìĦ¸ ëĮĢ
ĠìĤ¬ìļ© íķĺì§Ģ
Ġìĥģíĥľ ìĹĲìĦľ
ĠìķĬìķĺ ìĬµëĭĪëĭ¤
Ġê¿ Ģ
ĠìĥĿ ë¬¼
ĠìķĦì§ģ ëıĦ
Ġìĸ¸ìłľ ëĤĺ
âĺħ âĺĨ
Ġëĵ¤ ëł¤
łí Į
ĠìĨĲ ëĭĺ
ìĦľ íĬ¸
ĠìķĦ ë¹ł
Ġê°Ĳ ìĥģ
ĠëįĶ íķ´
Ġíĺ¸íħĶ ìĿĦ
ë¦¬ ë©´
Ġìĭ¬ ìŀ¥
Ġìŀ¥ ë¥´
íķĺê²ł ëĭ¤ëĬĶ
ìĦ¸ ìĿĺ
ì¤ĳ ìĿ¸
ĠìĿ´ ë¯¼
Ġë³µ êµ¬
ìłģìľ¼ë¡ľ ëĬĶ
ê³Ħ ì¸µ
ë°ľ ìĿĦ
Ġë°Ľ ê²Į
íķĺ ìħĶìķ¼
ĠìĻĢ ìĦľ
Ġê·¸ëŁ¬ ë©´
ĠíĿ ī
ĠìĪĺ íķĻ
Ġì°¾ ê³ł
ê¸° ë¡Ŀ
Ġìķ± ìĿĦ
ì°½ ìĹħ
Ġëħ¹ ìĥī
ĠëıĦ ë³´
Ġìĥī ê¹Ķ
ìĽĶ ê¹Įì§Ģ
Ġê³łìĸĳ ìĿ´
Ġì§Ħíĸī ëĲľ
ëĭ¤ ë¦¬
ë±ħ íģ¬
Ġë§İ ìĬµëĭĪëĭ¤
ĠìŀĲìľł ë¡Ńê²Į
ëĵ± ìĿĦ
ĠìĿ¸ ìĽĲ
ĠìĿ´ìłĦ ìĹĲ
Ġíĺ¸íħĶ ë¡ľ
ĠìķĦ ë¬´ë¦¬
ĠíĶĦëłĪ ìŀĦ
ê¸° ì§Ģ
ë¯¸ ë¥¼
ĠìĿ´ ëĵ¤ìĿ´
ëıĦ ìĦľ
ëĿ½ ìĿĦ
ìĦł ìĪĺ
ĠìłľíĴĪ ìĿ´
ĠìķĦìĿ´ ëĵ¤ìĿ´
ìľł ìĤ°
íķľ ìĿĺ
Ġëĭ¹ ë¶Ģ
ĠëĴ¤ ìĹĲ
ĠìķĬìķĦ ëıĦ
ĠëĮĢíĨµëł¹ ìĿĺ
ìĹ¬ ìĦľ
ìŀĸ ìķĦìļĶ
ìĸ´ ìł¸
ĠìĿ´ ê±´
Ġíĺĳ ìķ½
ĠëĤĺ ëıĦ
Ġêµ¬ì²´ ìłģìĿ¸
ìŀĲ ê¸Ī
ì²´ íģ¬
Ġê²½íĹĺ ìĿ´
Ġíĸ Ħ
Ġìĺ¤ ë¥´
Ġíĭ° ì¼ĵ
Ġê²Į ëĭ¤ê°Ģ
ëĮĢ êµ¬
Ġê²Į ìĬ¤íĬ¸
Ġíĥ ĵ
ĠíĺĲ ìĿĺë¡ľ
ë²ķ ìĿĢ
Ġëĭ¹ ì²¨
Ġëª¨ íĦ°
Ġì£¼ ê¸°
ì¡° ìĹĲ
Ġìķ½ ë¬¼
ĠìĹĲ ìĬ¤
ĠíĬ¸ ë¦¬
ĠAM G
E CD
Ġë³´ ìĻĦ
Ġìĸ´ ìłľ
Ġì§ĳ ê³Ħ
ĠìĹŃ ìĤ¬ë¥¼
ĠëĤ´ ê³ł
Ġëĵ Ŀ
ê´ĳ ê³ł
ìĺģ ìĸ´
Ġìµľì´Ī ìĿĺ
ëĪĦ ë¦¬
ĠìĤ¬ ìĸĳ
ë°ĶìĿ´ ëŁ¬ìĬ¤
ĠìĤ ½
Ġê°Ħ ìĿ´
Ġê¶Į ë¦¬
ìĭ± íĦ´
ìłĦ ìĭľ
ĠìĽĢì§ģ ìŀĦ
ãĢı ãĢİ
ĠìķĦìĿ´ ê°Ģ
Ġì§Ģìłģ íĸĪëĭ¤
Ġë§ ĳ
Ġëĭ¤ìĿĮ ìĿĢ
Ġìłľì£¼ ëıĦ
íıī ê·ł
Ġê°Ģ ì£½
Ġë§¤ ë§¤
ĠìĪľ ìĪĺ
ĠíĦ° ì¹ĺ
Ġíĺĳ ìĹħ
ĠëĬĲëĤĮ ìĿĦ
ĠìĨĮ ì¤ĳíķľ
Ġíģ Ĳ
ìħĶ ëĦĲ
Ġíı¬ íĨł
ĠëıĮ ìķĦê°Ģ
ĠìķĬ ì§Ģë§Į
Ġì°¸ìĹ¬ íķľ
ëĬĶ ê°Ģ
ìĤ¬ ìĿ¼
Ġíı¬ ë¥´
Ġê·¸ ë§Įíģ¼
Ġê°ĢëĬ¥ìĦ± ìĿĦ
ë¨¸ ìĬ¤
Ġë§Ĳ íķł
ìĪĺ ìĤ°
ìĽĮ ìĦľ
ĠëĥĦ ìĥĪ
Ġìĺ¤ ìĹ¼
Ġì²Ń ìķ½
ìĭ¤ ìĹĲ
ìŀ¬ ìĤ°
Ġì§Ģ íĳľ
Ġì¶©ë¶Ħ íķľ
Ġë¹ µ
ë§Ŀ ìĿĦ
ĠíĽĦ ë°ĺ
Ġì¶ ¤
ĠëĤĺ ë¦Ħ
Ġë§Į ëĤł
Ġì¦Ĳ ê¸°ëĬĶ
Ġë¶Ģ ë¥´
ĠëĦĪë¬´ ëĤĺ
ë°© íĸ¥
Ġì¤Ģ ëĭ¤
Ġìĭľê°Ħ ìĿĢ
ĠìĭĿ ìĤ¬ë¥¼
ĠìľłìĿ¼ íķľ
ëıĻë¬¼ ìĿĦ
ë¯¼ ìĿĺ
ìĭľ ì¦Į
ĠêµĲ ìĤ¬
ĠìłĪì°¨ ë¥¼
ëĤĺ ê²Į
ìĭľ ë¡ľ
Ġìļ° ìļ¸
ĠìłĦ íĺķ
ĠìłĲ ì°¨
ĠíĻĺ ìŀĲìĿĺ
Ġê³łê°Ŀ ëĭĺìĿĺ
ĠíķĻìĥĿ ëĵ¤ìĿ´
ê¸° ê³Ħ
ëłī ìħĺ
Ġê³³ ìĿĢ
Ġìłķ ì²´
Ġë¶Ģì¡± íķľ
Ġíĺ¸íħĶ ìĹĲìĦľ
ì°¨ ë¡Ģ
ĠìķĪìłķ ìłģìĿ¸
êµ¬ ìĦ±
Ġê·¼ ë³¸
Ġë²ķ ìłķ
Ġì§ĳ ìĿĦ
Ġì²« ì§¸
íĪ¬ ëį°ìĿ´
Ġìĺ¬ ë¦¼íĶ½
Ġì¶Ķ ìĦĿ
Ġê¸°ìŀĲ íļĮê²¬
Ġë§Ĳ íķ©ëĭĪëĭ¤
ê·¼ íĺľ
Ġê³¼ ìĿ¼
ĠìķĪ ìĭ¬
Ġì¶ķ ìĨĮ
Ġì·¨ ìŀĦ
ê²ĥ ìĿ´
Ġë¬¸ íķĻ
ëĿ¼ìĿ´ ìĸ´
ì½ĺ íħĲì¸ł
ĠíĿĺ ëŁ¬
Ġê°Ģê²© ìĿĦ
ĠëĮĢ íķĻêµĲ
ìĦ¼íĦ° ë¥¼
H g
Ġê¼ ¼
Ġìŀ ī
ë´Ĳ ìķ¼
ì¢ħ ìĿĦ
Ġê°Ģ ëģĶ
ĠíĸĪ ê³ł
ì§Ģ ëĭĪìĸ´
Ġë§ĪìĤ¬ ì§Ģ
ìŀĲ ìĹ°
íķ´ ìĸĳ
ëª© ë¡Ŀ
Ġë¶Ģ ìĦľ
ĠìĿ¸ ìļ©
Ġê²ĥìĿ´ ë©°
Ġë°© ìĭĿìĿĦ
ĠìĺģìĹħ ìĿ´ìĿµ
ìĦł ìĿĢ
Ġì¶Ķ ìĦ¸
ĠíĮ¨ ëĦĲ
ë¡ľìĦľ ìĿĺ
Ġë¦¬ ìĬ¤íĮħ
k W
ìĤ¼ ìĦ±
Ġë§Ľ ìŀĪ
Ġìĥģíĥľ ë¡ľ
Ġíı¬íķ¨ ëĲľ
Ġíĸ ĩ
Ġê¸ī ìĹ¬
ìĬ¤íĥĢ ê·¸ëŀ¨
Ġê¸įìłķ ìłģìĿ¸
ìłĦ ìŁģ
ĠëıĮ ëł¤
Ġëĵ¯ íķľ
Ġë¡ľ ëĵľ
Ġìĺģ ìĽĲ
Ġê´Ģë¦¬ ìŀĲ
Ġê°ĸì¶Ķ ê³ł
Ġëĸ ¡
ëª© ìłģ
ĠìĦł ê³ł
ĠB IS
Ġëħ¸ íķĺìļ°
ĠìĽĲ ìĿĦ
ìĿ´ ìĹĪìĬµëĭĪëĭ¤
ëĭĺ ê»ĺ
ë²¤ ì²ĺ
ĠìĪĺ ìĹ¬
Ġìĭł ìķĻ
ĠìĦ¸ ë¯¸ëĤĺ
Ġìĭ¶ ìĬµëĭĪëĭ¤
ë§Ī ìĬ¤
ìķ¡ ìĿĢ
ĠëĲĺ ê¸°
ìĸ´ ë¦°ìĿ´
ĠìķĦ ìĿ¼ëŀľëĵľ
ìĦł ìĹĲ
Ġëĭ¨ ê¸°
Ġìĸ´ ì©Į
ĠìķĦìĿ´ ëĶĶ
Ġê²° ì½Ķ
ĠêµŃíļĮìĿĺ ìĽĲ
ĠìķĦìĿ´ ì½ĺ
ëĤ¨ ëıĦ
ì§Ħ ìĿĺ
ĠìĪĺ ì¹ĺ
ì¡°íļĮ ìĪĺ
ê°Ĳ ê³¼
ì¹¨ ëĮĢ
íĪ¬ ìĬ¤
Ġì¢ĭ ì§Ģ
ĠíĴį ê²½
Ġì±ĦìĭĿ ì£¼ìĿĺ
Ġë°ľ íľĺ
ĠìķĦ íĬ¸
Ġì¹ĺ ì¦Ī
ĠìķĪìłĦ íķĺê²Į
ìĤ° ìĭľ
ìłķ ì¹ĺ
íĺĳ ìĿĺ
ĠëŁ° ëįĺ
ĠìłĲ ìľł
íĬ¹ë³Ħ ìĭľ
ĠëĤĺíĥĢ ëĤľ
ĠìĿ´ ì²ĺëŁ¼
ĠìķĮ ë£¨ë¯¸ëĬĦ
ĠTable au
ëªħ ìĹĲ
Ġë¬´ ê¸°
ĠìķĦ ìļ°
Ġìļ´ ìļ©
Ġë³ĦëıĦ ë¡ľ
ĠíĽĦ ìĹĲëĬĶ
Ġë§Ī ì£¼
Ġë¯¿ ìĿĮ
Ġë¶Ī ëŁī
íķĺê¸° ìĹĲ
Ġë¬¸ìłľ ìĹĲ
Ġê¸° ë¶Ħ
ĠëĶĶ ìłĢ
ĠìĦ¤ ë¬¸
Ġì£¼ ìĸ´
ê°ľ êµŃ
ëĮĢ ìĻĢ
íĮĢ ìĿĢ
Ġê·ł íĺķ
ĠìħĶ íĭĢ
ìĬ¤ ìĹĲìĦľ
Ġìĭľìŀĳ ëĲľ
íķĺê²ł ëĭ¤ê³ł
Ġëĭ¤ ìĦ¯
Ġì£¼ìŀ¥ íĸĪëĭ¤
Ġíħ ľ
ëıĻ ìĹĲ
ì²´ ìĹĲ
Ġìķķ ë°ķ
Ġì¡° ë¡Ģ
ĠìĤ¬ìļ© íķ©ëĭĪëĭ¤
Ġì¡°íļĮ ìĪĺ
Ġíķĺ ìĭ¤
ëĨĢ ìĿ´
íĺ¸ ê°Ģ
Ġê·¸ ê³³
Ġê¸° ìĤ¬ë¥¼
Ġí Ģ
ĠíĢ Ħ
ĠëĲĺ ëıĦë¡Ŀ
ĠìķĬ ìľ¼ë©°
ê°ľ ìłķ
ë²ķ ìĿĺ
ìĭ¬ ìĿĺ
Ġê³¼ ëıĦ
Ġë¨¸ ë¬¼
ĠìĥĿ ê²¨
Ġë¶Ģ ìŀĳìļ©
ìĤ¬ ìĿ¸
Ġê°Ģ ìĨį
Ġë°© íķ´
ĠìłľíĴĪ ìĹĲ
Ġì¢ĭ ìķĦìļĶ
ĠìĥĿê°ģ íķĺê³ł
ëħ¸ íĬ¸
ìī½ ê²Į
ìķĦ ìĿĺ
Ġê¸Ī ê³ł
Ġìķī ìķĦ
ĠìŀĲìĹ° ìĬ¤ëŁ½ê²Į
âĢĿ (
Ġê±° ê¸°
ĠëĤ¨ ëħĢ
ĠìĿĺ ì¡´
Ġê²ĥ ìĿ¸ì§Ģ
ĠìĽ¹ìĤ¬ìĿ´íĬ¸ ìĿĺ
ìĹĪëĭ¤ ê³ł
Ġë°Ķë¡ľ ê°Ģê¸°
Ġì§Ħíĸī íķľëĭ¤
ë§Ī ìĿ´
ë¦¬ ìłģìĿ¸
ìĸ´ ë§ģ
Ġì°¾ ìľ¼
ĠíĥĲ ìĥī
Ġê¸° ê¸°
ĠìĨĮ ìĭĿìĿĦ
ĠìľĦì¹ĺ ìĹĲ
ĠíķĺëĤĺ ê°Ģ
ĠCM OS
Ġìŀħ ìĿĦ
Ġíķ´ ìļĶ
ë§Į ìĽĲìĿĦ
ë¶ģ ëıĦ
íĥĢ ìĽĮ
ëł¥ ìľ¼ë¡ľ
ĠH AC
ĠìĬ¬ ëĿ¼ìĿ´
ë¬¼ ë¡ľ
Ġëĸ¨ìĸ´ ì§Ħ
ĠìĥģëĮĢ ìłģìľ¼ë¡ľ
ìĨĮ ìĹĲìĦľ
ĠìĻĢìĿ´ íĮĮìĿ´
ê¸° ëħĲ
Ġ ï½¢
ìĹħ ê³Ħ
ìłľ ëª©
Ġê°ķ ì¢Į
ìĸ´ ìĿĺ
ĠìĿ´ ìĪĺ
Ġìŀħ ì¦Ŀ
Ġì£¼ íĸī
ìķĺ ëĬĶëį°
Ġíģ´ëŀĺ ìĭĿ
Ġìĺ¤ëĬĺ ìĿĺ
ëįĶëĿ¼ê³ł ìļĶ
Ġê°Ģ ìķ¼
ĠìĹ ł
ê°ĢëĬ¥ íķľ
ĠíĻľìļ© íķł
Ġëŀ ĺ
ĠìĿ¼ ìĹĲ
ĠëĮĢ íĻĶë¥¼
Ġë°©íĸ¥ ìľ¼ë¡ľ
ĠëĤ ¸
ìķĪ ìĿĺ
íĻĶ ëĬĶ
ĠëĤĺ ìĦ°ëĭ¤
ĠìľĦ ìĹĲìĦľ
Ġì´Ī ë°ĺ
íĸĪ ìľ¼ëĤĺ
ê³µ ìĹħ
Ġ ãħĭãħĭ
Ġê³ł ìľł
ĠìĦł ìŀĦ
ĠìķĦ ê¸°
Ġë¯¼ ê°Ĳ
Ġë¸Ķë¡Ŀ ì²´ìĿ¸
ìļ° ëĵľ
Ġìĺ® ê²¨
Ġê´Ģëł¨ íķĺìĹ¬
Ġê²Įìŀ¬ ëĲľ
i ho
Ġê°ľ íĺģ
Ġë²ķ ë¬´
ìĬ¤íĨł ë¦¬
íĶĦ ëłĪìĬ¤
Ġê³Ħìķ½ ìĿĦ
Ġì¢ĭ ê³ł
Ġê°ķ ìłľ
Ġëª¨ íĺķ
Ġìłķ ìĭĿ
ĠìĿ´ìļ© ìķ½ê´Ģ
ìķ¡ ìĿĦ
Ġë¹Ħ ëĤľ
Ġìĵ° ëłĪ
ìĦ± íķľ
ìĶ¨ ìĿĺ
Ġê°Ģ ë©´
ĠìĨĲ íķ´
Ġì²¨ ëĭ¨
ĠìĤ¬ìĿ´íĬ¸ ë¥¼
Ġâĸ ·
Ġì¶ ĺ
ìĨĮ ìĦľ
ĠS GS
ì¹ĺ ê²Į
Ġë°© ìĸ´
Ġë´ ħ
Ġë´ħ ëĭĪëĭ¤
ìµľ ê·¼
ĠìĿ´ ìĬ¹
Ġìłķì¹ĺ ìłģ
ĠìŀĪìĹĪ ëĬĶëį°
ëĤĺ ìĿĺ
ìĤ¬ ë¡Ģ
Ġê³ł ë¬´
ĠìĿ´ ìłķ
Ġìłķ ëĭ¹
ĠìĥģëĮĢ ë°©
Ġìļ°ë¦¬ ë¥¼
ĠìĿ´ìķ¼ ê¸°ê°Ģ
ë°© ì§Ģ
ìłĦ íĺķ
ĠìĹ° ê´Ģ
Ġíķ© ë³ĳ
Ġë³µìŀ¡ íķľ
íķ´ ìĻ¸
Ġìŀħ ì£¼
ë¸Į ëŀľëĵľ
Ġìļ´ ëıĻìĿĦ
Ġìĺ¤ëŀ« ëıĻìķĪ
ĠK F
Ġëĭ¨ ìľĦ
Ġìļ´ íĸī
ĠëĿ¼ìĿ´ ìĦ¼
ĠìĿ´ê³³ ìĿĢ
ĠëĤ ¼
Ġìŀ İ
.. )
Ġíħ Ķ
ĠíħĶ ëłĪ
ĠëĿ¼ìĿ´ íĶĦ
ê³ł ê°Ģ
Ġê°Ģ ê¸°
ĠìĹ¼ ì¦Ŀ
ĠìĿ¼ ìŀĲ
ĠíĿ¬ ìĥĿ
ĠìĽĶëĵľ ì»µ
ĠíĪ¬ ìŀĲë¥¼
Ġì ³
Ġì³ Ĳ
Ġìĭł íķľ
Ġë§Ī ë¦¬
Ġìĸ´ ë¥¸
Ġê³łê°Ŀ ìĿĦ
Ġëª¨ëį¸ ìĿĦ
Ġë°©ë¬¸ íķ´
Ġì±Ķ íĶ¼ìĸ¸
ëĵľë¦¬ ê²łìĬµëĭĪëĭ¤
ì£¼ ìĸ¼
Ġìĥĺ íĶĮ
Ġì£¼ ê°Ħ
ëĭĪ ëĿ¼
íĨ¨ ë¦Ń
Ġê³ł ìĦ±
ĠëĮĢ ìĤ¬
ĠìĬ¤ íĬľëĶĶìĺ¤
Ġì§Ħíĸī ëĲľëĭ¤
íĬ¸ ìĹĲ
ëĦ¤ ìĭľìķĦ
ĠìĽ¨ ìĬ¤íĬ¸
ìŀ¬ ë£Į
ĠìĹŃ ëŁī
Ġë§ ĺ
Ġë§Ī ì¹¨
Ġë°Ķ ê¿Ķ
Ġë¶Ħ ëħ¸
Ġì¹ ¸
ìļĶ ìĨĮ
ìłĦ ìĿĢ
ĠìłĦ ì£¼
Ġì±ħ ìĿĢ
ĠíĥĢ ìŀĦ
ĠíĶĦ ëŁ°íĬ¸
ĠìłĢìŀĳê¶Į ì¹¨íķ´
ê¸ī ìĹ¬
íĬ¸ ëĿ¼
Ġê²Ģ ìĿĢ
Ġì¦Ĳ ê²ģ
Ġê³¨ ëĵľ
Ġê¸° ìĥģ
ĠíļĮìĤ¬ ê°Ģ
Ġêµ¬ìĦ± ëĲĺìĸ´
ĠìķĶíĺ¸ íĻĶíıĲ
ìłĲ ê²Ģ
Ġê²½ ìĥģ
ĠìĨĮ ë§¤
Ġë¬´ìĹĩ ìĿ´
Ġê¸°ë³¸ ìłģìĿ¸
ĠëŃĶ ê°Ģ
Ġë°© ìĤ¬
ĠìĦ¸ ìĽĮ
ĠìĭĿ ìĤ¬ê°Ģ
ĠC NT
ê²© íķľ
íıī ìĸĳ
Ġë¶Ģë¶Ħ ìĹĲ
ë¦¬ ì¦ĺ
ĠìĿ¸ íķĺ
Ġëıħ ìŀĲ
Ġìĺģ ê´ĳ
ì§Ī ìĿĺ
ĠíĿĶ íŀĪ
Ġëĭ ¿
íĺ¸ ìĻĢ
ĠìĿ¼ íĻĺ
ìłķë³´ ê°Ģ
ĠìĥģíĴĪ ìĿ´
ìĻĶ ìĬµëĭĪëĭ¤
ĠíĶĮ ë¡ľ
Ġê·¸ ëłĪìĿ´
Ġëĭ¹ëĩ¨ ë³ĳ
Ġë§Ĳ íĸĪìĬµëĭĪëĭ¤
ëŁ¬ ê·¸
Ġì²ł ìłĢ
ĠìĭĿ ëĭ¨
ëĥħ ëĭĪëĭ¤
ĠìĹ°êµ¬ ë¥¼
Ġì¤Ħ ìĸ´ëĵ¤
ìłģ ìŀħëĭĪëĭ¤
Ġë§Į ìĦ±
ĠíĮĮ ëĿ¼
ĠíĶĦ ëĿ¼ìĿ´
ĠHOT EL
ìĪľ ìľĦ
ì§Ī ìĿ´
Ġì¡° ë¦¬
ĠíĨł ìļĶìĿ¼
Ġëį ´
Ġìķ Ļ
ĠíĮ Ŀ
ì°¸ ìĹ¬
Ġë°ľìłĦ ìĿĦ
Ġë¶ģíķľ ìĿĺ
ĠìĽĲ ëĤ´
ê³µ ìŀ¥
êµŃ ìĿĦ
Ġê³³ ìĿĦ
ĠëĨĴ ëĭ¤
Ġë§Ľ ìĿ´
ìŀ¥ ì¹ĺ
ìĭľíĤ¤ ê¸°
ĠíķĺëĤĺëĭĺ ìĿ´
Ġë§¤ íĬ¸
Ġìłķ ì°©
ëĲĺ ê±°ëĤĺ
ĠìķĦë¦Ħ ëĭµ
Ġìłģ ëĭ¹íķľ
ìĭľ ê¸¸
Ġê¹Ģ ìłķ
Ġê²°ê³¼ ëĬĶ
ĠìĦ¸ê³Ħ ìłģìĿ¸
Ġê²½ ê³¼
Ġìĺ¤ ë¦¬
ĠìĹĨ ìĸ´ìĦľ
ê³µ íķĻ
ë¥ĺ ë¥¼
Ġìī½ ê³ł
Ġëĵ¤ìĸ´ ìĦľ
ĠìĿĢ íĺľ
Ġìħ °
ëłĪ ìĿ¸
ĠìĦł ë°ķ
ĠìĽĲ ê²©
Ġìĺģ íĻĶë¥¼
Ġë§ĪìĿĮ ìľ¼ë¡ľ
ê°Ģ ìĻĢ
ìķĪ ìĿĢ
Ġìĥģ ìĨį
ĠL PG
ê¶Į ìĹĲ
ëıĻ ìĿ´
ë¡ľ ì§Ģ
Ġì¹ľ ìłĪ
ì£¼ìĭľ ë©´
Ġìľłíĺķ ìĿĺ
ye ong
Ġë°ľìĥĿ íķ©ëĭĪëĭ¤
ìĬ¤ íĥĦ
ìłķ ê³¼
Ġìĥģ ìĭ¤
ĠìķłëĭĪ ë©ĶìĿ´ìħĺ
ĠëıĻ ëĦ¤
Ġëª¨ ìĥī
Ġìĸµ ìłľ
ĠK IA
Ġë¹ĦêµĲ ìłģ
ĠìĤ¬ìļ© ìĿĦ
ĠìķĦë¦Ħ ëĭ¤
ë²ł ìĿ´íĦ°
ĠZ em
ĠìĤ¬ìĭ¤ ìĿ´
ë§Ī ìłĢ
Ġë°ĺìĿĳ ìĿĦ
ĠìĤ¬ìĿ´ ë²Ħ
ì£¼ë¬¸ ìĪĺëŁī
ĠìłķíĻķ íķĺê²Į
Ġë²ķ ìĿ¸
ëĲĺìĹĪ ê³ł
ĠëĤĺìĺ¤ ê³ł
ĠëĶĶ ìŀĲìĿ´ëĦĪ
ìĺĪ ìķ½
Ġê±´ ëĦĪ
Ġë²Į ìį¨
Ġë¶Ħ ìĿ´
ĠìĿ¼ ìłĪ
ìļ© ìľ¼ë¡ľ
Ġê·¸ ëŀ¬
Ġíķĺ ìĺĢ
ĠíĹĪ ë¦¬
íķĺëĭ¤ ê°Ģ
Ġìłķì±ħ ìĹĲ
Ġíķł ë¨¸ëĭĪ
ëĮĢ ë¹Ħ
ëĮĢ íĻĶ
ìľĦ ê¸°
Ġë°Ķ ë¥¸
Ġìľ¼ ë¡ľ
ĠìķĦëĭĮ ê°Ģ
Ġì§Ģ ìŀĲì²´
ĠìĪĺ ë¡Ŀ
Ġê°ľìĿ¸ ìĿĺ
ëª¬ ëĵľ
ĠìĪĺ ìĭŃ
Ġë³´ ë©´ìĦľ
Ġê³ĦìĨį íķ´ìĦľ
ĠìĦ¸ê³Ħ ìĹĲìĦľ
ì²´ ëĬĶ
íķ´ ì§Ī
ĠìĿ´ ëŀĺ
ĠìĿ´ ìĦ±
Ġíķĺ ìħ¨
ìĭŃ ëĭĪê¹Į
ĠU HD
Ġê°ĢìĦ± ë¹Ħ
Ġë°ĽìķĦ ëĵ¤
ĠìĿĮìķħ ìĿĦ
ê°ľ ë¡ľ
Ġìµľ ìķħ
Ġìĭ¤ ë¦¬ì½ĺ
Ġí Ĥ¹
ìĿ¸ ê¶Į
Ġìĸ´ëł¤ ìĽĮ
Ġíļ¨ê³¼ ìłģìĿ¸
Ġìķħ íĻĶ
ĠíĹĪ ê°Ģ
ĠìĨĮ ìĥģê³µ
ĠìĤ¬ìĿ´íĬ¸ ë§µ
ĠìĺĪìĥģ ëĲľëĭ¤
ëŀĮ íļĮ
ìĤ¬ ìŀ¥
ë¦¬ íķľ
Ġëª¸ ìĹĲ
Ġíĸ¥ íķľ
ë¶Ģ ë¡ľ
ìĻĦ ë£Į
íĺķ íĥľ
ĠìŀĦ ê¸Ī
ĠëĤĺ ìĹĲê²Į
ĠìĤ¬ ë¡ľ
íķ´ ì§ĢëĬĶ
ĠìĪĺìĪĺ ë£Į
ĠìĹ¬ìĦ± ìĿĺ
Ġë¶ĦìľĦ ê¸°ë¥¼
Ġìĭ±ê°Ģ íı¬ë¥´
ĠëĦ ¥
ĠìĨĮ ìŀ¥
Ġíģ¬ ëĭ¤
ĠíĬ¸ìľĦ íĦ°
ë¥´ ëª¬
ë§Ī ìŀĲ
ì²ľ ìĭľ
ì¶ķ êµ¬
Ġíķľ ìĿ¸
ê¸°ê´Ģ ìĿĺ
Ġì§Ħíĸī ëĲĺëĬĶ
ì¢ĭ ìĿĢ
Ġë¶Ģ ìĥģ
ĠìĪĺ ìĭł
ê°ĳ ëĭĪëĭ¤
Ġë¬¸ìłľ ë¡ľ
ĠíĺĦìŀ¬ ìĿĺ
ê³ł ëĬĶ
ìĥĿ ëªħ
ìĺ¤ ëĭĪ
ĠìĤ¬ ìļ°
Ġì¶© ì²Ń
Ġê°ľ ë§ī
Ġëª©íĳľ ë¥¼
ê°ľ íĺģ
Ġê·¸ ë§Į
Ġê¹Ģ ì¢ħ
Ġì¶© ëıĮ
Ġë³´ìľł íķľ
ëł¥ ìĹĲ
Ġê°Ĳ ìķĪ
ĠìķĬ ê¸°
ĠìĿ´ ì§Ģ
Ġìĺ¤ ëĶĶìĺ¤
Ġë¡ ł
ĠìĽ °
Ġêµ¬ ê°Ħ
ĠëıĻ ì°¸
ìľ¼ ë¯Ģë¡ľ
ìłĪ ìĿĦ
Ġì°½ ìĽĲ
Ġì§ģ íĽĦ
ê°ľ ìĦł
ë¡ľ ëıĦ
ìĸĳ ìĿĺ
Ġì£¼ë³Ģ ìĿĺ
ĠìĿ´ìļ© ìŀĲìĿĺ
éŁĵ åĽ½
æĹ¥æľ¬ èªŀ
