{
  "version": "1.0",
  "truncation": null,
  "padding": null,
  "added_tokens": [
    {
      "id": 16351,
      "content": "<|endoftext|>",
      "single_word": false,
      "lstrip": false,
      "rstrip": false,
      "normalized": false,
      "special": true
    },
    {
      "id": 16352,
      "content": "<|im_start|>",
      "single_word": false,
      "lstrip": false,
      "rstrip": false,
      "normalized": false,
      "special": true
    },
    {
      "id": 16353,
      "content": "<|im_end|>",
      "single_word": false,
      "lstrip": false,
      "rstrip": false,
      "normalized": false,
      "special": true
    },
    {
      "id": 16354,
      "content": "<|object_ref_start|>",
      "single_word": false,
      "lstrip": false,
      "rstrip": false,
      "normalized": false,
      "special": true
    },
    {
      "id": 16355,
      "content": "<|object_ref_end|>",
      "single_word": false,
      "lstrip": false,
      "rstrip": false,
      "normalized": false,
      "special": true
    },
    {
      "id": 16356,
      "content": "<|box_start|>",
      "single_word": false,
      "lstrip": false,
      "rstrip": false,
      "normalized": false,
      "special": true
    },
    {
      "id": 16357,
      "content": "<|box_end|>",
      "single_word": false,
      "lstrip": false,
      "rstrip": false,
      "normalized": false,
      "special": true
    },
    {
      "id": 16358,
      "content": "<|quad_start|>",
      "single_word": false,
      "lstrip": false,
      "rstrip": false,
      "normalized": false,
      "special": true
    },
    {
      "id": 16359,
      "content": "<|quad_end|>",
      "single_word": false,
      "lstrip": false,
      "rstrip": false,
      "normalized": false,
      "special": true
    },
    {
      "id": 16360,
      "content": "<|vision_start|>",
      "single_word": false,
      "lstrip": false,
      "rstrip": false,
      "normalized": false,
      "special": true
    },
    {
      "id": 16361,
      "content": "<|vision_end|>",
      "single_word": false,
      "lstrip": false,
      "rstrip": false,
      "normalized": false,
      "special": true
    },
    {
      "id": 16362,
      "content": "<|vision_pad|>",
      "single_word": false,
      "lstrip": false,
      "rstrip": false,
      "normalized": false,
      "special": true
    },
    {
      "id": 16363,
      "content": "<|image_pad|>",
      "single_word": false,
      "lstrip": false,
      "rstrip": false,
      "normalized": false,
      "special": true
    },
    {
      "id": 16364,
      "content": "<|video_pad|>",
      "single_word": false,
      "lstrip": false,
      "rstrip": false,
      "normalized": false,
      "special": true
    },
    {
      "id": 16365,
      "content": "<tool_call>",
      "single_word": false,
      "lstrip": false,
      "rstrip": false,
      "normalized": false,
      "special": false
    },
    {
      "id": 16366,
      "content": "</tool_call>",
      "single_word": false,
      "lstrip": false,
      "rstrip": false,
      "normalized": false,
      "special": false
    },
    {
      "id": 16367,
      "content": "<|fim_prefix|>",
      "single_word": false,
      "lstrip": false,
      "rstrip": false,
      "normalized": false,
      "special": false
    },
    {
      "id": 16368,
      "content": "<|fim_middle|>",
      "single_word": false,
      "lstrip": false,
      "rstrip": false,
      "normalized": false,
      "special": false
    },
    {
      "id": 16369,
      "content": "<|fim_suffix|>",
      "single_word": false,
      "lstrip": false,
      "rstrip": false,
      "normalized": false,
      "special": false
    },
    {
      "id": 16370,
      "content": "<|fim_pad|>",
      "single_word": false,
      "lstrip": false,
      "rstrip": false,
      "normalized": false,
      "special": false
    },
    {
      "id": 16371,
      "content": "<|repo_name|>",
      "single_word": false,
      "lstrip": false,
      "rstrip": false,
      "normalized": false,
      "special": false
    },
    {
      "id": 16372,
      "content": "<|file_sep|>",
      "single_word": false,
      "lstrip": false,
      "rstrip": false,
      "normalized": false,
      "special": false
    },
    {
      "id": 16373,
      "content": "<tool_response>",
      "single_word": false,
      "lstrip": false,
      "rstrip": false,
      "normalized": false,
      "special": false
    },
    {
      "id": 16374,
      "content": "</tool_response>",
      "single_word": false,
      "lstrip": false,
      "rstrip": false,
      "normalized": false,
      "special": false
    },
    {
      "id": 16375,
      "content": "<think>",
      "single_word": false,
      "lstrip": false,
      "rstrip": false,
      "normalized": false,
      "special": false
    },
    {
      "id": 16376,
      "content": "</think>",
      "single_word": false,
      "lstrip": false,
      "rstrip": false,
      "normalized": false,
      "special": false
    },
    {
      "id": 16377,
      "content": "<|audio_start|>",
      "single_word": false,
      "lstrip": false,
      "rstrip": false,
      "normalized": false,
      "special": true
    },
    {
      "id": 16378,
      "content": "<|audio_end|>",
      "single_word": false,
      "lstrip": false,
      "rstrip": false,
      "normalized": false,
      "special": true
    },
    {
      "id": 16379,
      "content": "<tts_pad>",
      "single_word": false,
      "lstrip": false,
      "rstrip": false,
      "normalized": false,
      "special": true
    },
    {
      "id": 16380,
      "content": "<tts_text_bos>",
      "single_word": false,
      "lstrip": false,
      "rstrip": false,
      "normalized": false,
      "special": true
    },
    {
      "id": 16381,
      "content": "<tts_text_eod>",
      "single_word": false,
      "lstrip": false,
      "rstrip": false,
      "normalized": false,
      "special": true
    },
    {
      "id": 16382,
      "content": "<tts_text_bos_single>",
      "single_word": false,
      "lstrip": false,
      "rstrip": false,
      "normalized": false,
      "special": true
    },
    {
      "id": 16383,
      "content": "<|audio_pad|>",
      "single_word": false,
      "lstrip": false,
      "rstrip": false,
      "normalized": false,
      "special": true
    }
  ],
  "normalizer": {
    "type": "NFC"
  },
  "pre_tokenizer": {
    "type": "Sequence",
    "pretokenizers": [
      {
        "type": "Split",
        "pattern": {
          "Regex": "(?i:'s|'t|'re|'ve|'m|'ll|'d)|[^\\r\\n\\p{L}\\p{N}]?[\\p{L}\\p{M}]+|\\p{N}| ?[^\\s\\p{L}\\p{M}\\p{N}]+[\\r\\n]*|\\s*[\\r\\n]+|\\s+(?!\\S)|\\s+"
        },
        "behavior": "Isolated",
        "invert": false
      },
      {
        "type": "ByteLevel",
        "add_prefix_space": false,
        "trim_offsets": false,
        "use_regex": false
      }
    ]
  },
  "post_processor": {
    "type": "ByteLevel",
    "add_prefix_space": false,
    "trim_offsets": false,
    "use_regex": false
  },
  "decoder": {
    "type": "ByteLevel",
    "add_prefix_space": false,
    "trim_offsets": false,
    "use_regex": false
  },
  "model": {
    "type": "BPE",
    "dropout": null,
    "unk_token": null,
    "continuing_subword_prefix": "",
    "end_of_word_suffix": "",
    "fuse_unk": false,
    "byte_fallback": false,
    "ignore_merges": false,
    "vocab": {
      "!": 0,
      "\"": 1,
      "#": 2,
      "$": 3,
      "%": 4,
      "&": 5,
      "'": 6,
      "(": 7,
      ")": 8,
      "*": 9,
      "+": 10,
      ",": 11,
      "-": 12,
      ".": 13,
      "/": 14,
      "0": 15,
      "1": 16,
      "2": 17,
      "3": 18,
      "4": 19,
      "5": 20,
      "6": 21,
      "7": 22,
      "8": 23,
      "9": 24,
      ":": 25,
      ";": 26,
      "<": 27,
      "=": 28,
      ">": 29,
      "?": 30,
      "@": 31,
      "A": 32,
      "B": 33,
      "C": 34,
      "D": 35,
      "E": 36,
      "F": 37,
      "G": 38,
      "H": 39,
      "I": 40,
      "J": 41,
      "K": 42,
      "L": 43,
      "M": 44,
      "N": 45,
      "O": 46,
      "P": 47,
      "Q": 48,
      "R": 49,
      "S": 50,
      "T": 51,
      "U": 52,
      "V": 53,
      "W": 54,
      "X": 55,
      "Y": 56,
      "Z": 57,
      "[": 58,
      "\\": 59,
      "]": 60,
      "^": 61,
      "_": 62,
      "`": 63,
      "a": 64,
      "b": 65,
      "c": 66,
      "d": 67,
      "e": 68,
      "f": 69,
      "g": 70,
      "h": 71,
      "i": 72,
      "j": 73,
      "k": 74,
      "l": 75,
      "m": 76,
      "n": 77,
      "o": 78,
      "p": 79,
      "q": 80,
      "r": 81,
      "s": 82,
      "t": 83,
      "u": 84,
      "v": 85,
      "w": 86,
      "x": 87,
      "y": 88,
      "z": 89,
      "{": 90,
      "|": 91,
      "}": 92,
      "~": 93,
      "¡": 94,
      "¢": 95,
      "£": 96,
      "¤": 97,
      "¥": 98,
      "¦": 99,
      "§": 100,
      "¨": 101,
      "©": 102,
      "ª": 103,
      "«": 104,
      "¬": 105,
      "®": 106,
      "¯": 107,
      "°": 108,
      "±": 109,
      "²": 110,
      "³": 111,
      "´": 112,
      "µ": 113,
      "¶": 114,
      "·": 115,
      "¸": 116,
      "¹": 117,
      "º": 118,
      "»": 119,
      "¼": 120,
      "½": 121,
      "¾": 122,
      "¿": 123,
      "À": 124,
      "Á": 125,
      "Â": 126,
      "Ã": 127,
      "Ä": 128,
      "Å": 129,
      "Æ": 130,
      "Ç": 131,
      "È": 132,
      "É": 133,
      "Ê": 134,
      "Ë": 135,
      "Ì": 136,
      "Í": 137,
      "Î": 138,
      "Ï": 139,
      "Ð": 140,
      "Ñ": 141,
      "Ò": 142,
      "Ó": 143,
      "Ô": 144,
      "Õ": 145,
      "Ö": 146,
      "×": 147,
      "Ø": 148,
      "Ù": 149,
      "Ú": 150,
      "Û": 151,
      "Ü": 152,
      "Ý": 153,
      "Þ": 154,
      "ß": 155,
      "à": 156,
      "á": 157,
      "â": 158,
      "ã": 159,
      "ä": 160,
      "å": 161,
      "æ": 162,
      "ç": 163,
      "è": 164,
      "é": 165,
      "ê": 166,
      "ë": 167,
      "ì": 168,
      "í": 169,
      "î": 170,
      "ï": 171,
      "ð": 172,
      "ñ": 173,
      "ò": 174,
      "ó": 175,
      "ô": 176,
      "õ": 177,
      "ö": 178,
      "÷": 179,
      "ø": 180,
      "ù": 181,
      "ú": 182,
      "û": 183,
      "ü": 184,
      "ý": 185,
      "þ": 186,
      "ÿ": 187,
      "Ā": 188,
      "ā": 189,
      "Ă": 190,
      "ă": 191,
      "Ą": 192,
      "ą": 193,
      "Ć": 194,
      "ć": 195,
      "Ĉ": 196,
      "ĉ": 197,
      "Ċ": 198,
      "ċ": 199,
      "Č": 200,
      "č": 201,
      "Ď": 202,
      "ď": 203,
      "Đ": 204,
      "đ": 205,
      "Ē": 206,
      "ē": 207,
      "Ĕ": 208,
      "ĕ": 209,
      "Ė": 210,
      "ė": 211,
      "Ę": 212,
      "ę": 213,
      "Ě": 214,
      "ě": 215,
      "Ĝ": 216,
      "ĝ": 217,
      "Ğ": 218,
      "ğ": 219,
      "Ġ": 220,
      "ġ": 221,
      "Ģ": 222,
      "ģ": 223,
      "Ĥ": 224,
      "ĥ": 225,
      "Ħ": 226,
      "ħ": 227,
      "Ĩ": 228,
      "ĩ": 229,
      "Ī": 230,
      "ī": 231,
      "Ĭ": 232,
      "ĭ": 233,
      "Į": 234,
      "į": 235,
      "İ": 236,
      "ı": 237,
      "Ĳ": 238,
      "ĳ": 239,
      "Ĵ": 240,
      "ĵ": 241,
      "Ķ": 242,
      "ķ": 243,
      "ĸ": 244,
      "Ĺ": 245,
      "ĺ": 246,
      "Ļ": 247,
      "ļ": 248,
      "Ľ": 249,
      "ľ": 250,
      "Ŀ": 251,
      "ŀ": 252,
      "Ł": 253,
      "ł": 254,
      "Ń": 255,
      "in": 256,
      "Ġt": 257,
      "er": 258,
      "on": 259,
      "Ġa": 260,
      "re": 261,
      "at": 262,
      "st": 263,
      "en": 264,
      "or": 265,
      "Ġth": 266,
      "ĊĊ": 267,
      "Ġc": 268,
      "le": 269,
      "Ġs": 270,
      "it": 271,
      "an": 272,
      "ar": 273,
      "al": 274,
      "Ġthe": 275,
      "Ġp": 276,
      "Ġf": 277,
      "ou": 278,
      "Ġ=": 279,
      "is": 280,
      "ing": 281,
      "es": 282,
      "Ġw": 283,
      "ion": 284,
      "ed": 285,
      "ic": 286,
      "Ġb": 287,
      "Ġd": 288,
      "et": 289,
      "Ġm": 290,
      "Ġo": 291,
      "ro": 292,
      "as": 293,
      "el": 294,
      "ct": 295,
      "nd": 296,
      "Ġin": 297,
      "Ġh": 298,
      "ent": 299,
      "id": 300,
      "Ġn": 301,
      "am": 302,
      "Ġto": 303,
      "Ġre": 304,
      "--": 305,
      "Ġ{": 306,
      "Ġof": 307,
      "om": 308,
      "im": 309,
      "Ġ(": 310,
      "il": 311,
      "//": 312,
      "Ġand": 313,
      "ur": 314,
      "se": 315,
      "Ġl": 316,
      "ex": 317,
      "ĠS": 318,
      "ad": 319,
      "Ġ\"": 320,
      "ch": 321,
      "ut": 322,
      "if": 323,
      "**": 324,
      "Ġ}": 325,
      "em": 326,
      "ol": 327,
      "th": 328,
      "Ġg": 329,
      "ig": 330,
      "iv": 331,
      "ce": 332,
      "od": 333,
      "Ġv": 334,
      "ate": 335,
      "ĠT": 336,
      "ag": 337,
      "ay": 338,
      "Ġ*": 339,
      "ot": 340,
      "us": 341,
      "ĠC": 342,
      "Ġst": 343,
      "ĠI": 344,
      "un": 345,
      "ul": 346,
      "ue": 347,
      "ĠA": 348,
      "ow": 349,
      "Ġ'": 350,
      "ew": 351,
      "Ġ<": 352,
      "ation": 353,
      "()": 354,
      "Ġfor": 355,
      "ab": 356,
      "ort": 357,
      "um": 358,
      "ame": 359,
      "Ġis": 360,
      "pe": 361,
      "tr": 362,
      "ck": 363,
      "âĢ": 364,
      "Ġy": 365,
      "ist": 366,
      "----": 367,
      "he": 368,
      "Ġe": 369,
      "lo": 370,
      "ĠM": 371,
      "Ġbe": 372,
      "ers": 373,
      "Ġon": 374,
      "Ġcon": 375,
      "ap": 376,
      "ub": 377,
      "ĠP": 378,
      "ass": 379,
      "int": 380,
      "ly": 381,
      "urn": 382,
      "Ġ$": 383,
      "av": 384,
      "port": 385,
      "ir": 386,
      "->": 387,
      "nt": 388,
      "end": 389,
      "Ġde": 390,
      "ith": 391,
      "out": 392,
      "our": 393,
      "lic": 394,
      "res": 395,
      "pt": 396,
      "==": 397,
      "Ġthis": 398,
      "Ġif": 399,
      "ĠD": 400,
      "ver": 401,
      "age": 402,
      "ĠB": 403,
      "ht": 404,
      "ext": 405,
      "=\"": 406,
      "Ġthat": 407,
      "****": 408,
      "ĠR": 409,
      "Ġit": 410,
      "ess": 411,
      "ĠF": 412,
      "Ġr": 413,
      "os": 414,
      "and": 415,
      "Ġas": 416,
      "ect": 417,
      "ke": 418,
      "rom": 419,
      "Ġ//": 420,
      "con": 421,
      "ĠL": 422,
      "(\"": 423,
      "qu": 424,
      "Ġwith": 425,
      "iz": 426,
      "de": 427,
      "ĠN": 428,
      "Ġal": 429,
      "op": 430,
      "up": 431,
      "get": 432,
      "ile": 433,
      "Ġan": 434,
      "ata": 435,
      "ore": 436,
      "ri": 437,
      "Ġpro": 438,
      "ter": 439,
      "ain": 440,
      "ĠW": 441,
      "ĠE": 442,
      "Ġcom": 443,
      "Ġreturn": 444,
      "art": 445,
      "ĠH": 446,
      "ack": 447,
      "import": 448,
      "Ġor": 449,
      "est": 450,
      "ment": 451,
      "ĠG": 452,
      "able": 453,
      "Ġ-": 454,
      "ine": 455,
      "ill": 456,
      "ind": 457,
      "ere": 458,
      "::": 459,
      "ity": 460,
      "Ġ+": 461,
      "Ġtr": 462,
      "elf": 463,
      "ight": 464,
      "('": 465,
      "orm": 466,
      "ult": 467,
      "str": 468,
      "..": 469,
      "\",": 470,
      "Ġyou": 471,
      "ype": 472,
      "pl": 473,
      "Ġnew": 474,
      "Ġj": 475,
      "Ġfrom": 476,
      "Ġex": 477,
      "ĠO": 478,
      "ld": 479,
      "Ġ[": 480,
      "oc": 481,
      "Ġse": 482,
      "Ġle": 483,
      "--------": 484,
      ".s": 485,
      "',": 486,
      "ant": 487,
      "Ġat": 488,
      "ase": 489,
      ".c": 490,
      "Ġch": 491,
      "</": 492,
      "ave": 493,
      "ang": 494,
      "Ġare": 495,
      "Ġint": 496,
      "âĢĻ": 497,
      "_t": 498,
      "ert": 499,
      "ial": 500,
      "act": 501,
      "ive": 502,
      "ode": 503,
      "ost": 504,
      "Ġclass": 505,
      "Ġnot": 506,
      "og": 507,
      "ord": 508,
      "all": 509,
      "ff": 510,
      "ont": 511,
      "ime": 512,
      "are": 513,
      "ĠU": 514,
      "Ġpr": 515,
      "Ġ:": 516,
      "ies": 517,
      "ize": 518,
      "ure": 519,
      "Ġby": 520,
      "ire": 521,
      ".p": 522,
      "Ġsh": 523,
      "ice": 524,
      "ast": 525,
      "ok": 526,
      "__": 527,
      "cl": 528,
      "##": 529,
      "Ġhe": 530,
      "ard": 531,
      ").": 532,
      "Ġ@": 533,
      "Ġwas": 534,
      "ip": 535,
      "this": 536,
      "Ġu": 537,
      "ĠThe": 538,
      "ide": 539,
      "ace": 540,
      "ib": 541,
      "ac": 542,
      "Ġwe": 543,
      "Ġpublic": 544,
      "ak": 545,
      "ve": 546,
      "ath": 547,
      "oid": 548,
      "Ġ=>": 549,
      "ust": 550,
      "que": 551,
      "))": 552,
      "'s": 553,
      "Ġk": 554,
      "ans": 555,
      "yst": 556,
      "********": 557,
      "Ġi": 558,
      "Ġus": 559,
      "pp": 560,
      "one": 561,
      "ail": 562,
      "name": 563,
      "Ġ/": 564,
      "Ġ&": 565,
      "ach": 566,
      "div": 567,
      "ell": 568,
      "Ġhave": 569,
      "err": 570,
      "ull": 571,
      "pon": 572,
      "ĠJ": 573,
      "Ġ==": 574,
      "ign": 575,
      "St": 576,
      "Ġpl": 577,
      "form": 578,
      "dd": 579,
      "ite": 580,
      "Ġget": 581,
      "rr": 582,
      "ome": 583,
      "ĠâĢ": 584,
      "aram": 585,
      "cc": 586,
      "ER": 587,
      "In": 588,
      "les": 589,
      "_s": 590,
      "ong": 591,
      "ie": 592,
      "Ġcan": 593,
      "ĠV": 594,
      "erv": 595,
      "pr": 596,
      "Ġun": 597,
      "row": 598,
      "ber": 599,
      "Ġdo": 600,
      "ll": 601,
      "Ġel": 602,
      "Ġself": 603,
      "ated": 604,
      "ary": 605,
      "Ġ.": 606,
      "']": 607,
      "ud": 608,
      "Ġen": 609,
      "ĠTh": 610,
      "te": 611,
      "_c": 612,
      "Ġab": 613,
      "ork": 614,
      "Ġ#": 615,
      "aw": 616,
      "ress": 617,
      "ob": 618,
      "Name": 619,
      "app": 620,
      "Ġall": 621,
      "ory": 622,
      "ition": 623,
      "ance": 624,
      "ear": 625,
      "vent": 626,
      "ia": 627,
      "Ġwill": 628,
      "IN": 629,
      "Ġ</": 630,
      "data": 631,
      "Re": 632,
      "ple": 633,
      "ild": 634,
      "ther": 635,
      "Ġyour": 636,
      "($": 637,
      "Ġout": 638,
      "),": 639,
      "Ġhas": 640,
      "String": 641,
      "so": 642,
      "Ġup": 643,
      "ax": 644,
      "ge": 645,
      "ON": 646,
      "per": 647,
      "ich": 648,
      "Ġbut": 649,
      "Ġ_": 650,
      "_m": 651,
      "add": 652,
      "self": 653,
      "ery": 654,
      "ft": 655,
      "ens": 656,
      "ake": 657,
      ".C": 658,
      "Ġgo": 659,
      "Ġfunction": 660,
      "ĠK": 661,
      "Ġim": 662,
      "Ġconst": 663,
      ".t": 664,
      "Ġvoid": 665,
      "Ġset": 666,
      "ĠSystem": 667,
      "li": 668,
      ".m": 669,
      "ally": 670,
      "set": 671,
      "ep": 672,
      "âĢĻs": 673,
      "bo": 674,
      "Ġme": 675,
      "Ġ!": 676,
      "atch": 677,
      "\">": 678,
      "ec": 679,
      "ĠIn": 680,
      "ph": 681,
      "Ġ|": 682,
      "Ġvar": 683,
      "ence": 684,
      "Id": 685,
      "ree": 686,
      "ink": 687,
      "lect": 688,
      "ug": 689,
      "eth": 690,
      "Ġelse": 691,
      "----------------": 692,
      "Ġso": 693,
      "atic": 694,
      "pro": 695,
      "ton": 696,
      "ss": 697,
      "own": 698,
      "abel": 699,
      "oint": 700,
      "ous": 701,
      "ST": 702,
      "The": 703,
      "RE": 704,
      "\":": 705,
      "eg": 706,
      "key": 707,
      "ude": 708,
      "ĠSt": 709,
      "ound": 710,
      "Ġar": 711,
      "ener": 712,
      "ser": 713,
      "fer": 714,
      "Ġmore": 715,
      "ations": 716,
      "ents": 717,
      "Ġhis": 718,
      "Ġthey": 719,
      ".S": 720,
      "ĠY": 721,
      "use": 722,
      "ne": 723,
      "ish": 724,
      "old": 725,
      "io": 726,
      "Ġper": 727,
      "ings": 728,
      "Ġdata": 729,
      "Ġsa": 730,
      "ef": 731,
      "fo": 732,
      "Ġone": 733,
      "eng": 734,
      "Ġdis": 735,
      "AT": 736,
      "Ġname": 737,
      "Ġtrue": 738,
      "val": 739,
      "led": 740,
      ".f": 741,
      "Ġne": 742,
      "Ġend": 743,
      ".T": 744,
      "cre": 745,
      "ark": 746,
      "log": 747,
      "Ex": 748,
      "_id": 749,
      "ange": 750,
      "Ġnull": 751,
      "Ġmy": 752,
      "pan": 753,
      "ict": 754,
      "ator": 755,
      "View": 756,
      "List": 757,
      "âĢĿ": 758,
      "Ġpre": 759,
      "Ġx": 760,
      "arg": 761,
      "ov": 762,
      ".h": 763,
      "Ġ>": 764,
      "Ġtheir": 765,
      "')": 766,
      "ick": 767,
      "gh": 768,
      "LE": 769,
      "OR": 770,
      "Ġprivate": 771,
      "user": 772,
      "Ġ)": 773,
      "com": 774,
      ".A": 775,
      "Ġid": 776,
      "read": 777,
      "Ġwho": 778,
      "_b": 779,
      "Ġtime": 780,
      "Ġman": 781,
      "ry": 782,
      "rop": 783,
      "public": 784,
      "vel": 785,
      "ble": 786,
      "Ġwhich": 787,
      "Ġany": 788,
      "Ġfalse": 789,
      "we": 790,
      "Ġvalue": 791,
      "\")": 792,
      "nder": 793,
      "gr": 794,
      "Ġno": 795,
      ".com": 796,
      "Ġapp": 797,
      "ions": 798,
      ".D": 799,
      "ĠCh": 800,
      "Ġabout": 801,
      "Ġadd": 802,
      "Ġsu": 803,
      "Ġstring": 804,
      "ID": 805,
      "Ġover": 806,
      ".l": 807,
      "_C": 808,
      "Ġqu": 809,
      "ĠString": 810,
      "ca": 811,
      "SE": 812,
      "sh": 813,
      "ual": 814,
      "Type": 815,
      "son": 816,
      "new": 817,
      "ern": 818,
      "AR": 819,
      "].": 820,
      "Ġ?": 821,
      "ical": 822,
      "Ġdes": 823,
      "uth": 824,
      "ix": 825,
      "ays": 826,
      "Ġtype": 827,
      "'t": 828,
      "ault": 829,
      "Ġinter": 830,
      "var": 831,
      ".b": 832,
      "Ġpart": 833,
      ".d": 834,
      "IT": 835,
      "EN": 836,
      "enc": 837,
      "(f": 838,
      "ra": 839,
      "cho": 840,
      "ose": 841,
      "ater": 842,
      "Ã©": 843,
      "oll": 844,
      "pos": 845,
      "ng": 846,
      "AL": 847,
      "ames": 848,
      "ates": 849,
      "ely": 850,
      "Ġwork": 851,
      "Ġem": 852,
      "inal": 853,
      "Ġsp": 854,
      "Ġwhen": 855,
      "to": 856,
      "ash": 857,
      "[i": 858,
      "Ġuse": 859,
      ".F": 860,
      "Ġad": 861,
      "ove": 862,
      "ader": 863,
      "atus": 864,
      "Th": 865,
      "rit": 866,
      "Ġoff": 867,
      "Ġother": 868,
      "ms": 869,
      "Ġbeen": 870,
      "ml": 871,
      "co": 872,
      "nc": 873,
      "Ġ%": 874,
      "ann": 875,
      "ade": 876,
      "lock": 877,
      "++": 878,
      "date": 879,
      "Ġhad": 880,
      "ĠRe": 881,
      "Ġwere": 882,
      "Ġfile": 883,
      "Ġwould": 884,
      "ĠâĢľ": 885,
      "ven": 886,
      "iss": 887,
      "Ġour": 888,
      "class": 889,
      "raw": 890,
      "Ġyear": 891,
      "Data": 892,
      "Ġsome": 893,
      "ys": 894,
      "view": 895,
      "Ġthere": 896,
      "Ġsaid": 897,
      "du": 898,
      "of": 899,
      "line": 900,
      "Ġher": 901,
      "Res": 902,
      "Ġco": 903,
      "ise": 904,
      "min": 905,
      ".P": 906,
      "ute": 907,
      "Int": 908,
      "ask": 909,
      "loc": 910,
      "Ġlike": 911,
      "ody": 912,
      "Ġlet": 913,
      "Ġam": 914,
      "rol": 915,
      "yp": 916,
      "Ġalso": 917,
      "ĠIt": 918,
      "url": 919,
      "ific": 920,
      "ors": 921,
      "igh": 922,
      "Ġthan": 923,
      "Com": 924,
      "AN": 925,
      "UL": 926,
      "ating": 927,
      "ĠThis": 928,
      "ref": 929,
      "_S": 930,
      "Ġstatic": 931,
      "Ġjust": 932,
      "Ġresult": 933,
      "ian": 934,
      "Ġthem": 935,
      "der": 936,
      "reak": 937,
      "Con": 938,
      "://": 939,
      "ule": 940,
      "...": 941,
      "arch": 942,
      "Ġ<<": 943,
      "ush": 944,
      "ense": 945,
      "arr": 946,
      "Ġinto": 947,
      "amp": 948,
      "ied": 949,
      "Ġ\\": 950,
      "],": 951,
      "wo": 952,
      "als": 953,
      "Ġwhat": 954,
      "anc": 955,
      "Value": 956,
      "='": 957,
      "ages": 958,
      "ayer": 959,
      "Ġsc": 960,
      "ues": 961,
      "_T": 962,
      "Ġlist": 963,
      "(s": 964,
      "Ġcase": 965,
      "Ch": 966,
      "Ġz": 967,
      "let": 968,
      "DE": 969,
      "red": 970,
      "Ġ,": 971,
      "(t": 972,
      "Ġfirst": 973,
      "Ġimport": 974,
      "Ġact": 975,
      "CT": 976,
      "ĠTr": 977,
      "ient": 978,
      "cent": 979,
      ".j": 980,
      "Ġonly": 981,
      "Ġprint": 982,
      "mer": 983,
      ".W": 984,
      "ock": 985,
      "Ġ--": 986,
      "Text": 987,
      "Ġop": 988,
      "ank": 989,
      "Ġits": 990,
      "Ġback": 991,
      "Ġneed": 992,
      "Ġcl": 993,
      "Ġsub": 994,
      "Ġla": 995,
      "((": 996,
      ".\"": 997,
      "Object": 998,
      "Ġstart": 999,
      "file": 1000,
      "ner": 1001,
      "ey": 1002,
      "Ġuser": 1003,
      "ĠCom": 1004,
      "its": 1005,
      "ĠCon": 1006,
      "ower": 1007,
      "item": 1008,
      "very": 1009,
      "ĠWe": 1010,
      "ĠQ": 1011,
      "php": 1012,
      "ics": 1013,
      "Ġunder": 1014,
      ".L": 1015,
      ");": 1016,
      "SS": 1017,
      "Ġthen": 1018,
      "reat": 1019,
      "ious": 1020,
      ".G": 1021,
      "ek": 1022,
      "irect": 1023,
      "cript": 1024,
      "ning": 1025,
      "ĠUn": 1026,
      "Ġmay": 1027,
      "ĠWh": 1028,
      "Bo": 1029,
      "Item": 1030,
      ".st": 1031,
      "ream": 1032,
      "ible": 1033,
      "und": 1034,
      "sum": 1035,
      "_M": 1036,
      "Ġhow": 1037,
      "To": 1038,
      "Ġpeople": 1039,
      "index": 1040,
      ".n": 1041,
      "http": 1042,
      "(m": 1043,
      "ĠHe": 1044,
      "ful": 1045,
      "ole": 1046,
      "Ġshould": 1047,
      "ier": 1048,
      "_name": 1049,
      "erson": 1050,
      "ION": 1051,
      "ote": 1052,
      "Ġtest": 1053,
      "Ġbet": 1054,
      "ular": 1055,
      "ãĢ": 1056,
      "bs": 1057,
      "ting": 1058,
      "Ġmake": 1059,
      "Tr": 1060,
      "Ġafter": 1061,
      "RO": 1062,
      "rc": 1063,
      "Ġright": 1064,
      "right": 1065,
      "day": 1066,
      "Ġlong": 1067,
      "(p": 1068,
      "td": 1069,
      "ĠPro": 1070,
      "vid": 1071,
      ".g": 1072,
      "pace": 1073,
      "mp": 1074,
      "Ġmin": 1075,
      "air": 1076,
      "action": 1077,
      "wh": 1078,
      "type": 1079,
      "ait": 1080,
      "IC": 1081,
      "text": 1082,
      "Ġph": 1083,
      "Ġfl": 1084,
      ".M": 1085,
      "br": 1086,
      ".re": 1087,
      "ins": 1088,
      "-s": 1089,
      "ĠInt": 1090,
      ",\"": 1091,
      "Pro": 1092,
      "(c": 1093,
      "Ġshe": 1094,
      "\"]": 1095,
      "aph": 1096,
      "erty": 1097,
      "ĠSe": 1098,
      "Ġpar": 1099,
      "ET": 1100,
      "Ġread": 1101,
      "print": 1102,
      "Ġform": 1103,
      "By": 1104,
      "ities": 1105,
      "uff": 1106,
      "play": 1107,
      "ĠâĢĵ": 1108,
      "Ġwant": 1109,
      "Ġ||": 1110,
      "az": 1111,
      "be": 1112,
      "Ġnumber": 1113,
      "ĠEx": 1114,
      "Ġkey": 1115,
      "Ġtwo": 1116,
      "Ġsize": 1117,
      "Ġwhere": 1118,
      "UT": 1119,
      "orld": 1120,
      "ood": 1121,
      "uch": 1122,
      "ative": 1123,
      "ger": 1124,
      "Ġwhile": 1125,
      "_F": 1126,
      "Ġlook": 1127,
      "AM": 1128,
      "ility": 1129,
      "eter": 1130,
      "âĢĻt": 1131,
      "ĊĊĊ": 1132,
      "--------------------------------": 1133,
      "ager": 1134,
      "Ġcould": 1135,
      "ures": 1136,
      "Ġknow": 1137,
      "ets": 1138,
      "ĠIf": 1139,
      "ĠSh": 1140,
      ".w": 1141,
      "back": 1142,
      "Ġhand": 1143,
      "Ind": 1144,
      "ULL": 1145,
      "Im": 1146,
      "Ġmost": 1147,
      "Ġtry": 1148,
      "Ġnow": 1149,
      "Ġhim": 1150,
      "ify": 1151,
      "Ġbreak": 1152,
      "ren": 1153,
      "itt": 1154,
      "(n": 1155,
      "ĠYou": 1156,
      "-m": 1157,
      "Ġevery": 1158,
      "-b": 1159,
      "][": 1160,
      "Ġpoint": 1161,
      "Time": 1162,
      "Ġmod": 1163,
      "Ġ->": 1164,
      "Ġerror": 1165,
      "ah": 1166,
      "Ġtext": 1167,
      "Ġshow": 1168,
      "User": 1169,
      "Ġfind": 1170,
      "ED": 1171,
      "span": 1172,
      "enu": 1173,
      "Ġcurrent": 1174,
      "Ġused": 1175,
      "Ġplay": 1176,
      "Ġlog": 1177,
      "fl": 1178,
      "Ġsee": 1179,
      "Ġhelp": 1180,
      "Ġthese": 1181,
      "Ġpass": 1182,
      "Ġdown": 1183,
      "Ġeven": 1184,
      "ason": 1185,
      "from": 1186,
      "(d": 1187,
      "Ġbl": 1188,
      "ized": 1189,
      "Ġitem": 1190,
      "ump": 1191,
      "UR": 1192,
      "orn": 1193,
      "Ġdon": 1194,
      "Se": 1195,
      "man": 1196,
      "tn": 1197,
      "================": 1198,
      "He": 1199,
      "Ġdid": 1200,
      "iver": 1201,
      "Ġsm": 1202,
      "Ġthrough": 1203,
      "ĠAn": 1204,
      "che": 1205,
      "ouse": 1206,
      "Ġes": 1207,
      "ĠNew": 1208,
      "uto": 1209,
      "ler": 1210,
      "Ġlast": 1211,
      "Ġevent": 1212,
      "ï¼": 1213,
      "ily": 1214,
      "ines": 1215,
      "(int": 1216,
      "Ġagain": 1217,
      "Ġhigh": 1218,
      "html": 1219,
      "Ġline": 1220,
      "Event": 1221,
      "_D": 1222,
      "Ġdoes": 1223,
      "ars": 1224,
      "Ġ`": 1225,
      "_A": 1226,
      "ature": 1227,
      "ES": 1228,
      "ister": 1229,
      "Ġbefore": 1230,
      "ale": 1231,
      "Ġbecause": 1232,
      "roid": 1233,
      "Ġed": 1234,
      "ik": 1235,
      "reg": 1236,
      "ĠDe": 1237,
      "Ġstate": 1238,
      "att": 1239,
      "Ġhere": 1240,
      "Ġfinal": 1241,
      "Ġ\"\"": 1242,
      "Key": 1243,
      "LO": 1244,
      "Ġdel": 1245,
      "ĠAnd": 1246,
      "Ġrun": 1247,
      "ĠX": 1248,
      "ym": 1249,
      ".app": 1250,
      "Ġvery": 1251,
      "ward": 1252,
      "list": 1253,
      "ited": 1254,
      "itch": 1255,
      "Box": 1256,
      "ife": 1257,
      "Ġac": 1258,
      "Ġmodel": 1259,
      "Ġmon": 1260,
      "Ġway": 1261,
      "Ġcall": 1262,
      "oun": 1263,
      "fr": 1264,
      "aj": 1265,
      "query": 1266,
      "Ġwell": 1267,
      "Ġobject": 1268,
      "ĠAs": 1269,
      "Ġyears": 1270,
      "Color": 1271,
      "IS": 1272,
      "Ġdefault": 1273,
      "Wh": 1274,
      "aint": 1275,
      "Ġjava": 1276,
      "ĠAr": 1277,
      "mon": 1278,
      "):": 1279,
      "Set": 1280,
      "atter": 1281,
      "Ġview": 1282,
      "We": 1283,
      "At": 1284,
      "Ġmany": 1285,
      "Man": 1286,
      "ender": 1287,
      "Ġbeing": 1288,
      "Ġgood": 1289,
      "ational": 1290,
      "ware": 1291,
      ".log": 1292,
      "Ġusing": 1293,
      "ists": 1294,
      "ĠAl": 1295,
      "config": 1296,
      "uring": 1297,
      "time": 1298,
      "Ġrequest": 1299,
      "Ġchild": 1300,
      "ĠÃ": 1301,
      "ps": 1302,
      "alk": 1303,
      "by": 1304,
      "Size": 1305,
      "Ġperson": 1306,
      "En": 1307,
      "File": 1308,
      "uf": 1309,
      "AC": 1310,
      "Ġstyle": 1311,
      "Ġque": 1312,
      "Ġ($": 1313,
      "Model": 1314,
      "ident": 1315,
      "Ġmethod": 1316,
      "IL": 1317,
      "ott": 1318,
      "less": 1319,
      "ING": 1320,
      "Ġ()": 1321,
      "ync": 1322,
      "urs": 1323,
      "./": 1324,
      "pre": 1325,
      "ma": 1326,
      "Ġfound": 1327,
      "Info": 1328,
      "par": 1329,
      "imes": 1330,
      ".e": 1331,
      "ains": 1332,
      "Ġpost": 1333,
      "-d": 1334,
      "Ġsl": 1335,
      "PE": 1336,
      "Ġsuch": 1337,
      "Ġthink": 1338,
      ".r": 1339,
      "FF": 1340,
      "ool": 1341,
      "ĠFor": 1342,
      "Ġmuch": 1343,
      "uc": 1344,
      "Ġhttp": 1345,
      "ĠList": 1346,
      "Ġcount": 1347,
      "mit": 1348,
      "aking": 1349,
      "px": 1350,
      "ãĢĤ": 1351,
      "org": 1352,
      "ider": 1353,
      "ache": 1354,
      "work": 1355,
      "Ġcheck": 1356,
      "the": 1357,
      "ants": 1358,
      "><": 1359,
      ".B": 1360,
      "-c": 1361,
      "Ġopen": 1362,
      "Ġest": 1363,
      "Ġnext": 1364,
      "IM": 1365,
      "OT": 1366,
      "Ġfollow": 1367,
      "content": 1368,
      "HE": 1369,
      "ĠRes": 1370,
      "Ġhref": 1371,
      "Ġcar": 1372,
      "image": 1373,
      "Un": 1374,
      "AD": 1375,
      "Ġgame": 1376,
      "Ġpath": 1377,
      "ision": 1378,
      "Ġeach": 1379,
      "ĠPl": 1380,
      "Path": 1381,
      "Ġav": 1382,
      "Ġsupport": 1383,
      "ENT": 1384,
      "rem": 1385,
      "Ġown": 1386,
      "ience": 1387,
      "search": 1388,
      "Form": 1389,
      "ename": 1390,
      "Ġsign": 1391,
      "Ġet": 1392,
      "','": 1393,
      "ĠApp": 1394,
      "Ġthose": 1395,
      "off": 1396,
      "Ġsystem": 1397,
      "Ġbest": 1398,
      "code": 1399,
      "Ġsame": 1400,
      "Ġdi": 1401,
      "uss": 1402,
      "Ġcreate": 1403,
      "ather": 1404,
      ".in": 1405,
      "fe": 1406,
      "Service": 1407,
      "UN": 1408,
      "ats": 1409,
      "ĠZ": 1410,
      "Ġmade": 1411,
      "true": 1412,
      "AB": 1413,
      "rid": 1414,
      "ified": 1415,
      "yn": 1416,
      "press": 1417,
      "Ġgroup": 1418,
      "ĠLicense": 1419,
      "Ġworld": 1420,
      "ty": 1421,
      "Ġprocess": 1422,
      "(b": 1423,
      "arn": 1424,
      "ives": 1425,
      "Ġmain": 1426,
      "AG": 1427,
      "img": 1428,
      "PI": 1429,
      "Ġcolor": 1430,
      "Ġreport": 1431,
      "Ġtake": 1432,
      "OM": 1433,
      "Ġday": 1434,
      "Ġsk": 1435,
      "oot": 1436,
      "Image": 1437,
      "Ġtop": 1438,
      "Ġfree": 1439,
      "AS": 1440,
      "De": 1441,
      "ĠOn": 1442,
      "IG": 1443,
      "eta": 1444,
      "Date": 1445,
      "Ġaction": 1446,
      "Over": 1447,
      "itor": 1448,
      "not": 1449,
      "Ġindex": 1450,
      "her": 1451,
      "icon": 1452,
      "On": 1453,
      "ivity": 1454,
      "OL": 1455,
      "Ġreal": 1456,
      "Ġmax": 1457,
      "land": 1458,
      "....": 1459,
      "Ġbuild": 1460,
      "leg": 1461,
      "âĢ¦": 1462,
      "ook": 1463,
      "uck": 1464,
      "Ġmessage": 1465,
      "test": 1466,
      "Ġinput": 1467,
      "Ġart": 1468,
      "Ġbetween": 1469,
      "Get": 1470,
      "enter": 1471,
      "ene": 1472,
      "Ã¡": 1473,
      "(i": 1474,
      "Class": 1475,
      "for": 1476,
      "ĠâĢĶ": 1477,
      "ten": 1478,
      "oin": 1479,
      "ui": 1480,
      "ĠIN": 1481,
      "Ġtable": 1482,
      "sub": 1483,
      "ĠLe": 1484,
      "Ġhead": 1485,
      "Ġmust": 1486,
      "Ġorder": 1487,
      "over": 1488,
      "Ġsay": 1489,
      "head": 1490,
      "Ġproduct": 1491,
      "This": 1492,
      ".âĢĿ": 1493,
      "ĠBut": 1494,
      "Ġdouble": 1495,
      "sg": 1496,
      "Ġplace": 1497,
      ".x": 1498,
      "Ġinformation": 1499,
      "db": 1500,
      "Ġweek": 1501,
      "table": 1502,
      "place": 1503,
      "ĠAll": 1504,
      "els": 1505,
      "box": 1506,
      ".R": 1507,
      "ĠTo": 1508,
      "iter": 1509,
      "Sh": 1510,
      "Ġsw": 1511,
      "ization": 1512,
      "bl": 1513,
      "Ġprogram": 1514,
      "(e": 1515,
      "ape": 1516,
      "check": 1517,
      "Ġund": 1518,
      "Ġresponse": 1519,
      "US": 1520,
      "Ġcode": 1521,
      "_H": 1522,
      "Ġwithout": 1523,
      "Manager": 1524,
      "PO": 1525,
      "akes": 1526,
      "Message": 1527,
      "ever": 1528,
      "ĠSo": 1529,
      "Ġstill": 1530,
      "med": 1531,
      "Ġcap": 1532,
      "usiness": 1533,
      ".N": 1534,
      "api": 1535,
      "OD": 1536,
      "Ġfield": 1537,
      "oto": 1538,
      "âĢľ": 1539,
      "col": 1540,
      "(x": 1541,
      "Code": 1542,
      "link": 1543,
      "An": 1544,
      "Ġteam": 1545,
      "ift": 1546,
      "Ġsecond": 1547,
      "Ġgoing": 1548,
      "Ġrange": 1549,
      "ness": 1550,
      "Ġfact": 1551,
      "ĠAN": 1552,
      "Al": 1553,
      "Ġandroid": 1554,
      "CE": 1555,
      "irt": 1556,
      "ond": 1557,
      "Ġhome": 1558,
      "Ġleft": 1559,
      "Ġdirect": 1560,
      "Pl": 1561,
      "As": 1562,
      "ret": 1563,
      "ado": 1564,
      "Of": 1565,
      "chn": 1566,
      "ĠGet": 1567,
      "ee": 1568,
      "ross": 1569,
      "();": 1570,
      "____": 1571,
      "It": 1572,
      "chool": 1573,
      "www": 1574,
      "},": 1575,
      "Ġallow": 1576,
      "size": 1577,
      "ism": 1578,
      "ai": 1579,
      "ane": 1580,
      "CH": 1581,
      "Ġpage": 1582,
      "hip": 1583,
      "no": 1584,
      "core": 1585,
      "sp": 1586,
      "Ġdifferent": 1587,
      "ĠMe": 1588,
      "ĠIs": 1589,
      "Ġaround": 1590,
      "App": 1591,
      "Ġreally": 1592,
      "Ġimage": 1593,
      "Ġtarget": 1594,
      "tra": 1595,
      "ingle": 1596,
      "ital": 1597,
      "Ġboth": 1598,
      "arm": 1599,
      "=>": 1600,
      "Ġput": 1601,
      "Qu": 1602,
      "ung": 1603,
      "map": 1604,
      "Ġlevel": 1605,
      "book": 1606,
      "Ġconfig": 1607,
      "Or": 1608,
      "Ġdocument": 1609,
      "ux": 1610,
      "Log": 1611,
      "post": 1612,
      "Ġlocal": 1613,
      "Val": 1614,
      "ina": 1615,
      "Add": 1616,
      "Ġcontent": 1617,
      "ric": 1618,
      "-f": 1619,
      ".ex": 1620,
      "Ġfloat": 1621,
      "Ġdevelop": 1622,
      "Map": 1623,
      "ading": 1624,
      "UE": 1625,
      ">(": 1626,
      "Ġtoo": 1627,
      "Ġgreat": 1628,
      "inter": 1629,
      "cale": 1630,
      "ron": 1631,
      "iving": 1632,
      "Ent": 1633,
      "ency": 1634,
      "xt": 1635,
      "oy": 1636,
      "Ġmonth": 1637,
      "Ġsuper": 1638,
      "bar": 1639,
      "ĠInd": 1640,
      "Ġtitle": 1641,
      "Ġcontext": 1642,
      "oh": 1643,
      "-p": 1644,
      "Em": 1645,
      "Ġmet": 1646,
      "Test": 1647,
      "Ġlife": 1648,
      "ĠUS": 1649,
      "UI": 1650,
      "md": 1651,
      "Ġ]": 1652,
      "sw": 1653,
      "script": 1654,
      ".de": 1655,
      "Ġsrc": 1656,
      "Ġpay": 1657,
      "âĢĶ": 1658,
      ".php": 1659,
      "Ġchange": 1660,
      "'re": 1661,
      "aster": 1662,
      "los": 1663,
      "Le": 1664,
      "ĠNo": 1665,
      "Ġposition": 1666,
      "Ġold": 1667,
      "Ġbook": 1668,
      "bug": 1669,
      "Ġversion": 1670,
      "System": 1671,
      "Style": 1672,
      "Up": 1673,
      "Ġthree": 1674,
      "init": 1675,
      "ero": 1676,
      "Ġlaw": 1677,
      "Ġbase": 1678,
      "email": 1679,
      "(l": 1680,
      "_V": 1681,
      "ATE": 1682,
      "Ġduring": 1683,
      "Ġconsole": 1684,
      "ĠPr": 1685,
      "ves": 1686,
      "path": 1687,
      "ards": 1688,
      "Ġagainst": 1689,
      "ĠPh": 1690,
      "With": 1691,
      "Ġpower": 1692,
      "ium": 1693,
      "ĠIm": 1694,
      "ĠMan": 1695,
      "orth": 1696,
      "ese": 1697,
      "-g": 1698,
      "ique": 1699,
      "Ġwidth": 1700,
      "erg": 1701,
      ")(": 1702,
      "TR": 1703,
      "ĠThey": 1704,
      "rl": 1705,
      "ons": 1706,
      "Ġlabel": 1707,
      ".y": 1708,
      "-t": 1709,
      "sc": 1710,
      "Ġproject": 1711,
      "Ġelement": 1712,
      "Ġsuccess": 1713,
      ".sh": 1714,
      "ram": 1715,
      "Ġdate": 1716,
      "All": 1717,
      "ification": 1718,
      "my": 1719,
      "Ġbig": 1720,
      "ĠAd": 1721,
      "ĠAt": 1722,
      "ots": 1723,
      "num": 1724,
      "Ġmap": 1725,
      "era": 1726,
      "cope": 1727,
      ",âĢĿ": 1728,
      "Ġpop": 1729,
      "Ġfew": 1730,
      "uid": 1731,
      "ÃŃ": 1732,
      "source": 1733,
      "https": 1734,
      "ories": 1735,
      "ĠCl": 1736,
      "Ġnode": 1737,
      "irc": 1738,
      "Ġanother": 1739,
      "<<": 1740,
      "Ġsit": 1741,
      "TE": 1742,
      ".I": 1743,
      "NS": 1744,
      "ology": 1745,
      ">>": 1746,
      "Ġcare": 1747,
      "Ġeffect": 1748,
      "Line": 1749,
      "For": 1750,
      "ior": 1751,
      "ĠSc": 1752,
      "Ġfun": 1753,
      "])": 1754,
      "start": 1755,
      "ours": 1756,
      "Ġservice": 1757,
      "Ġsince": 1758,
      "iron": 1759,
      "Ġnon": 1760,
      "iction": 1761,
      "Ġfull": 1762,
      "board": 1763,
      "Ġturn": 1764,
      "Ġbody": 1765,
      "pi": 1766,
      "Ġsomething": 1767,
      "Ġstand": 1768,
      "Ġavailable": 1769,
      "mt": 1770,
      "ĠBl": 1771,
      "Ġ...": 1772,
      "Ġblock": 1773,
      "Ġkeep": 1774,
      "open": 1775,
      "Ġthings": 1776,
      "Ġurl": 1777,
      "ĠBo": 1778,
      "Ġred": 1779,
      "js": 1780,
      "ĠOr": 1781,
      "Ġcontrol": 1782,
      "Ġcome": 1783,
      "Ġsource": 1784,
      "oney": 1785,
      "AP": 1786,
      "HT": 1787,
      "Ġask": 1788,
      "Ġoutput": 1789,
      "Ġemail": 1790,
      "ination": 1791,
      "Table": 1792,
      "([": 1793,
      "Ġbusiness": 1794,
      ".html": 1795,
      "ta": 1796,
      "field": 1797,
      "Ġrequired": 1798,
      "lex": 1799,
      ".,": 1800,
      "ĠSet": 1801,
      "///": 1802,
      "ts": 1803,
      "af": 1804,
      "Ġmight": 1805,
      "istory": 1806,
      "Str": 1807,
      "Ġnever": 1808,
      "ada": 1809,
      "ĠHow": 1810,
      "Ġ;": 1811,
      "Ġhard": 1812,
      "Ad": 1813,
      "mod": 1814,
      "Ġcalled": 1815,
      "body": 1816,
      "(r": 1817,
      "ird": 1818,
      "Ġoptions": 1819,
      "Ġheight": 1820,
      "Point": 1821,
      "You": 1822,
      "ety": 1823,
      "Click": 1824,
      "Ġsmall": 1825,
      "Ġaccess": 1826,
      "Ġprotected": 1827,
      "Ġjob": 1828,
      "ĠThere": 1829,
      "Ġaddress": 1830,
      "Not": 1831,
      "oo": 1832,
      "aps": 1833,
      "-w": 1834,
      "ĠDate": 1835,
      "Ġlittle": 1836,
      "Ġport": 1837,
      "eh": 1838,
      "Ġstatus": 1839,
      "aim": 1840,
      "Ġos": 1841,
      "ension": 1842,
      "Ġupdate": 1843,
      "Config": 1844,
      "aff": 1845,
      "ERR": 1846,
      "uction": 1847,
      "ĠTe": 1848,
      "Ġlink": 1849,
      "ĠUser": 1850,
      ".org": 1851,
      "me": 1852,
      "Ġgiven": 1853,
      "Out": 1854,
      "Ġbetter": 1855,
      "Page": 1856,
      "Ġfeel": 1857,
      "enn": 1858,
      "ML": 1859,
      "Ġalready": 1860,
      "Ġincluding": 1861,
      "oogle": 1862,
      "ru": 1863,
      "lean": 1864,
      "Ġalways": 1865,
      "If": 1866,
      "vis": 1867,
      "Ġgot": 1868,
      "Ġless": 1869,
      "/s": 1870,
      "apt": 1871,
      "ĠAdd": 1872,
      "Ġaccount": 1873,
      "Ġder": 1874,
      "Ġlot": 1875,
      "Ġvalid": 1876,
      "Ġbit": 1877,
      "Ġfollowing": 1878,
      "SON": 1879,
      "Ġsure": 1880,
      "ocial": 1881,
      "Ġsearch": 1882,
      "Ġer": 1883,
      "Ed": 1884,
      "EM": 1885,
      "aut": 1886,
      "ling": 1887,
      "ality": 1888,
      "bed": 1889,
      "ĠOR": 1890,
      "Ġsays": 1891,
      "AME": 1892,
      "Ġrest": 1893,
      "info": 1894,
      "Ġinterest": 1895,
      "ĠView": 1896,
      "Ġver": 1897,
      "lib": 1898,
      "Ġdie": 1899,
      "Ġsite": 1900,
      "EL": 1901,
      "Ġvalues": 1902,
      "pen": 1903,
      "No": 1904,
      "icro": 1905,
      "acy": 1906,
      "rec": 1907,
      "Content": 1908,
      "Ġwon": 1909,
      "Ġvideo": 1910,
      "adi": 1911,
      "point": 1912,
      "Ġgl": 1913,
      "IF": 1914,
      "'m": 1915,
      "Ġcell": 1916,
      "ari": 1917,
      "Ġplayer": 1918,
      "ais": 1919,
      "Ġcost": 1920,
      "(R": 1921,
      "ks": 1922,
      "Ġtotal": 1923,
      "ope": 1924,
      "UM": 1925,
      "ights": 1926,
      "Ġclear": 1927,
      "uro": 1928,
      "IR": 1929,
      "Ġq": 1930,
      "Ġshort": 1931,
      "ĠNot": 1932,
      "ipp": 1933,
      "Group": 1934,
      "max": 1935,
      "Ġcompany": 1936,
      "Ġdone": 1937,
      "rist": 1938,
      "Ġhealth": 1939,
      "ANT": 1940,
      "ĠBe": 1941,
      "ĠGr": 1942,
      "PT": 1943,
      "-h": 1944,
      "ĠLog": 1945,
      "inc": 1946,
      "Ġchildren": 1947,
      "IZ": 1948,
      "Ġdays": 1949,
      "-l": 1950,
      "omb": 1951,
      ".js": 1952,
      "Ġâ": 1953,
      "Query": 1954,
      "Ġonline": 1955,
      "imal": 1956,
      "au": 1957,
      "ĠFr": 1958,
      "where": 1959,
      "Ġreason": 1960,
      "ĠMar": 1961,
      "(a": 1962,
      "Ġwithin": 1963,
      "ODE": 1964,
      "admin": 1965,
      "Ġdesign": 1966,
      "ĠData": 1967,
      "une": 1968,
      "ĠFile": 1969,
      "root": 1970,
      "len": 1971,
      "page": 1972,
      ",'": 1973,
      "ability": 1974,
      "outh": 1975,
      "/c": 1976,
      "irtual": 1977,
      "Ġschool": 1978,
      "ava": 1979,
      "web": 1980,
      "opt": 1981,
      "ulation": 1982,
      "PL": 1983,
      "ĠText": 1984,
      "down": 1985,
      "Ġinclude": 1986,
      "ĠEn": 1987,
      "ĠDr": 1988,
      "Ġdb": 1989,
      "!!": 1990,
      "Ġinit": 1991,
      "ĠShe": 1992,
      "Ġstop": 1993,
      "Ġlater": 1994,
      "ĠThat": 1995,
      "df": 1996,
      "UG": 1997,
      "ILE": 1998,
      "Ġclient": 1999,
      "POST": 2000,
      "Ġlove": 2001,
      "oud": 2002,
      "Ġable": 2003,
      "Ġmen": 2004,
      "AX": 2005,
      "ĠCopyright": 2006,
      "Ã¶": 2007,
      "Client": 2008,
      "erc": 2009,
      "ilt": 2010,
      "pecial": 2011,
      "room": 2012,
      "Ġgive": 2013,
      "amb": 2014,
      "ike": 2015,
      "Ġcondition": 2016,
      "ators": 2017,
      "Ġcopy": 2018,
      "{{": 2019,
      "ĠCan": 2020,
      "do": 2021,
      "ze": 2022,
      "ĠFl": 2023,
      "Ġimportant": 2024,
      "Ġlead": 2025,
      "ART": 2026,
      "Ġda": 2027,
      "etch": 2028,
      "Ġfamily": 2029,
      "Ġoption": 2030,
      "ica": 2031,
      "ĠObject": 2032,
      "'ve": 2033,
      "vers": 2034,
      "ĠTrue": 2035,
      "ĠOF": 2036,
      "Ġoffer": 2037,
      "HER": 2038,
      "\"\"": 2039,
      "Ġwater": 2040,
      "ĠMy": 2041,
      "Ġstep": 2042,
      "CK": 2043,
      "AY": 2044,
      "(C": 2045,
      "ouch": 2046,
      "Stream": 2047,
      "active": 2048,
      "ama": 2049,
      "product": 2050,
      "Ġgovernment": 2051,
      "ĠID": 2052,
      "And": 2053,
      "Ġdisplay": 2054,
      "Ġtimes": 2055,
      "Ġfour": 2056,
      "Ġfar": 2057,
      "Ġpresent": 2058,
      "ĠNS": 2059,
      "Ġlib": 2060,
      "Ġroom": 2061,
      "Ġonce": 2062,
      "center": 2063,
      "================================": 2064,
      "Ġresults": 2065,
      "Ġcontinue": 2066,
      "Ġtalk": 2067,
      "eb": 2068,
      "ĠPublic": 2069,
      "OP": 2070,
      "ols": 2071,
      "Ġ**": 2072,
      "ured": 2073,
      "Ġmean": 2074,
      "ips": 2075,
      "Ġuntil": 2076,
      "Ġmarket": 2077,
      "Ġarea": 2078,
      "uit": 2079,
      "Ġlength": 2080,
      "ĠWith": 2081,
      "ĠSp": 2082,
      "IV": 2083,
      "iff": 2084,
      "Ġkind": 2085,
      "mb": 2086,
      "Ġlight": 2087,
      "uk": 2088,
      "alf": 2089,
      "Ġside": 2090,
      "Ġexample": 2091,
      "way": 2092,
      "Ġbased": 2093,
      "Ġplan": 2094,
      "Vis": 2095,
      "unk": 2096,
      "Ġaway": 2097,
      "UP": 2098,
      "OS": 2099,
      "ĠMon": 2100,
      "âĢĻre": 2101,
      ".v": 2102,
      "izer": 2103,
      "Sub": 2104,
      "Ġbutton": 2105,
      "ĠUp": 2106,
      "Ġexperience": 2107,
      "CL": 2108,
      "Ġnear": 2109,
      "URL": 2110,
      "alt": 2111,
      "Ġcountry": 2112,
      "ibility": 2113,
      "Ġauthor": 2114,
      "Ġspecific": 2115,
      "base": 2116,
      "ones": 2117,
      "ĠDo": 2118,
      "Ġalong": 2119,
      "Ġexpress": 2120,
      ".'": 2121,
      "env": 2122,
      "Ġsoftware": 2123,
      "Ġwin": 2124,
      "Ġthing": 2125,
      "Trans": 2126,
      "ĠTHE": 2127,
      "Ġwhy": 2128,
      "Ġdoesn": 2129,
      "ij": 2130,
      "ging": 2131,
      "Ġsingle": 2132,
      "ley": 2133,
      "/m": 2134,
      "ĠReg": 2135,
      "unch": 2136,
      "isk": 2137,
      "Ġrights": 2138,
      "(M": 2139,
      "aper": 2140,
      "ĠWhen": 2141,
      "Ġwomen": 2142,
      "ĠEd": 2143,
      "Ġseason": 2144,
      "(h": 2145,
      "Ġpossible": 2146,
      "Ġdidn": 2147,
      "Ġcommand": 2148,
      "Ġrecent": 2149,
      "olution": 2150,
      "ĠBy": 2151,
      "ĠMay": 2152,
      "ĠAct": 2153,
      "Ġmoney": 2154,
      "INT": 2155,
      "sl": 2156,
      "ĠClass": 2157,
      "Ġtold": 2158,
      "udio": 2159,
      "Ġauto": 2160,
      "ĠState": 2161,
      "da": 2162,
      "Ġworking": 2163,
      "ĠBr": 2164,
      "Ġwindow": 2165,
      "Ġleast": 2166,
      "agn": 2167,
      "aring": 2168,
      "ĠGeneral": 2169,
      "eral": 2170,
      "IB": 2171,
      "EX": 2172,
      "Ġmaking": 2173,
      "ĠCar": 2174,
      "\".": 2175,
      "ĠMed": 2176,
      "Ġclose": 2177,
      "Ġpercent": 2178,
      "Ġpast": 2179,
      "(g": 2180,
      ":(": 2181,
      "Ġwrite": 2182,
      "Ġmove": 2183,
      "Control": 2184,
      "Ġvi": 2185,
      "'ll": 2186,
      "aged": 2187,
      "Ġspecial": 2188,
      "Ġcity": 2189,
      "ĠEng": 2190,
      "inary": 2191,
      "py": 2192,
      "ario": 2193,
      "Ġtell": 2194,
      "Ġselect": 2195,
      "IP": 2196,
      "Ġfont": 2197,
      "ĠAm": 2198,
      "Inter": 2199,
      "OW": 2200,
      "Ġcourse": 2201,
      "Ġlate": 2202,
      "Ġamount": 2203,
      "ino": 2204,
      "Ġì": 2205,
      "ĠCal": 2206,
      "ĠRep": 2207,
      "Ġenough": 2208,
      "(j": 2209,
      "Sc": 2210,
      "now": 2211,
      "Ġlooking": 2212,
      "Ġhold": 2213,
      "ITY": 2214,
      "vo": 2215,
      "ison": 2216,
      "yc": 2217,
      "ĠTrump": 2218,
      "ides": 2219,
      "rt": 2220,
      "Ġproperty": 2221,
      "go": 2222,
      "Ġlow": 2223,
      "Ġprice": 2224,
      "ury": 2225,
      "Ġtoday": 2226,
      "roy": 2227,
      "Ġ''": 2228,
      "Ph": 2229,
      "ĠSte": 2230,
      "ROM": 2231,
      "ana": 2232,
      "Ġmeans": 2233,
      "Ġstory": 2234,
      "ids": 2235,
      "Ġmeet": 2236,
      "ĠâĢĺ": 2237,
      "obile": 2238,
      "na": 2239,
      "ĠForm": 2240,
      "Ġthought": 2241,
      "Ġtask": 2242,
      "ĠDE": 2243,
      "ĠMin": 2244,
      "KE": 2245,
      "ĠTest": 2246,
      "ports": 2247,
      "Ġreview": 2248,
      "Ġswitch": 2249,
      "ERT": 2250,
      "Ġabove": 2251,
      "Ġquestion": 2252,
      "ĠQu": 2253,
      "Ġword": 2254,
      "Ġprovide": 2255,
      "ĠReturn": 2256,
      "Ġresearch": 2257,
      "}}": 2258,
      "ĠCON": 2259,
      "-in": 2260,
      "Ġcover": 2261,
      "\\\\": 2262,
      "color": 2263,
      "ĠIS": 2264,
      "Ġwhether": 2265,
      "isc": 2266,
      "Bar": 2267,
      "Be": 2268,
      "Ġhaving": 2269,
      "lem": 2270,
      "player": 2271,
      "abs": 2272,
      "ney": 2273,
      "ao": 2274,
      "/d": 2275,
      "Ġlarge": 2276,
      "ral": 2277,
      "Ġcreated": 2278,
      "uper": 2279,
      "Ġhost": 2280,
      "/b": 2281,
      "(!": 2282,
      "ias": 2283,
      "Ġrole": 2284,
      "Reg": 2285,
      "ĠColor": 2286,
      "Start": 2287,
      "top": 2288,
      "Ġweb": 2289,
      "Ġdeal": 2290,
      "Ġ(\"": 2291,
      "Ġproblem": 2292,
      "sv": 2293,
      "Ġpress": 2294,
      "ATION": 2295,
      "ĠSee": 2296,
      "anch": 2297,
      "Ġthough": 2298,
      "Ġpoints": 2299,
      ".J": 2300,
      "Ġ::": 2301,
      "DB": 2302,
      ".png": 2303,
      "soft": 2304,
      "Ġever": 2305,
      "----------------------------------------------------------------": 2306,
      "Menu": 2307,
      "Ġservices": 2308,
      "pg": 2309,
      "Ġmillion": 2310,
      "style": 2311,
      "ios": 2312,
      "Pr": 2313,
      "Ġunderstand": 2314,
      "Ġserver": 2315,
      "ĠCo": 2316,
      "SC": 2317,
      "Ġles": 2318,
      "Ġfiles": 2319,
      "Ġoften": 2320,
      "Ġinfo": 2321,
      "ony": 2322,
      "Ġspace": 2323,
      "umb": 2324,
      "Ġpassword": 2325,
      "Ġstore": 2326,
      "ĠWhat": 2327,
      "ged": 2328,
      "Us": 2329,
      "Ġformat": 2330,
      "sm": 2331,
      "New": 2332,
      "Ġdetails": 2333,
      "ĠAND": 2334,
      "ĠFree": 2335,
      "Ġ>>": 2336,
      "Ġface": 2337,
      "Ġsave": 2338,
      "dev": 2339,
      "AGE": 2340,
      "edit": 2341,
      "QL": 2342,
      "Ġitems": 2343,
      "Ġsocial": 2344,
      "ien": 2345,
      "ĠReact": 2346,
      "ĠRE": 2347,
      "Ġmajor": 2348,
      "Cell": 2349,
      "Ġyet": 2350,
      "Ġfood": 2351,
      "Source": 2352,
      "ites": 2353,
      "dr": 2354,
      "Ġmembers": 2355,
      "ĠPer": 2356,
      "TH": 2357,
      "Ġbar": 2358,
      "(w": 2359,
      "Ġsend": 2360,
      "FA": 2361,
      "ros": 2362,
      "fa": 2363,
      "Ġconnection": 2364,
      "Ġbecome": 2365,
      "ĠUnited": 2366,
      "Ġmakes": 2367,
      "Ġglobal": 2368,
      "Ġcontact": 2369,
      "ĠPol": 2370,
      "Child": 2371,
      "Ġcertain": 2372,
      "OUT": 2373,
      "iles": 2374,
      "ĠPart": 2375,
      "oss": 2376,
      "ĠEvent": 2377,
      "ster": 2378,
      "Ġcharacter": 2379,
      "Ġnews": 2380,
      "Ġdevice": 2381,
      "cel": 2382,
      "ĠAb": 2383,
      "ocal": 2384,
      "Ġmaterial": 2385,
      "Ġbelow": 2386,
      "ĠChrist": 2387,
      "Ġmedia": 2388,
      "cover": 2389,
      "ĠUI": 2390,
      "Ġfail": 2391,
      "Ġblack": 2392,
      "Ġcomponent": 2393,
      "ĠAmerican": 2394,
      "Ġadded": 2395,
      "Ġbuy": 2396,
      "Ġcame": 2397,
      "Ġdelete": 2398,
      "Ġcard": 2399,
      "Ġhttps": 2400,
      "Ġroot": 2401,
      "CC": 2402,
      "Back": 2403,
      "Ġgetting": 2404,
      "mail": 2405,
      "ĠDec": 2406,
      "Ġclaim": 2407,
      "ĠSub": 2408,
      "Ġair": 2409,
      "ops": 2410,
      "Ġenter": 2411,
      "anged": 2412,
      "End": 2413,
      "Ġlocation": 2414,
      "Ġnight": 2415,
      "Ġdoing": 2416,
      "ĠRed": 2417,
      "lin": 2418,
      "Ġwatch": 2419,
      "Ġhuman": 2420,
      "Ġtax": 2421,
      "Ġbox": 2422,
      "Ġstrong": 2423,
      "(v": 2424,
      "rel": 2425,
      "Ġinterface": 2426,
      "Ġhouse": 2427,
      "Ġtrack": 2428,
      "je": 2429,
      "ĠJohn": 2430,
      "(S": 2431,
      "ube": 2432,
      "VER": 2433,
      "*)": 2434,
      "Ġapplication": 2435,
      "any": 2436,
      "Ġsection": 2437,
      "ĠOne": 2438,
      "aid": 2439,
      "byte": 2440,
      "ĠÃł": 2441,
      "Ġtogether": 2442,
      "FO": 2443,
      "host": 2444,
      "Ġterms": 2445,
      "-r": 2446,
      "Ġapply": 2447,
      "Ġsession": 2448,
      "Ġothers": 2449,
      "GET": 2450,
      "Ġseveral": 2451,
      "ii": 2452,
      "IO": 2453,
      "Ġil": 2454,
      "main": 2455,
      "elt": 2456,
      "Rec": 2457,
      "mm": 2458,
      "ĠUniversity": 2459,
      "GL": 2460,
      "cast": 2461,
      "From": 2462,
      "ales": 2463,
      "Ġsubject": 2464,
      "ny": 2465,
      "ï¼Į": 2466,
      "What": 2467,
      ".H": 2468,
      "Ġhistory": 2469,
      "ĠFe": 2470,
      "Ġindividual": 2471,
      "Ġ-->": 2472,
      "Ġdu": 2473,
      "IST": 2474,
      "Ġusers": 2475,
      "fs": 2476,
      "false": 2477,
      "unt": 2478,
      "Ġfuture": 2479,
      "Ġstarted": 2480,
      "Ġmode": 2481,
      "There": 2482,
      "posed": 2483,
      "Ġtook": 2484,
      "Ġgames": 2485,
      "Ġproducts": 2486,
      "Is": 2487,
      "Ġbad": 2488,
      "ĠDes": 2489,
      "ĠPost": 2490,
      "avel": 2491,
      "Ġneeds": 2492,
      "Ġknown": 2493,
      "Fl": 2494,
      "Ġseen": 2495,
      "ume": 2496,
      "Ġlive": 2497,
      "Per": 2498,
      "iet": 2499,
      "eme": 2500,
      "Ġprovided": 2501,
      "Ġhope": 2502,
      "itude": 2503,
      "Ġyoung": 2504,
      ".txt": 2505,
      "Ġwebsite": 2506,
      "ALL": 2507,
      "Ġstudy": 2508,
      "ili": 2509,
      "Ġnetwork": 2510,
      "yl": 2511,
      "OK": 2512,
      "NU": 2513,
      "ĠST": 2514,
      "icrosoft": 2515,
      "Ġcut": 2516,
      "ival": 2517,
      "Ġwent": 2518,
      ".z": 2519,
      "Link": 2520,
      "Ġfire": 2521,
      "Ġacross": 2522,
      "Ġcommunity": 2523,
      "NE": 2524,
      "Ref": 2525,
      "Ġofficial": 2526,
      "Ġvisit": 2527,
      "Ġreceived": 2528,
      "Ġtoken": 2529,
      "Ġmonths": 2530,
      "ico": 2531,
      "ball": 2532,
      "Ġlearn": 2533,
      "One": 2534,
      "Ġ~": 2535,
      "Ġmind": 2536,
      "ĠEnd": 2537,
      "Check": 2538,
      "AND": 2539,
      "Base": 2540,
      "Ġcomment": 2541,
      "INE": 2542,
      "âĢĻve": 2543,
      "But": 2544,
      "ĠEl": 2545,
      "ĠUs": 2546,
      "Ġadmin": 2547,
      "mark": 2548,
      "ĠName": 2549,
      "ĠType": 2550,
      "pc": 2551,
      "FT": 2552,
      "uel": 2553,
      "anger": 2554,
      "Ġbackground": 2555,
      "........": 2556,
      "Ġseries": 2557,
      "Ġhot": 2558,
      "ries": 2559,
      "Create": 2560,
      "Ġoriginal": 2561,
      "font": 2562,
      "stream": 2563,
      "server": 2564,
      "ACK": 2565,
      "Ġframe": 2566,
      "Edit": 2567,
      "Ġcomes": 2568,
      "ĠGame": 2569,
      "Ġfilter": 2570,
      "ĠTrans": 2571,
      "met": 2572,
      "see": 2573,
      "ĠEX": 2574,
      "Ġfront": 2575,
      "ASE": 2576,
      "ĠRec": 2577,
      "(*": 2578,
      "group": 2579,
      "uy": 2580,
      "hr": 2581,
      "(-": 2582,
      "entry": 2583,
      "LL": 2584,
      "Ġselected": 2585,
      "Ġaccording": 2586,
      "ĠDis": 2587,
      "rag": 2588,
      "Âł": 2589,
      "DD": 2590,
      "ĠVal": 2591,
      "Ġvirtual": 2592,
      "aur": 2593,
      "Ġanything": 2594,
      "ĠOff": 2595,
      "Ġhours": 2596,
      "Ġwar": 2597,
      "aging": 2598,
      "Ġmodels": 2599,
      "ĠTime": 2600,
      "ams": 2601,
      "Ġearly": 2602,
      "Ġcenter": 2603,
      "Ġlanguage": 2604,
      "xy": 2605,
      "Post": 2606,
      "Ġago": 2607,
      "Ġeasy": 2608,
      "Ġdownload": 2609,
      "(T": 2610,
      "âĢĵ": 2611,
      "Ġstudents": 2612,
      "light": 2613,
      "xx": 2614,
      "Ġbuffer": 2615,
      "ĠMath": 2616,
      "ITH": 2617,
      "Ġdue": 2618,
      "Factory": 2619,
      "Ġep": 2620,
      "Ġcannot": 2621,
      "Ġwhite": 2622,
      "Ġperiod": 2623,
      "Ġscreen": 2624,
      "ural": 2625,
      "Ġnet": 2626,
      "ĠStates": 2627,
      "ĠNe": 2628,
      "ĠNOT": 2629,
      "Ġcommon": 2630,
      "ges": 2631,
      "oom": 2632,
      "erm": 2633,
      "ĠVector": 2634,
      "with": 2635,
      "TER": 2636,
      "Ġhit": 2637,
      "ria": 2638,
      "Ġclick": 2639,
      "Case": 2640,
      "atal": 2641,
      "ĠThese": 2642,
      "Ġamong": 2643,
      "ha": 2644,
      "Ġanswer": 2645,
      "Ġwalk": 2646,
      "ĠGe": 2647,
      "ĠCreate": 2648,
      "Ġage": 2649,
      "OST": 2650,
      "Ġfive": 2651,
      "Ġfriend": 2652,
      "TP": 2653,
      "Ġclean": 2654,
      "ows": 2655,
      "dis": 2656,
      "Ġwords": 2657,
      ".io": 2658,
      "zy": 2659,
      "ĠCheck": 2660,
      "âĢĻm": 2661,
      "ĠGNU": 2662,
      "ĠCol": 2663,
      "la": 2664,
      "ĠYork": 2665,
      "Lo": 2666,
      "ĠGod": 2667,
      "Ġissue": 2668,
      "rew": 2669,
      "Ġland": 2670,
      "ĠPar": 2671,
      "Ġquality": 2672,
      "Par": 2673,
      "ORD": 2674,
      "Ġworks": 2675,
      "Ġhalf": 2676,
      "ua": 2677,
      "Ġsimple": 2678,
      "esh": 2679,
      "Update": 2680,
      "ĠFROM": 2681,
      "Ġeverything": 2682,
      "Ġnothing": 2683,
      "Ġrunning": 2684,
      "RI": 2685,
      "ĠCity": 2686,
      "ĠWest": 2687,
      "store": 2688,
      "Ġ[[": 2689,
      "Ġ('": 2690,
      "ĠDon": 2691,
      "ERS": 2692,
      "/p": 2693,
      "abor": 2694,
      "Ġsomeone": 2695,
      "ato": 2696,
      "Ġshare": 2697,
      "Stack": 2698,
      "ĠWorld": 2699,
      ".X": 2700,
      "How": 2701,
      "Ġchanges": 2702,
      "Ġpersonal": 2703,
      "(A": 2704,
      "ĠJan": 2705,
      "ĠHowever": 2706,
      "Ġevents": 2707,
      "za": 2708,
      "Ġwhole": 2709,
      "Ġneeded": 2710,
      "ORM": 2711,
      "version": 2712,
      "gen": 2713,
      "ĠOut": 2714,
      "ĠSoftware": 2715,
      "Ġwriting": 2716,
      "Ġrate": 2717,
      "cd": 2718,
      "ĠSm": 2719,
      "ĠMark": 2720,
      "ĠMr": 2721,
      "ĠMore": 2722,
      "Ġfall": 2723,
      "Ġvol": 2724,
      "Ġdevelopment": 2725,
      "Ġsi": 2726,
      "ving": 2727,
      "PP": 2728,
      "aker": 2729,
      "Ġbelieve": 2730,
      "ns": 2731,
      "omet": 2732,
      "So": 2733,
      "Read": 2734,
      "Ġfeatures": 2735,
      "Ġminutes": 2736,
      "---": 2737,
      "Ġcollection": 2738,
      "'.": 2739,
      "Ġsimilar": 2740,
      "Ġtaken": 2741,
      "ĠTH": 2742,
      "/j": 2743,
      "Ġson": 2744,
      "reen": 2745,
      "Ġmoment": 2746,
      "Ġbring": 2747,
      "Down": 2748,
      "ĠRead": 2749,
      "Ġmember": 2750,
      "ĠCor": 2751,
      "ĠSim": 2752,
      "acc": 2753,
      "Player": 2754,
      "ARE": 2755,
      "Ġboard": 2756,
      "part": 2757,
      "ĠMc": 2758,
      "Ġpush": 2759,
      "ATA": 2760,
      "Ġplease": 2761,
      "ried": 2762,
      "bit": 2763,
      "VE": 2764,
      "ĠSw": 2765,
      "UB": 2766,
      "Ġtypes": 2767,
      "edia": 2768,
      "When": 2769,
      "ĠEurope": 2770,
      "ĠStr": 2771,
      "Ġpy": 2772,
      "ille": 2773,
      "URE": 2774,
      "Ġidea": 2775,
      ".se": 2776,
      "emy": 2777,
      "istic": 2778,
      "Ġphone": 2779,
      "Ġactive": 2780,
      "Ġmo": 2781,
      "Ġdeath": 2782,
      "Ġarticle": 2783,
      "ĠCr": 2784,
      "ka": 2785,
      "rip": 2786,
      "Ġfeature": 2787,
      "Ġvia": 2788,
      "ĠGu": 2789,
      "Engine": 2790,
      "Ġenvironment": 2791,
      "gy": 2792,
      "exp": 2793,
      "Ġinstall": 2794,
      "Ġcomplete": 2795,
      "Ġgeneral": 2796,
      "Ġasked": 2797,
      "ores": 2798,
      "Ġreserved": 2799,
      "SP": 2800,
      "ĠâĢ¦": 2801,
      "Off": 2802,
      "ĠAg": 2803,
      "ĠJust": 2804,
      "Ġicon": 2805,
      "''": 2806,
      "?.": 2807,
      "Ġ(*": 2808,
      "ĠFOR": 2809,
      "Ġparty": 2810,
      "ĠYour": 2811,
      "cat": 2812,
      ".new": 2813,
      "boot": 2814,
      "ĠNov": 2815,
      "Ġvector": 2816,
      "Ġnormal": 2817,
      "Ġfurther": 2818,
      "Ġdatabase": 2819,
      "Ġmusic": 2820,
      "Ġspeed": 2821,
      "IGHT": 2822,
      "Ġtaking": 2823,
      "ĠAfter": 2824,
      "Ġforward": 2825,
      "rot": 2826,
      "Ġfailed": 2827,
      "oe": 2828,
      "ba": 2829,
      "Ġterm": 2830,
      "Ġpotential": 2831,
      "Ġpublished": 2832,
      "ĠImage": 2833,
      "UD": 2834,
      "');": 2835,
      "Ġenjoy": 2836,
      "ering": 2837,
      "cp": 2838,
      "BO": 2839,
      "ĠHouse": 2840,
      "Ġweight": 2841,
      "Ġconditions": 2842,
      "-to": 2843,
      "Ġmodule": 2844,
      "END": 2845,
      "ĠNow": 2846,
      "ĠMain": 2847,
      "_k": 2848,
      "âĢĻll": 2849,
      "Pre": 2850,
      "Location": 2851,
      "Ġloss": 2852,
      "net": 2853,
      "Ġengine": 2854,
      "Ġissues": 2855,
      "ĠBar": 2856,
      "Ġstay": 2857,
      "ĠJSON": 2858,
      "Ġps": 2859,
      "Ġperfect": 2860,
      "RL": 2861,
      "ls": 2862,
      "ech": 2863,
      "oke": 2864,
      "Ġformer": 2865,
      "Ġsix": 2866,
      "ida": 2867,
      "Ġheart": 2868,
      "ald": 2869,
      "pack": 2870,
      "Ġrather": 2871,
      "Ġbuilding": 2872,
      "Ġquestions": 2873,
      "Ġje": 2874,
      "Ġsecurity": 2875,
      "Ġhowever": 2876,
      "Ġinside": 2877,
      "Ġpresident": 2878,
      "ĠWITH": 2879,
      "Ġtag": 2880,
      "Ġattempt": 2881,
      "Ġround": 2882,
      "Ġfriends": 2883,
      "Email": 2884,
      "?>": 2885,
      "KEY": 2886,
      "ĠNorth": 2887,
      "ables": 2888,
      "ello": 2889,
      "That": 2890,
      "Ðº": 2891,
      "ĠPresident": 2892,
      "Ġalt": 2893,
      "Ġenergy": 2894,
      "ington": 2895,
      ")*": 2896,
      "iers": 2897,
      "can": 2898,
      "Ġbehind": 2899,
      "Product": 2900,
      "ĠSk": 2901,
      ".jpg": 2902,
      "?:": 2903,
      "long": 2904,
      "MS": 2905,
      "ATH": 2906,
      "rown": 2907,
      "lt": 2908,
      "eline": 2909,
      "MA": 2910,
      "cs": 2911,
      "ĠWill": 2912,
      "Ġpolicy": 2913,
      "Ġthird": 2914,
      "phone": 2915,
      "Ġbed": 2916,
      "/g": 2917,
      "ĠInc": 2918,
      "izing": 2919,
      "ĠMessage": 2920,
      "Ġtraining": 2921,
      "ĠChar": 2922,
      "Ġprior": 2923,
      "Game": 2924,
      "PC": 2925,
      "Password": 2926,
      "Ġrelease": 2927,
      "Ġshall": 2928,
      "ĠSouth": 2929,
      "sk": 2930,
      "anner": 2931,
      "Ġoutside": 2932,
      "ĠRob": 2933,
      "ĠWeb": 2934,
      "Des": 2935,
      "BC": 2936,
      "Dec": 2937,
      "ĠModel": 2938,
      "gn": 2939,
      ".*": 2940,
      "Ġground": 2941,
      "Ġunique": 2942,
      "Ġpour": 2943,
      "ĠOct": 2944,
      "Ġtree": 2945,
      "Ġbyte": 2946,
      "Bl": 2947,
      "Ġmatter": 2948,
      "ĠRem": 2949,
      "ĠAug": 2950,
      "ĠLa": 2951,
      "ournal": 2952,
      "iam": 2953,
      "Ġshows": 2954,
      "Ġball": 2955,
      "Ġfast": 2956,
      "Ġmemory": 2957,
      "ASS": 2958,
      "ĠOf": 2959,
      "ante": 2960,
      "aul": 2961,
      "Ġfit": 2962,
      "Ġpolitical": 2963,
      "card": 2964,
      "och": 2965,
      "(L": 2966,
      "Ġindustry": 2967,
      "Ġextra": 2968,
      "Ġresources": 2969,
      "flow": 2970,
      "ĠPre": 2971,
      "ners": 2972,
      "Ġunit": 2973,
      "ĠTR": 2974,
      "Application": 2975,
      "Ġtakes": 2976,
      "Ġetc": 2977,
      "hs": 2978,
      "Ġdifficult": 2979,
      "Ġcoming": 2980,
      "Open": 2981,
      "Ġsettings": 2982,
      "ĠWar": 2983,
      "ĠThen": 2984,
      "ĠFoundation": 2985,
      "Ġquite": 2986,
      "Description": 2987,
      "Ġblog": 2988,
      "iqu": 2989,
      "PS": 2990,
      "ĠSch": 2991,
      "ĠLO": 2992,
      "Ġeveryone": 2993,
      "Ġmenu": 2994,
      "sec": 2995,
      "Ġrelationship": 2996,
      "ĠMap": 2997,
      "\");": 2998,
      "Ġeffort": 2999,
      "Ġactual": 3000,
      "OUN": 3001,
      "Ġcases": 3002,
      "CA": 3003,
      "My": 3004,
      "Interface": 3005,
      "ĠSE": 3006,
      "]]": 3007,
      "alle": 3008,
      "ĠNational": 3009,
      ".V": 3010,
      "ara": 3011,
      "asc": 3012,
      "astic": 3013,
      "Cl": 3014,
      "Ġperformance": 3015,
      "aily": 3016,
      ".net": 3017,
      "ĠApr": 3018,
      "Ġhigher": 3019,
      "cr": 3020,
      "ĠGoogle": 3021,
      "Ġsignificant": 3022,
      "ĠMicrosoft": 3023,
      "Ġadditional": 3024,
      "Ġcompanies": 3025,
      "Ġsound": 3026,
      "Ġcontract": 3027,
      "home": 3028,
      "ev": 3029,
      "ï¼ļ": 3030,
      "\";": 3031,
      "ĠHigh": 3032,
      "ĠPoint": 3033,
      "oph": 3034,
      "ox": 3035,
      "Ġsoon": 3036,
      "inger": 3037,
      "ĠPe": 3038,
      "Ġë": 3039,
      ".E": 3040,
      "ĠStart": 3041,
      "ĠTO": 3042,
      "Ġchoose": 3043,
      "how": 3044,
      "ĠAmerica": 3045,
      "ĠValue": 3046,
      "Ġoffice": 3047,
      "ĠArt": 3048,
      "ango": 3049,
      "tmp": 3050,
      "EST": 3051,
      "den": 3052,
      "Ġnote": 3053,
      "pm": 3054,
      "ĠEN": 3055,
      "ester": 3056,
      "Ġupon": 3057,
      "uz": 3058,
      ".k": 3059,
      "Ġgroups": 3060,
      "github": 3061,
      "lang": 3062,
      "TO": 3063,
      "ĠPlease": 3064,
      "Ġrisk": 3065,
      "ANG": 3066,
      "Ġwoman": 3067,
      "ONE": 3068,
      "ĠHar": 3069,
      "Ġincluded": 3070,
      "ĠAp": 3071,
      "ĠBlack": 3072,
      "doc": 3073,
      "_table": 3074,
      "-up": 3075,
      "Ġcause": 3076,
      "Ġ..": 3077,
      "Ġvan": 3078,
      "Ġfocus": 3079,
      "IND": 3080,
      "Ġmultiple": 3081,
      "ido": 3082,
      "-M": 3083,
      ".U": 3084,
      "Ġaddition": 3085,
      "Ġvarious": 3086,
      "Ġreceive": 3087,
      "ĠHT": 3088,
      "DF": 3089,
      "Ġincrease": 3090,
      "ĠOpen": 3091,
      "Ġcommit": 3092,
      "atory": 3093,
      "ship": 3094,
      "Ġhtml": 3095,
      "Ġleave": 3096,
      "aven": 3097,
      "ĠConsole": 3098,
      "-n": 3099,
      "Ġreading": 3100,
      "Ġlock": 3101,
      "Ġstandard": 3102,
      "etic": 3103,
      "ellow": 3104,
      "ĠHis": 3105,
      "(P": 3106,
      "aa": 3107,
      "ean": 3108,
      "ĠPRO": 3109,
      "ĠKey": 3110,
      "Ġespecially": 3111,
      "ming": 3112,
      "Ġcross": 3113,
      "Ġnational": 3114,
      "Ġscript": 3115,
      "Ġproblems": 3116,
      "Ġwritten": 3117,
      "MENT": 3118,
      ".ch": 3119,
      "ĠAPI": 3120,
      "Ġimages": 3121,
      "First": 3122,
      "Ġplatform": 3123,
      "Option": 3124,
      "ste": 3125,
      "Ġforce": 3126,
      "(B": 3127,
      "RT": 3128,
      "ĠBase": 3129,
      "ĠPy": 3130,
      "ds": 3131,
      ".as": 3132,
      "apan": 3133,
      "ĠService": 3134,
      "Top": 3135,
      "po": 3136,
      "IES": 3137,
      "IE": 3138,
      "iant": 3139,
      "ãĢģ": 3140,
      "ĠHome": 3141,
      "ians": 3142,
      "GB": 3143,
      "Ġliving": 3144,
      "Ġpattern": 3145,
      "Core": 3146,
      "Ġuseful": 3147,
      ".info": 3148,
      "Ġtool": 3149,
      "Ġok": 3150,
      "IX": 3151,
      "ĠNews": 3152,
      "erry": 3153,
      "Do": 3154,
      "Ġpopular": 3155,
      "Ġmethods": 3156,
      "cal": 3157,
      "Ġimpact": 3158,
      "Ġelements": 3159,
      "Ġtrain": 3160,
      "rs": 3161,
      "ĠRepublic": 3162,
      "ĠTask": 3163,
      "(D": 3164,
      "Ġrelated": 3165,
      "Ġcmd": 3166,
      "Ġtechnology": 3167,
      "ĠUse": 3168,
      "Ġscale": 3169,
      "Ġscore": 3170,
      "/v": 3171,
      "Ġstudent": 3172,
      "UC": 3173,
      "Ġaverage": 3174,
      "(ex": 3175,
      "ĠMarch": 3176,
      "category": 3177,
      "Server": 3178,
      "Ġcontainer": 3179,
      "-st": 3180,
      "Ġdecision": 3181,
      "Ġsaw": 3182,
      "Ġapproach": 3183,
      "ICE": 3184,
      "Ġanyone": 3185,
      "SD": 3186,
      "Ġsong": 3187,
      "Ġchannel": 3188,
      "Ġchanged": 3189,
      "Please": 3190,
      "oring": 3191,
      "-re": 3192,
      "Ġways": 3193,
      "ĠFirst": 3194,
      "ĠWindows": 3195,
      "Ġplus": 3196,
      "azon": 3197,
      "/t": 3198,
      "aste": 3199,
      "Ġprofile": 3200,
      "Ġready": 3201,
      "Ġsense": 3202,
      "ĠConfig": 3203,
      "omy": 3204,
      "ĠJune": 3205,
      "Ġlatest": 3206,
      "Ġregion": 3207,
      "Ġdeep": 3208,
      "ĠPark": 3209,
      "ĠFrom": 3210,
      "II": 3211,
      "Ġreach": 3212,
      "ĠWork": 3213,
      "ĠURL": 3214,
      "ĠUpdate": 3215,
      "ani": 3216,
      "Ġdog": 3217,
      "ï¿": 3218,
      "tt": 3219,
      "Ġpaper": 3220,
      "Ġstaff": 3221,
      "ĠFacebook": 3222,
      "ACE": 3223,
      "ja": 3224,
      "ĠAction": 3225,
      "ĠGL": 3226,
      "Ġoil": 3227,
      "Ġstock": 3228,
      "ham": 3229,
      "ula": 3230,
      "RA": 3231,
      "Ġcontains": 3232,
      "mar": 3233,
      "ĠChina": 3234,
      ")/": 3235,
      "ĠNumber": 3236,
      "DC": 3237,
      "ĠSO": 3238,
      "ĠOur": 3239,
      "Version": 3240,
      "urt": 3241,
      "ych": 3242,
      "ĠProduct": 3243,
      "afe": 3244,
      "Ġincludes": 3245,
      "ĠFin": 3246,
      "ĠMod": 3247,
      "Ġtab": 3248,
      "ano": 3249,
      "-e": 3250,
      "chan": 3251,
      "IME": 3252,
      "Ġmachine": 3253,
      "ĠNO": 3254,
      "ĠInter": 3255,
      "Tag": 3256,
      "]:": 3257,
      "Ġproduction": 3258,
      "Ġareas": 3259,
      "men": 3260,
      "zen": 3261,
      "ura": 3262,
      "ĠHere": 3263,
      "ography": 3264,
      "Ġactivity": 3265,
      "Ġprovides": 3266,
      "Ġuses": 3267,
      "ĠFunction": 3268,
      ".google": 3269,
      "ĠSy": 3270,
      "ĠCent": 3271,
      "Ġlicense": 3272,
      "ĠLong": 3273,
      "Ġability": 3274,
      "Active": 3275,
      "ological": 3276,
      "oly": 3277,
      "ĠGroup": 3278,
      "ĠItem": 3279,
      "ining": 3280,
      "ims": 3281,
      "ĠEm": 3282,
      "ĠAS": 3283,
      "ĠPage": 3284,
      "QU": 3285,
      "ĠAny": 3286,
      "ĠJuly": 3287,
      "Card": 3288,
      "aly": 3289,
      "ĠPort": 3290,
      "Ġlegal": 3291,
      "MP": 3292,
      "Ġreference": 3293,
      "ĠProject": 3294,
      "CON": 3295,
      "Ġtouch": 3296,
      "Ġbuilt": 3297,
      "Part": 3298,
      "(re": 3299,
      "game": 3300,
      "ĠWhite": 3301,
      "Ġnatural": 3302,
      "ĠApril": 3303,
      "Ġassociated": 3304,
      "~~": 3305,
      "Ġstorage": 3306,
      "Ġtravel": 3307,
      "Ġpassed": 3308,
      "Ġbus": 3309,
      "Ab": 3310,
      "ĠCenter": 3311,
      "HTML": 3312,
      "ĠSan": 3313,
      "Ġcountries": 3314,
      "kt": 3315,
      "Last": 3316,
      "Next": 3317,
      ".a": 3318,
      "ĠPM": 3319,
      "iting": 3320,
      "ci": 3321,
      "gs": 3322,
      "IA": 3323,
      "DO": 3324,
      "Ġ{{": 3325,
      "Ġnecessary": 3326,
      "Ġ'#": 3327,
      "ORE": 3328,
      "ĠTV": 3329,
      "SET": 3330,
      "Press": 3331,
      "ĠDepartment": 3332,
      "Ġproperties": 3333,
      "Search": 3334,
      "ĠBook": 3335,
      "(st": 3336,
      "Ġfinancial": 3337,
      "(in": 3338,
      "ìĿ": 3339,
      "ĠBro": 3340,
      "Script": 3341,
      "Ġrule": 3342,
      "ae": 3343,
      "DS": 3344,
      "Ġotherwise": 3345,
      "Ġsystems": 3346,
      "Ġdrop": 3347,
      "Ġstructure": 3348,
      "ĠLink": 3349,
      "ĠResponse": 3350,
      "ĠDB": 3351,
      "android": 3352,
      "otion": 3353,
      "(@": 3354,
      "Ġdirectly": 3355,
      "ris": 3356,
      "AIL": 3357,
      "(k": 3358,
      "bon": 3359,
      "___": 3360,
      "Max": 3361,
      "-based": 3362,
      "Web": 3363,
      "ITE": 3364,
      "ĠGo": 3365,
      "Ġip": 3366,
      "Ġist": 3367,
      "Ġcustomer": 3368,
      "Ġdoor": 3369,
      "Ġplant": 3370,
      "Ġdistance": 3371,
      "Ġprotect": 3372,
      "ĠNode": 3373,
      "ening": 3374,
      "ĠSchool": 3375,
      "hi": 3376,
      "After": 3377,
      "Ġprimary": 3378,
      "AA": 3379,
      "Ġbi": 3380,
      "Red": 3381,
      "ĠDev": 3382,
      "FILE": 3383,
      "Ġcomments": 3384,
      "Ġupdated": 3385,
      "ĠMo": 3386,
      "ala": 3387,
      "Access": 3388,
      "ĠJanuary": 3389,
      "ĠDay": 3390,
      "document": 3391,
      "ĠOver": 3392,
      "bb": 3393,
      "Ġled": 3394,
      "uri": 3395,
      "gl": 3396,
      "MD": 3397,
      "Ġsample": 3398,
      "Ġhands": 3399,
      "ĠVersion": 3400,
      "Ġoffers": 3401,
      "ota": 3402,
      "Am": 3403,
      "Ġsafe": 3404,
      "Store": 3405,
      "run": 3406,
      "agon": 3407,
      "aby": 3408,
      "Ġbecame": 3409,
      "Ġpark": 3410,
      "ĠCode": 3411,
      "ĠSeptember": 3412,
      "Fe": 3413,
      "FL": 3414,
      "uts": 3415,
      "inn": 3416,
      "aling": 3417,
      "Ġyourself": 3418,
      "conf": 3419,
      ".)": 3420,
      "NG": 3421,
      "ĠRequest": 3422,
      "XX": 3423,
      "ĠAugust": 3424,
      "ĠCG": 3425,
      "ho": 3426,
      "ĠBig": 3427,
      "Ġvs": 3428,
      "Ġgreen": 3429,
      "comment": 3430,
      "Ġdesigned": 3431,
      "avi": 3432,
      "Ġlayer": 3433,
      "Ġviews": 3434,
      "ĠON": 3435,
      "Ġcore": 3436,
      "Main": 3437,
      "Ġexpert": 3438,
      "Ġ/>": 3439,
      "IAL": 3440,
      "ĠKing": 3441,
      "ĠMet": 3442,
      "ora": 3443,
      "Min": 3444,
      "-S": 3445,
      "cm": 3446,
      "Ġbeautiful": 3447,
      "ums": 3448,
      "Ġorigin": 3449,
      "Ġeffects": 3450,
      "Ġmanagement": 3451,
      "illa": 3452,
      "Ġhappy": 3453,
      "Ġcamera": 3454,
      "ĠVer": 3455,
      "ĠHer": 3456,
      "(Q": 3457,
      "ita": 3458,
      "ĠAR": 3459,
      "IGN": 3460,
      "ĠHealth": 3461,
      "ĠTwitter": 3462,
      "ĠCounty": 3463,
      "Ġhy": 3464,
      "fit": 3465,
      "Ġmilitary": 3466,
      "rim": 3467,
      "ĠDown": 3468,
      "oday": 3469,
      "Ġtown": 3470,
      "Ġsolution": 3471,
      "elling": 3472,
      "ental": 3473,
      "omen": 3474,
      "ĠSup": 3475,
      "Ġblue": 3476,
      "ago": 3477,
      "Ġlives": 3478,
      "Ġ^": 3479,
      "Ġcustomers": 3480,
      "ï¼ģ": 3481,
      "si": 3482,
      "ĠJapan": 3483,
      "/w": 3484,
      "PU": 3485,
      "ĠEast": 3486,
      "Ġpackage": 3487,
      "Ġnor": 3488,
      "Ġapi": 3489,
      "bot": 3490,
      "AST": 3491,
      "DA": 3492,
      "mo": 3493,
      "ito": 3494,
      "Ġanalysis": 3495,
      "idx": 3496,
      "ĠEnglish": 3497,
      "Ġcomputer": 3498,
      "Ġmobile": 3499,
      "Ġtreatment": 3500,
      "ĠAc": 3501,
      "more": 3502,
      "pass": 3503,
      "Ġha": 3504,
      "Ġflow": 3505,
      "asy": 3506,
      "Sp": 3507,
      "Ġshift": 3508,
      "NT": 3509,
      "CS": 3510,
      "Ġeyes": 3511,
      "Ġnice": 3512,
      "Ġfloor": 3513,
      "ĠUK": 3514,
      "Ġwish": 3515,
      "ĠIO": 3516,
      "Ġstage": 3517,
      "ĠSH": 3518,
      "Ġmeeting": 3519,
      "iny": 3520,
      "cha": 3521,
      "ĠRun": 3522,
      "Ġmedical": 3523,
      "Ġcontroller": 3524,
      "Gr": 3525,
      "Ġbooks": 3526,
      "aming": 3527,
      "PR": 3528,
      "Ġmodern": 3529,
      "CD": 3530,
      "ĠLo": 3531,
      "Ġinternational": 3532,
      "ĠBit": 3533,
      "rd": 3534,
      "RED": 3535,
      "ĠRel": 3536,
      "Ġgrowth": 3537,
      "Ġmix": 3538,
      "ĠWashington": 3539,
      "ĠIM": 3540,
      "Ġletter": 3541,
      "ĠOctober": 3542,
      "Tree": 3543,
      "Ġsituation": 3544,
      "ette": 3545,
      "_no": 3546,
      "IVE": 3547,
      "Ġvon": 3548,
      "Ġknowledge": 3549,
      "Ġdrive": 3550,
      "Ġphoto": 3551,
      "ĠAir": 3552,
      "-x": 3553,
      "Ġtrade": 3554,
      "Ġparents": 3555,
      "ĠKe": 3556,
      "ancy": 3557,
      "ran": 3558,
      "El": 3559,
      "Long": 3560,
      "Ġprofessional": 3561,
      "va": 3562,
      "Ġpractice": 3563,
      "Rem": 3564,
      "ini": 3565,
      "REE": 3566,
      "pa": 3567,
      "*(": 3568,
      "ĠFriday": 3569,
      "Ke": 3570,
      "HP": 3571,
      ")[": 3572,
      "Ġgold": 3573,
      "ĠTable": 3574,
      "Ġopportunity": 3575,
      "Te": 3576,
      "ki": 3577,
      "ĠUN": 3578,
      "Ġmanager": 3579,
      "Ġpain": 3580,
      "ĠFire": 3581,
      "lay": 3582,
      "ĠDecember": 3583,
      "wood": 3584,
      "/f": 3585,
      "STR": 3586,
      "âĢ¢": 3587,
      "Ġcredit": 3588,
      "orge": 3589,
      "Ġdifference": 3590,
      "ĠPC": 3591,
      "ĠStreet": 3592,
      "ĠProgram": 3593,
      "SQL": 3594,
      "-A": 3595,
      "Ġgives": 3596,
      "(G": 3597,
      "ĠNovember": 3598,
      "Ġeasily": 3599,
      "elle": 3600,
      "Can": 3601,
      "ona": 3602,
      "Ġcapital": 3603,
      "Run": 3604,
      "oi": 3605,
      "ĠMethod": 3606,
      "Ġeducation": 3607,
      "Ġbrand": 3608,
      "ga": 3609,
      "Category": 3610,
      "ĠIndia": 3611,
      "FC": 3612,
      "ĠAnt": 3613,
      "Ġcharge": 3614,
      "EO": 3615,
      "ĠPART": 3616,
      "eds": 3617,
      ";;": 3618,
      "ĠAM": 3619,
      "Ġbasic": 3620,
      "ĠLet": 3621,
      "Ġstar": 3622,
      "Work": 3623,
      "ĠIsrael": 3624,
      "Ġpositive": 3625,
      "Ġskin": 3626,
      "ĠIP": 3627,
      "OUR": 3628,
      "ĠCard": 3629,
      "ĠDavid": 3630,
      "Ġpages": 3631,
      "ACT": 3632,
      "******": 3633,
      "ĠCH": 3634,
      "Br": 3635,
      ".co": 3636,
      "Ġlearning": 3637,
      "Ġpatients": 3638,
      "AIN": 3639,
      "ĠBack": 3640,
      "ella": 3641,
      ".at": 3642,
      "ban": 3643,
      "ĠSl": 3644,
      "bin": 3645,
      "ĠCanada": 3646,
      "They": 3647,
      "ĠMat": 3648,
      "Ġhair": 3649,
      "ĠMag": 3650,
      "Ġ),": 3651,
      "Ġwide": 3652,
      "ĠAuthor": 3653,
      "ĠPaul": 3654,
      "mas": 3655,
      "ĠTop": 3656,
      "Ġtheme": 3657,
      "car": 3658,
      "Ġcopyright": 3659,
      "ĠShow": 3660,
      "Ġbrowser": 3661,
      "Ġcareer": 3662,
      "Ġrecommend": 3663,
      "ĠÂ£": 3664,
      "Phone": 3665,
      "oms": 3666,
      "ĠOther": 3667,
      "Ġtrust": 3668,
      "front": 3669,
      "Ar": 3670,
      "Net": 3671,
      "Ġeconomic": 3672,
      "ĠOption": 3673,
      "Ġphysical": 3674,
      "';": 3675,
      "Price": 3676,
      "ĠCL": 3677,
      "ĠDesign": 3678,
      "Ġnature": 3679,
      "Ġnation": 3680,
      "ih": 3681,
      "Ġexam": 3682,
      "RES": 3683,
      "Ġsun": 3684,
      "(y": 3685,
      "ying": 3686,
      "Ġtests": 3687,
      "ĠNote": 3688,
      "arts": 3689,
      "Now": 3690,
      "ĠCalifornia": 3691,
      "ker": 3692,
      "band": 3693,
      "ĠPlay": 3694,
      "Ġband": 3695,
      "article": 3696,
      "usr": 3697,
      "BA": 3698,
      "ett": 3699,
      "ulti": 3700,
      "zer": 3701,
      "eller": 3702,
      "ĠSign": 3703,
      "API": 3704,
      "ĠLine": 3705,
      "Port": 3706,
      "Ġgiving": 3707,
      "ĠDouble": 3708,
      "Ġbillion": 3709,
      "EE": 3710,
      "iation": 3711,
      "ĠBest": 3712,
      "_view": 3713,
      "CP": 3714,
      "Op": 3715,
      "Author": 3716,
      "Book": 3717,
      "ĠPat": 3718,
      "uman": 3719,
      "plus": 3720,
      "ĠDirect": 3721,
      "ĠCall": 3722,
      "Ġanti": 3723,
      "ĠLondon": 3724,
      "Ġsafety": 3725,
      "ĠCourt": 3726,
      "ĠPhil": 3727,
      "ena": 3728,
      "coin": 3729,
      "Ġincreased": 3730,
      "Ġ\"'": 3731,
      "ĠInternational": 3732,
      ":\\": 3733,
      "Ġmaximum": 3734,
      ".py": 3735,
      "look": 3736,
      "Ġmovement": 3737,
      "ĠBE": 3738,
      "Admin": 3739,
      "Ġforeign": 3740,
      "ĠOrder": 3741,
      "Call": 3742,
      "Ġfully": 3743,
      "rie": 3744,
      "Ġmaterials": 3745,
      "ĠÂ©": 3746,
      "Ġunless": 3747,
      "LOG": 3748,
      "-time": 3749,
      ")]": 3750,
      "aver": 3751,
      "ige": 3752,
      ")+": 3753,
      "Ġpressure": 3754,
      "Sign": 3755,
      "rian": 3756,
      "LS": 3757,
      "Ġimprove": 3758,
      "Ġthinking": 3759,
      "-F": 3760,
      "ĠUSA": 3761,
      "ĠAlso": 3762,
      "Ġenable": 3763,
      "ĠCO": 3764,
      "Ġconcept": 3765,
      ")-": 3766,
      "ĠâĢ¢": 3767,
      "Ġmeaning": 3768,
      "ĠSuper": 3769,
      "Ġdaily": 3770,
      "Ġmulti": 3771,
      "jo": 3772,
      "Only": 3773,
      "íķ": 3774,
      "ĠPlayer": 3775,
      "ĠDel": 3776,
      "Ġpool": 3777,
      "Local": 3778,
      "ĠApplication": 3779,
      "NA": 3780,
      "Ġsurface": 3781,
      "Co": 3782,
      "Ġmaster": 3783,
      "BS": 3784,
      "ĠCommand": 3785,
      "kg": 3786,
      "ĠBen": 3787,
      "ĠPerson": 3788,
      "Ġskills": 3789,
      "ĠAT": 3790,
      "nn": 3791,
      "Ġeffective": 3792,
      "Ġtools": 3793,
      "ARD": 3794,
      "Ġdigital": 3795,
      "RC": 3796,
      "/r": 3797,
      "media": 3798,
      "ĠFebruary": 3799,
      "ĠMac": 3800,
      "ĠMake": 3801,
      "Ġlocated": 3802,
      "-a": 3803,
      "ĠYes": 3804,
      "ĠAng": 3805,
      "olar": 3806,
      "ĠPower": 3807,
      "ĠGold": 3808,
      "Ġpurpose": 3809,
      "WS": 3810,
      "/L": 3811,
      "Ġsin": 3812,
      "ĠFIT": 3813,
      "Ġ).": 3814,
      "Ġrequires": 3815,
      "ME": 3816,
      "IRE": 3817,
      "VID": 3818,
      "ĠMax": 3819,
      "Ġactivities": 3820,
      "Ĥ¬": 3821,
      "Ġexpression": 3822,
      "ĠMost": 3823,
      "Ġtesting": 3824,
      "EC": 3825,
      "Ġagree": 3826,
      "ĠLaw": 3827,
      ".Y": 3828,
      "Ġpod": 3829,
      "ĠEuropean": 3830,
      "-sh": 3831,
      "ORY": 3832,
      "ĠAv": 3833,
      "(ch": 3834,
      "?\"": 3835,
      "chen": 3836,
      "ima": 3837,
      "win": 3838,
      "/h": 3839,
      "ĠSC": 3840,
      "NAME": 3841,
      "ONG": 3842,
      "ĠSearch": 3843,
      "ĠIl": 3844,
      "Ġhighly": 3845,
      "ï¼ī": 3846,
      "itation": 3847,
      "usion": 3848,
      "Ġbenefits": 3849,
      "iki": 3850,
      "Ġprices": 3851,
      "ĠFre": 3852,
      "ĠAdmin": 3853,
      "OWN": 3854,
      "Total": 3855,
      "Ġinternet": 3856,
      "ady": 3857,
      "ĠJack": 3858,
      "Ġdevices": 3859,
      "OC": 3860,
      "ĠOk": 3861,
      "Home": 3862,
      "(tr": 3863,
      "ETH": 3864,
      "Ġpurchase": 3865,
      "dc": 3866,
      "(X": 3867,
      "??": 3868,
      "Ġleader": 3869,
      "ĠVis": 3870,
      "-C": 3871,
      "ĠStud": 3872,
      "stitute": 3873,
      "More": 3874,
      "ĠDescription": 3875,
      "ads": 3876,
      "-B": 3877,
      "alm": 3878,
      "Ġculture": 3879,
      "house": 3880,
      "ĠStar": 3881,
      "ĠCOM": 3882,
      "ĠGood": 3883,
      "DR": 3884,
      "Kit": 3885,
      "Ġ##": 3886,
      "Ġbehavior": 3887,
      "ĠBY": 3888,
      "craft": 3889,
      "ete": 3890,
      "Ġdetail": 3891,
      "ĠCommon": 3892,
      "ston": 3893,
      "berg": 3894,
      "Ġhundred": 3895,
      "TC": 3896,
      "ni": 3897,
      "ji": 3898,
      "ya": 3899,
      "Ġcells": 3900,
      "olic": 3901,
      "ĠDi": 3902,
      "Your": 3903,
      "Ġng": 3904,
      "SA": 3905,
      "ĠControl": 3906,
      "SG": 3907,
      "Ġsmart": 3908,
      "oma": 3909,
      "sys": 3910,
      "ĠJames": 3911,
      "-se": 3912,
      "`,": 3913,
      "ĠBO": 3914,
      "Show": 3915,
      "ĠMedia": 3916,
      "acks": 3917,
      "Ġstudies": 3918,
      "Me": 3919,
      "ĠBel": 3920,
      "(F": 3921,
      "igo": 3922,
      "ĠGreen": 3923,
      "=%": 3924,
      "Project": 3925,
      "ĠBuild": 3926,
      "ĠBritish": 3927,
      "ĠNE": 3928,
      "OLD": 3929,
      "ĠSQL": 3930,
      ".[": 3931,
      "aud": 3932,
      "Ġdeveloped": 3933,
      "Ã©e": 3934,
      "ĠGET": 3935,
      "ky": 3936,
      "................": 3937,
      "Ġfailure": 3938,
      "Ġdream": 3939,
      "ĠTeam": 3940,
      "USE": 3941,
      "Ġeye": 3942,
      "Support": 3943,
      "ville": 3944,
      "ola": 3945,
      "xb": 3946,
      "ĠPath": 3947,
      "ĠMichael": 3948,
      "She": 3949,
      "ĠJava": 3950,
      "ĠII": 3951,
      "Ġdomain": 3952,
      "real": 3953,
      "ĠUnit": 3954,
      "ali": 3955,
      "ĠGlobal": 3956,
      "omin": 3957,
      "rent": 3958,
      "Our": 3959,
      "Ġdistribution": 3960,
      "SL": 3961,
      "Ġcolors": 3962,
      "kin": 3963,
      "ĠCongress": 3964,
      "ĠMarket": 3965,
      "under": 3966,
      "ĠLast": 3967,
      "Ġposts": 3968,
      "Don": 3969,
      "Ġmicro": 3970,
      "Ġ(@": 3971,
      "ĠHot": 3972,
      "ĠIndex": 3973,
      "ĠCap": 3974,
      "-(": 3975,
      "ĠBusiness": 3976,
      "ĠSD": 3977,
      "ĠInternet": 3978,
      "MM": 3979,
      "Ġscience": 3980,
      "PA": 3981,
      "Ġtruth": 3982,
      "dt": 3983,
      "rf": 3984,
      "uda": 3985,
      "ĠCam": 3986,
      "Ġstation": 3987,
      "ĠSun": 3988,
      "Ġshop": 3989,
      "ND": 3990,
      ">,": 3991,
      "Ġmail": 3992,
      "rey": 3993,
      "Make": 3994,
      "ĠSur": 3995,
      "ĠInformation": 3996,
      "AV": 3997,
      "Ġseven": 3998,
      "olf": 3999,
      "ĠStatus": 4000,
      "ĠOnline": 4001,
      "RR": 4002,
      "ĠHill": 4003,
      "Ġbrain": 4004,
      "emic": 4005,
      "ĠSum": 4006,
      "Non": 4007,
      "Ġvolume": 4008,
      "-L": 4009,
      "ĠMart": 4010,
      "ĠNetwork": 4011,
      "================================================================": 4012,
      "mi": 4013,
      "Ġpayment": 4014,
      ",B": 4015,
      "ĠApple": 4016,
      "gin": 4017,
      "Ġfactor": 4018,
      "Ġsources": 4019,
      "ĠAmazon": 4020,
      "Ġeat": 4021,
      "ĠÂ»": 4022,
      "ford": 4023,
      "ĠCompany": 4024,
      "Ġproduce": 4025,
      "arc": 4026,
      "ander": 4027,
      "ĠEngine": 4028,
      "(N": 4029,
      "ĠSal": 4030,
      "gi": 4031,
      "ĠPrint": 4032,
      "ĠMill": 4033,
      "bi": 4034,
      "ĠSam": 4035,
      "Ġsociety": 4036,
      "ĠSecurity": 4037,
      "Ġproviding": 4038,
      "ĠSer": 4039,
      "ĠOffice": 4040,
      "Ġcat": 4041,
      "ĠTexas": 4042,
      "ĠReport": 4043,
      "anta": 4044,
      "ĠBox": 4045,
      "EB": 4046,
      "LINE": 4047,
      "-v": 4048,
      "AF": 4049,
      "ĠOnly": 4050,
      "Ġcookies": 4051,
      "ĠGl": 4052,
      "CO": 4053,
      "ela": 4054,
      "ĠEmail": 4055,
      "localhost": 4056,
      "Step": 4057,
      "ĠServices": 4058,
      "fc": 4059,
      "Ġtransfer": 4060,
      "ĠResearch": 4061,
      "ĠWell": 4062,
      "ĠAustralia": 4063,
      "ĠMAX": 4064,
      "_valid": 4065,
      "yan": 4066,
      "Bit": 4067,
      "zi": 4068,
      "aine": 4069,
      "ĠVideo": 4070,
      "Ġapplications": 4071,
      "ĠRussia": 4072,
      "ĠBlock": 4073,
      "ĠTom": 4074,
      "ronic": 4075,
      "xe": 4076,
      "pop": 4077,
      "Ġreviews": 4078,
      ".O": 4079,
      "Ġdisabled": 4080,
      "ĠMal": 4081,
      "DM": 4082,
      "ĠRobert": 4083,
      "ĠCustom": 4084,
      "ĠDie": 4085,
      "Bundle": 4086,
      "Ġtrip": 4087,
      "MB": 4088,
      "Ġsoft": 4089,
      "wp": 4090,
      "ĠServer": 4091,
      "ĠClient": 4092,
      "ĠSelect": 4093,
      "ĠWhy": 4094,
      "ĠChe": 4095,
      "Ġwww": 4096,
      "ANCE": 4097,
      "ĠTor": 4098,
      "ĠPress": 4099,
      "ĠMor": 4100,
      "-line": 4101,
      "ĠRegister": 4102,
      "ĠChinese": 4103,
      "Ġdisease": 4104,
      "Ġstress": 4105,
      "Ġguide": 4106,
      "ĠSize": 4107,
      "ĠPrice": 4108,
      "||": 4109,
      "FS": 4110,
      "Ġdefinitely": 4111,
      "Ġmarketing": 4112,
      "ĠWH": 4113,
      "+=": 4114,
      "lee": 4115,
      "hy": 4116,
      "Express": 4117,
      "MT": 4118,
      "sey": 4119,
      "ĠGreat": 4120,
      "ĠAndroid": 4121,
      "mode": 4122,
      "ĠTimes": 4123,
      "unes": 4124,
      "agen": 4125,
      "ĠHand": 4126,
      "Ġshowed": 4127,
      "ĠElement": 4128,
      "Ġtopic": 4129,
      "âĢĶâĢĶ": 4130,
      "road": 4131,
      "ĠBank": 4132,
      "ĠRef": 4133,
      "UST": 4134,
      "ĠParty": 4135,
      "LC": 4136,
      "ĠLin": 4137,
      "una": 4138,
      "ĠPR": 4139,
      "ĠDownload": 4140,
      "Loading": 4141,
      "di": 4142,
      "Ġeconomy": 4143,
      "ĠFrench": 4144,
      "SH": 4145,
      "Ġstreet": 4146,
      "ĠBill": 4147,
      "BI": 4148,
      "ĠSecret": 4149,
      "ĠField": 4150,
      "ĠProcess": 4151,
      "ĠOT": 4152,
      "Ġtraditional": 4153,
      ".i": 4154,
      "amin": 4155,
      "Any": 4156,
      "ju": 4157,
      "ĠAccount": 4158,
      "Ġê": 4159,
      "Ġcentral": 4160,
      "GR": 4161,
      "ĠFull": 4162,
      "iber": 4163,
      "mos": 4164,
      ".be": 4165,
      "ARY": 4166,
      "Ġextract": 4167,
      "ĠProperty": 4168,
      "ĠLight": 4169,
      "Ġunderstanding": 4170,
      "-of": 4171,
      "ils": 4172,
      "ĠOh": 4173,
      "shop": 4174,
      "ĠSand": 4175,
      "Ġfear": 4176,
      "zone": 4177,
      "COM": 4178,
      "ĠBlue": 4179,
      "iro": 4180,
      "Ġremote": 4181,
      "ĠIT": 4182,
      "ĠSince": 4183,
      "ĠAre": 4184,
      "gu": 4185,
      "rm": 4186,
      "Ġreality": 4187,
      "Contact": 4188,
      "Ġdynamic": 4189,
      "La": 4190,
      "ĠSource": 4191,
      "/bin": 4192,
      "ĠBoard": 4193,
      "ĠAL": 4194,
      "ĠMer": 4195,
      "ĠDiv": 4196,
      "oth": 4197,
      "ĠLocal": 4198,
      "Ġchain": 4199,
      "Save": 4200,
      "Ġcontents": 4201,
      "PM": 4202,
      "CG": 4203,
      "job": 4204,
      "ĠReal": 4205,
      "uer": 4206,
      "Ne": 4207,
      "Ġchurch": 4208,
      "chain": 4209,
      "ira": 4210,
      "force": 4211,
      "Ã¢": 4212,
      "Ġpm": 4213,
      "Ġupdates": 4214,
      "ëĭ": 4215,
      "Dr": 4216,
      "Cal": 4217,
      "Car": 4218,
      "ĠPeople": 4219,
      "editor": 4220,
      "ĠChristian": 4221,
      "ĠContent": 4222,
      "ĠEach": 4223,
      "ĠLoad": 4224,
      "bc": 4225,
      "ĠBer": 4226,
      "ĠLike": 4227,
      "ĠApache": 4228,
      "ws": 4229,
      "LY": 4230,
      "nu": 4231,
      "bd": 4232,
      "ĠTree": 4233,
      "system": 4234,
      "Mark": 4235,
      "ĠLeague": 4236,
      "!\"": 4237,
      "break": 4238,
      "Ġbag": 4239,
      "(I": 4240,
      "CR": 4241,
      "Ġmac": 4242,
      "ĠAuto": 4243,
      "acking": 4244,
      "ĠSimple": 4245,
      "Print": 4246,
      "NO": 4247,
      "oon": 4248,
      "ye": 4249,
      "ĠSET": 4250,
      "/index": 4251,
      ".xml": 4252,
      "cher": 4253,
      "ĠâĨ": 4254,
      "XT": 4255,
      "Ag": 4256,
      "ĠTwo": 4257,
      "urb": 4258,
      "Ġdry": 4259,
      "Ġexcellent": 4260,
      "ĠCouncil": 4261,
      "sa": 4262,
      "ĠSmith": 4263,
      "ista": 4264,
      "ARK": 4265,
      "about": 4266,
      "Note": 4267,
      "PRO": 4268,
      "ĠCollege": 4269,
      "ĠRock": 4270,
      "ĠStore": 4271,
      "ISE": 4272,
      "Play": 4273,
      "ĠUnion": 4274,
      "ĠBay": 4275,
      "ius": 4276,
      "well": 4277,
      "ĠSession": 4278,
      "ĠMass": 4279,
      "ema": 4280,
      "ĠAddress": 4281,
      "ĠContact": 4282,
      "ĠCA": 4283,
      "lot": 4284,
      "ĠSupport": 4285,
      "ĠClick": 4286,
      "ĠLook": 4287,
      "Lib": 4288,
      "EP": 4289,
      "hat": 4290,
      "ĠStream": 4291,
      "Ġborn": 4292,
      "ILL": 4293,
      "------------------------------------------------": 4294,
      "HTTP": 4295,
      ">)": 4296,
      "ĠEs": 4297,
      "ĠEarth": 4298,
      "ĠSP": 4299,
      "ĠChurch": 4300,
      "osh": 4301,
      "ĠFrank": 4302,
      "ãĥ»": 4303,
      "ðŁ": 4304,
      "-T": 4305,
      "Art": 4306,
      "Ġexchange": 4307,
      "ĠNext": 4308,
      "Host": 4309,
      "-P": 4310,
      "rend": 4311,
      "ĠAnn": 4312,
      "wt": 4313,
      "ati": 4314,
      "ĠHTML": 4315,
      "Ġhealthy": 4316,
      "ĠGen": 4317,
      "ĠDO": 4318,
      "ĠWord": 4319,
      "ko": 4320,
      "you": 4321,
      "âĢĿ,": 4322,
      "ĠTim": 4323,
      "Ġfactors": 4324,
      "ĠNet": 4325,
      "EG": 4326,
      "Ġcancer": 4327,
      "BL": 4328,
      "ĠChild": 4329,
      "Center": 4330,
      "Ġearth": 4331,
      "YS": 4332,
      "ĠLevel": 4333,
      "Ġsea": 4334,
      "ĠEst": 4335,
      "cos": 4336,
      "Editor": 4337,
      "ĠMP": 4338,
      "ĠLife": 4339,
      "Ġ??": 4340,
      "-D": 4341,
      "Full": 4342,
      "Ġcloud": 4343,
      "LOW": 4344,
      "ĠExt": 4345,
      "ĠEngland": 4346,
      "ĠUnder": 4347,
      "Yes": 4348,
      "ĠAut": 4349,
      "isco": 4350,
      "Ġmm": 4351,
      "ĠMad": 4352,
      "ilm": 4353,
      "AVE": 4354,
      "ĠArch": 4355,
      "Ge": 4356,
      "Ġhotel": 4357,
      "SM": 4358,
      "oz": 4359,
      "gb": 4360,
      "ĠCamp": 4361,
      "ĠCore": 4362,
      "step": 4363,
      "](": 4364,
      "ĠRoad": 4365,
      "ASH": 4366,
      "BD": 4367,
      "ĠAccess": 4368,
      "ĠManagement": 4369,
      "BER": 4370,
      "Ġestablished": 4371,
      "INS": 4372,
      "Ġidentity": 4373,
      "ĠRoute": 4374,
      "ĠHam": 4375,
      "ĠClean": 4376,
      "ĠÂ·": 4377,
      "Visual": 4378,
      "vin": 4379,
      "/n": 4380,
      "sn": 4381,
      "undefined": 4382,
      "ĠFrance": 4383,
      "ĠAD": 4384,
      "uj": 4385,
      "ĠWrite": 4386,
      "CF": 4387,
      "ĠCommission": 4388,
      "PER": 4389,
      "ĠLos": 4390,
      "ĠToken": 4391,
      "Alert": 4392,
      "Ġparties": 4393,
      "ĠContainer": 4394,
      "ĠPrivate": 4395,
      "ĠPlan": 4396,
      "yes": 4397,
      "Ġthank": 4398,
      "Hello": 4399,
      "ĠMA": 4400,
      "ĠThank": 4401,
      "ĠWall": 4402,
      "ĠMenu": 4403,
      "ĠEr": 4404,
      "ĠYear": 4405,
      "NN": 4406,
      "global": 4407,
      "Ġsecure": 4408,
      "ĠController": 4409,
      "MI": 4410,
      "-and": 4411,
      "ĠSocial": 4412,
      "ĠSpecial": 4413,
      "cf": 4414,
      "-out": 4415,
      "ĠMont": 4416,
      "dp": 4417,
      "azz": 4418,
      "ĠOUT": 4419,
      "ĠEU": 4420,
      "ĠScott": 4421,
      "anda": 4422,
      "oral": 4423,
      "Ġms": 4424,
      "See": 4425,
      "aze": 4426,
      "Ġsports": 4427,
      "Ġyes": 4428,
      "lu": 4429,
      "kr": 4430,
      "ĠGermany": 4431,
      "ĠGeorge": 4432,
      "Av": 4433,
      "ĠLocation": 4434,
      "Ġfaith": 4435,
      "Ġgod": 4436,
      "otor": 4437,
      "ĠActive": 4438,
      "ï¼Ī": 4439,
      "Space": 4440,
      "han": 4441,
      "azine": 4442,
      "ĠZe": 4443,
      "(/": 4444,
      "iva": 4445,
      "ĠLat": 4446,
      "ĠJournal": 4447,
      ")\"": 4448,
      "lets": 4449,
      "NC": 4450,
      "TS": 4451,
      "Just": 4452,
      "YP": 4453,
      "Ġwind": 4454,
      "ĠWater": 4455,
      "Ġcm": 4456,
      "Ġsam": 4457,
      "zip": 4458,
      "ĠScience": 4459,
      "Gen": 4460,
      "ĠPass": 4461,
      "vi": 4462,
      "note": 4463,
      "ĠAbout": 4464,
      "ĠInstitute": 4465,
      "news": 4466,
      "CM": 4467,
      "ping": 4468,
      "wa": 4469,
      "ĠDatabase": 4470,
      "ESS": 4471,
      ".Q": 4472,
      "Ġoffering": 4473,
      "ĠCS": 4474,
      "olo": 4475,
      "ĠAssociation": 4476,
      "Ġprepared": 4477,
      "Ġcanvas": 4478,
      "java": 4479,
      "Ġartist": 4480,
      "ĠCategory": 4481,
      "Ġ[-": 4482,
      "ĠJul": 4483,
      "Let": 4484,
      "Ġlab": 4485,
      "ĠChristmas": 4486,
      "ĠRight": 4487,
      "ĠOS": 4488,
      "BB": 4489,
      "_K": 4490,
      "ĠAP": 4491,
      "ĠRev": 4492,
      "ĠHy": 4493,
      "ĠSelf": 4494,
      "ez": 4495,
      "Ġtheory": 4496,
      "ĠTer": 4497,
      "ĠHTTP": 4498,
      "World": 4499,
      "Ġpython": 4500,
      "ĠClub": 4501,
      "Ver": 4502,
      "Ġzone": 4503,
      "Ġverify": 4504,
      "ĠMil": 4505,
      "ono": 4506,
      "Day": 4507,
      "?)": 4508,
      "ĠAfrica": 4509,
      "-ex": 4510,
      "-tr": 4511,
      "ĠBoston": 4512,
      "Pe": 4513,
      "ĠGovernment": 4514,
      "ĠLord": 4515,
      "asi": 4516,
      "Ġsweet": 4517,
      "ĠMaterial": 4518,
      "igital": 4519,
      "Why": 4520,
      "cut": 4521,
      "ĠMary": 4522,
      "ĠJO": 4523,
      "ti": 4524,
      "Use": 4525,
      "ĠPop": 4526,
      "ĠSave": 4527,
      "dy": 4528,
      "ĠIran": 4529,
      "burg": 4530,
      "/M": 4531,
      "TON": 4532,
      "Ġdump": 4533,
      "pool": 4534,
      "ĠMS": 4535,
      "Ġ(-": 4536,
      "ĠReview": 4537,
      "!(": 4538,
      "DP": 4539,
      "low": 4540,
      "ĠGrand": 4541,
      "Ġzip": 4542,
      "~~~~": 4543,
      "ĠPL": 4544,
      "Ġexperienced": 4545,
      "-on": 4546,
      "Blue": 4547,
      "bus": 4548,
      "(pro": 4549,
      "ĠCommittee": 4550,
      "ĠWeek": 4551,
      "ĠEdge": 4552,
      "ĠWatch": 4553,
      "/A": 4554,
      "uan": 4555,
      "ĠChange": 4556,
      "ĠRet": 4557,
      "zz": 4558,
      "ĠOK": 4559,
      "tc": 4560,
      "âĸ": 4561,
      "ĠRoom": 4562,
      "ĠEv": 4563,
      "ãĢį": 4564,
      "uke": 4565,
      "aria": 4566,
      "ĠSecond": 4567,
      "Ġpresented": 4568,
      "iner": 4569,
      "Ġboot": 4570,
      "Photo": 4571,
      "Ġspring": 4572,
      "ĠDictionary": 4573,
      "ĠBrown": 4574,
      "(se": 4575,
      "ĠWho": 4576,
      "Ġmp": 4577,
      "About": 4578,
      "Ġapps": 4579,
      "FR": 4580,
      "care": 4581,
      "ĠRights": 4582,
      "ulture": 4583,
      "ila": 4584,
      "asm": 4585,
      "MO": 4586,
      "Ġcommunication": 4587,
      "Ġ\"[": 4588,
      "Ġprepare": 4589,
      "ĠChicago": 4590,
      "ĠDirector": 4591,
      "ĠWil": 4592,
      "Ġmysql": 4593,
      "king": 4594,
      "ĠManager": 4595,
      "Ġsurvey": 4596,
      "ĠAC": 4597,
      "MAX": 4598,
      "ĠGrid": 4599,
      "ĠJesus": 4600,
      "free": 4601,
      "DT": 4602,
      "-the": 4603,
      "ami": 4604,
      "XML": 4605,
      "ĠRandom": 4606,
      "ĠGal": 4607,
      "ĠOld": 4608,
      "hot": 4609,
      "ĠDisplay": 4610,
      "_TH": 4611,
      "ĠCare": 4612,
      ",,": 4613,
      "ĠRT": 4614,
      "/app": 4615,
      "Memory": 4616,
      "Ġnavigation": 4617,
      "Detail": 4618,
      "Ġaudience": 4619,
      "Ġcomfortable": 4620,
      "ĠTotal": 4621,
      "ĠOp": 4622,
      "Stop": 4623,
      "Comment": 4624,
      "ĠCentral": 4625,
      "ICK": 4626,
      "ĠLove": 4627,
      "Program": 4628,
      "oor": 4629,
      "ĠShort": 4630,
      "osis": 4631,
      "lan": 4632,
      "ĠMusic": 4633,
      "ĠIsland": 4634,
      "(E": 4635,
      "Video": 4636,
      "DEX": 4637,
      "uality": 4638,
      "/re": 4639,
      "isa": 4640,
      "ĠOrgan": 4641,
      "Ġí": 4642,
      "ĠJapanese": 4643,
      "ĠPlace": 4644,
      "/x": 4645,
      "GE": 4646,
      "fb": 4647,
      "Ġcoffee": 4648,
      "TF": 4649,
      "stone": 4650,
      "ĠDevelopment": 4651,
      "ĠMaster": 4652,
      "ĠPhoto": 4653,
      "ĠSing": 4654,
      "PH": 4655,
      "Go": 4656,
      "ĠCup": 4657,
      "uns": 4658,
      "ĠWestern": 4659,
      "ĠTitle": 4660,
      "Word": 4661,
      "igan": 4662,
      "ĠVol": 4663,
      "(H": 4664,
      "ãĢĲ": 4665,
      "-R": 4666,
      "yr": 4667,
      "ĠDC": 4668,
      "ĠPal": 4669,
      "ĠHall": 4670,
      ".mod": 4671,
      "Free": 4672,
      "ĠDistrict": 4673,
      "PEC": 4674,
      ":-": 4675,
      "ĠJo": 4676,
      "ĠRiver": 4677,
      "Ġhelpful": 4678,
      "ãĢĳ": 4679,
      "oul": 4680,
      "ĠWomen": 4681,
      "ĠPolicy": 4682,
      "ishing": 4683,
      "ĠMel": 4684,
      "ĠPan": 4685,
      "LM": 4686,
      "ĠFort": 4687,
      "ĠMen": 4688,
      "Ġ!!": 4689,
      "Ġwindows": 4690,
      "ĠConnection": 4691,
      "itz": 4692,
      "ĠPeter": 4693,
      "Ġfell": 4694,
      "ĠCas": 4695,
      "Ġfeedback": 4696,
      "Speed": 4697,
      "Ġfee": 4698,
      "Build": 4699,
      "-%": 4700,
      "ĠCD": 4701,
      "bn": 4702,
      "Ġtv": 4703,
      "ĠKE": 4704,
      "Fore": 4705,
      "Mon": 4706,
      "ĠHuman": 4707,
      "iot": 4708,
      "ĠHistory": 4709,
      "ĠCollection": 4710,
      "Ġrecommended": 4711,
      "ĠThomas": 4712,
      "May": 4713,
      "ĠSection": 4714,
      "ĠThanks": 4715,
      ".\"\"": 4716,
      "Ġvision": 4717,
      "cy": 4718,
      "ĠSeries": 4719,
      "Ġtrading": 4720,
      "ĠLE": 4721,
      "ĠLive": 4722,
      "ĠðŁ": 4723,
      "VO": 4724,
      "-Z": 4725,
      "Ġcandidates": 4726,
      "VM": 4727,
      "ega": 4728,
      "acked": 4729,
      "ĠCost": 4730,
      "ĠToday": 4731,
      "ĠHead": 4732,
      "âĢĿ.": 4733,
      "-day": 4734,
      "ĠHard": 4735,
      "CI": 4736,
      "RY": 4737,
      "Ġnuclear": 4738,
      "-N": 4739,
      "ĠEnter": 4740,
      "Ġanswers": 4741,
      "ĠCross": 4742,
      "ĠChris": 4743,
      "-H": 4744,
      "VC": 4745,
      ",C": 4746,
      "ĠBuy": 4747,
      "/C": 4748,
      "ĠSettings": 4749,
      "ï¼Ł": 4750,
      "ĠSingle": 4751,
      "ĠMa": 4752,
      "ĠPet": 4753,
      "%)": 4754,
      "Ġratio": 4755,
      "ĠIL": 4756,
      "ĠUSB": 4757,
      "ĠJohnson": 4758,
      ".K": 4759,
      "ĠPDF": 4760,
      "ĠQuery": 4761,
      "ĠGirl": 4762,
      "/S": 4763,
      "ĠSym": 4764,
      "Download": 4765,
      "PG": 4766,
      "ĠJim": 4767,
      "Well": 4768,
      "ĠâĨĴ": 4769,
      "ĠPS": 4770,
      "OME": 4771,
      "ĠMO": 4772,
      "FE": 4773,
      "ĠLand": 4774,
      "ĠAcc": 4775,
      "ĠLanguage": 4776,
      "ipt": 4777,
      "RS": 4778,
      "war": 4779,
      "ĠBad": 4780,
      "-mail": 4781,
      "ĠPay": 4782,
      "ĠSol": 4783,
      "Hz": 4784,
      "ĠHelp": 4785,
      "ĠSpace": 4786,
      "ika": 4787,
      "Send": 4788,
      "useum": 4789,
      "ĠCase": 4790,
      "ĠIF": 4791,
      "Ġtip": 4792,
      "photo": 4793,
      "Ġgoogle": 4794,
      "Ġgoods": 4795,
      "vs": 4796,
      "ĠDan": 4797,
      "ĠMartin": 4798,
      "RIGHT": 4799,
      "Ok": 4800,
      "ĠNon": 4801,
      "-ch": 4802,
      "ĠEnvironment": 4803,
      "BE": 4804,
      "Ġshipping": 4805,
      "MC": 4806,
      "ĠLab": 4807,
      "ĠGames": 4808,
      "Two": 4809,
      "ĠLes": 4810,
      "Â°": 4811,
      "âĶ": 4812,
      "ĠLibrary": 4813,
      "INK": 4814,
      ".ad": 4815,
      "Global": 4816,
      "Ġexperts": 4817,
      "Ac": 4818,
      "blog": 4819,
      "xi": 4820,
      "ĠEducation": 4821,
      "ĠLake": 4822,
      "ĠHE": 4823,
      "Related": 4824,
      "ANS": 4825,
      "]-": 4826,
      "FP": 4827,
      "kins": 4828,
      "ancer": 4829,
      "ogen": 4830,
      "ãĥ¼": 4831,
      "ĠStudent": 4832,
      ")=": 4833,
      "ĠForce": 4834,
      "report": 4835,
      "ĠTw": 4836,
      "sen": 4837,
      "ĠResource": 4838,
      "ĠStandard": 4839,
      "ĠShare": 4840,
      "ĠTake": 4841,
      "ĠImages": 4842,
      "ĠJun": 4843,
      "ĠDocument": 4844,
      "eno": 4845,
      "ĠTechnology": 4846,
      "umps": 4847,
      "ĠRO": 4848,
      "Ġpp": 4849,
      "pdf": 4850,
      "aching": 4851,
      "ĠRo": 4852,
      "ĠSi": 4853,
      "Ġbuying": 4854,
      "ĠSon": 4855,
      ")?": 4856,
      "Ġcasino": 4857,
      "aus": 4858,
      "ĠKorea": 4859,
      "ĠRichard": 4860,
      "star": 4861,
      "ACH": 4862,
      "ĠXML": 4863,
      "ĠLouis": 4864,
      "/(": 4865,
      "ĠAngeles": 4866,
      "AK": 4867,
      "Oh": 4868,
      "Â®": 4869,
      "ĠGT": 4870,
      "ĠStyle": 4871,
      "rog": 4872,
      "Ġshopping": 4873,
      "OU": 4874,
      "/.": 4875,
      "Board": 4876,
      "ĠJones": 4877,
      "mac": 4878,
      "ĠOl": 4879,
      "HS": 4880,
      "High": 4881,
      "ĠDIS": 4882,
      "aux": 4883,
      "ĠUP": 4884,
      "osa": 4885,
      "Ġ\"(": 4886,
      "ĠâĪ": 4887,
      "Ġsucceed": 4888,
      "FG": 4889,
      "ANN": 4890,
      "aba": 4891,
      "-J": 4892,
      "-G": 4893,
      "ĠJob": 4894,
      "ĠClear": 4895,
      "Ġrooms": 4896,
      "ĠArea": 4897,
      "ĠLow": 4898,
      ".im": 4899,
      "uv": 4900,
      "Ġwave": 4901,
      "Mar": 4902,
      "ĠCommunity": 4903,
      "ĠLee": 4904,
      "!!!": 4905,
      "ĠSK": 4906,
      "aser": 4907,
      "Self": 4908,
      "ĠParis": 4909,
      "ĠLICENSE": 4910,
      "ĠFood": 4911,
      "ĠBi": 4912,
      "ĠIB": 4913,
      "Copy": 4914,
      "etc": 4915,
      "Ġ>>>": 4916,
      "books": 4917,
      "Share": 4918,
      "Ġprove": 4919,
      "health": 4920,
      "ĠWood": 4921,
      "ku": 4922,
      "IDE": 4923,
      "ĠWay": 4924,
      "ĠSTR": 4925,
      "Sync": 4926,
      "ĠAV": 4927,
      "ĠCEO": 4928,
      "ĠJS": 4929,
      "ĠGraph": 4930,
      "ĠiPhone": 4931,
      "ĠHD": 4932,
      "Pass": 4933,
      "ĠWin": 4934,
      "ĠGar": 4935,
      "ĠHP": 4936,
      "blue": 4937,
      "***": 4938,
      "Ġpand": 4939,
      "ĠConfiguration": 4940,
      "OG": 4941,
      "ĠFamily": 4942,
      "ĠHave": 4943,
      "cert": 4944,
      "ĠSpring": 4945,
      "ĠDark": 4946,
      "ĠNY": 4947,
      "Mr": 4948,
      "ĠCustomer": 4949,
      "mg": 4950,
      "*,": 4951,
      "ĠFound": 4952,
      "(U": 4953,
      "/F": 4954,
      "Ġxxx": 4955,
      "Network": 4956,
      "ĠLtd": 4957,
      "ĠProfile": 4958,
      "LD": 4959,
      "ĠFilter": 4960,
      "ĠPlus": 4961,
      "Ġprivacy": 4962,
      "Head": 4963,
      "ĠAudio": 4964,
      "ĠTag": 4965,
      "ĠEnergy": 4966,
      "ĠTri": 4967,
      "cloud": 4968,
      "ĠPassword": 4969,
      "ĠBur": 4970,
      "ĠWilliam": 4971,
      "ĠPosition": 4972,
      "?âĢĿ": 4973,
      "nam": 4974,
      "(V": 4975,
      "iana": 4976,
      "Ġlogo": 4977,
      "stein": 4978,
      "Ġ---": 4979,
      "Ġawesome": 4980,
      "WE": 4981,
      "-off": 4982,
      "aga": 4983,
      "VD": 4984,
      "ĠSolution": 4985,
      "OF": 4986,
      "ĠÂ«": 4987,
      "ĠFuture": 4988,
      "ĠSteel": 4989,
      "ea": 4990,
      "ĠPrime": 4991,
      "Ġcc": 4992,
      "Ġshell": 4993,
      "alo": 4994,
      "uh": 4995,
      "JS": 4996,
      "Since": 4997,
      "ĠWalk": 4998,
      "LP": 4999,
      "-free": 5000,
      "ĠEditor": 5001,
      ".edu": 5002,
      "ĠNFL": 5003,
      "aya": 5004,
      "ĠMiddle": 5005,
      "ĠGO": 5006,
      ".-": 5007,
      "ĠCR": 5008,
      ".my": 5009,
      "?,": 5010,
      "/%": 5011,
      "anna": 5012,
      "-k": 5013,
      "ĠStock": 5014,
      "ova": 5015,
      "Media": 5016,
      "ographic": 5017,
      "Help": 5018,
      "Star": 5019,
      "ĠVan": 5020,
      "ĠGuide": 5021,
      "aman": 5022,
      "ĠBeach": 5023,
      "City": 5024,
      "ĠDES": 5025,
      "zo": 5026,
      "ĠEVENT": 5027,
      "ĠRoman": 5028,
      "Ġcultural": 5029,
      "Real": 5030,
      "ĠFL": 5031,
      "Microsoft": 5032,
      "iveness": 5033,
      "Ġpdf": 5034,
      "Customer": 5035,
      "(de": 5036,
      "ìĿ´": 5037,
      "ĠNa": 5038,
      "VA": 5039,
      "ĠNight": 5040,
      ".(": 5041,
      "ĠBall": 5042,
      "ĠJoe": 5043,
      "ĠChat": 5044,
      "iper": 5045,
      "ĠPOST": 5046,
      "ĠPA": 5047,
      "ĠFrancisco": 5048,
      "ãĢĮ": 5049,
      "git": 5050,
      "Ġsky": 5051,
      "ĠCur": 5052,
      "mc": 5053,
      "Cap": 5054,
      "ĠSite": 5055,
      "ĠJavaScript": 5056,
      "Ġisland": 5057,
      "ĠPO": 5058,
      "ĠMedical": 5059,
      "Like": 5060,
      ",(": 5061,
      "ĠLA": 5062,
      "ĠMachine": 5063,
      "CB": 5064,
      "har": 5065,
      "ĠâĤ¬": 5066,
      "water": 5067,
      "ĠArm": 5068,
      "Â»": 5069,
      "-W": 5070,
      "vision": 5071,
      "ĠConnect": 5072,
      "ĠBet": 5073,
      "Subject": 5074,
      "ĠFinal": 5075,
      "ĠiTunes": 5076,
      "ĠPython": 5077,
      "iel": 5078,
      "ĠCorporation": 5079,
      "ĠValley": 5080,
      "ĠSuccess": 5081,
      "Hi": 5082,
      "ĠSn": 5083,
      "Thank": 5084,
      "-end": 5085,
      "ĠInfo": 5086,
      "John": 5087,
      "ĠAge": 5088,
      "iano": 5089,
      "ĠBed": 5090,
      "BR": 5091,
      "ĠALL": 5092,
      "ĠLED": 5093,
      "ĠPHP": 5094,
      "ĠBitcoin": 5095,
      "rank": 5096,
      "track": 5097,
      "ĠOP": 5098,
      "Ġkm": 5099,
      "oco": 5100,
      "tip": 5101,
      "ëĭ¤": 5102,
      "Ġapartment": 5103,
      "Windows": 5104,
      "ìŀ": 5105,
      "/data": 5106,
      "ĠRES": 5107,
      "(z": 5108,
      "ĠSat": 5109,
      "ĠSports": 5110,
      "ongs": 5111,
      "ĠFund": 5112,
      "UND": 5113,
      "ĠjQuery": 5114,
      "Sw": 5115,
      "ĠKar": 5116,
      "pad": 5117,
      "Auto": 5118,
      "ĠRay": 5119,
      "asse": 5120,
      "ĠYoung": 5121,
      "'S": 5122,
      "pin": 5123,
      "Ġreasonable": 5124,
      "ĠSociety": 5125,
      "rad": 5126,
      "ĠFox": 5127,
      "ĠPen": 5128,
      "Med": 5129,
      "Ġpc": 5130,
      "bal": 5131,
      "ĠSale": 5132,
      "ĠComp": 5133,
      "ĠFour": 5134,
      "/l": 5135,
      "andy": 5136,
      "-j": 5137,
      "aka": 5138,
      "ĠMB": 5139,
      "#[": 5140,
      "+(": 5141,
      "Ġdisk": 5142,
      "asp": 5143,
      "ĠYouTube": 5144,
      "VP": 5145,
      "%,": 5146,
      "ĠDaily": 5147,
      "ĠSW": 5148,
      "UX": 5149,
      "ORDER": 5150,
      "ĠMobile": 5151,
      "Material": 5152,
      "uma": 5153,
      "Ġmini": 5154,
      "-E": 5155,
      "Ġtalks": 5156,
      "ĠChannel": 5157,
      "ĠEffect": 5158,
      "ĠFar": 5159,
      "TL": 5160,
      "brand": 5161,
      "ĠTool": 5162,
      "stock": 5163,
      "ĠBon": 5164,
      "ĠTarget": 5165,
      "ĠRadio": 5166,
      "HL": 5167,
      "ĠFeb": 5168,
      "ĠKim": 5169,
      "ĠAbstract": 5170,
      "ĠCC": 5171,
      "aha": 5172,
      "Copyright": 5173,
      "ìĹ": 5174,
      "ĠRecord": 5175,
      "ĠLim": 5176,
      "ori": 5177,
      "/en": 5178,
      "ĠWilliams": 5179,
      "ĠAndrew": 5180,
      "ĠKn": 5181,
      "Ġacid": 5182,
      "ĠAsia": 5183,
      "master": 5184,
      "ĠWild": 5185,
      "LED": 5186,
      "ĠWindow": 5187,
      "ĠKeep": 5188,
      "ĠJackson": 5189,
      "ocker": 5190,
      "ERN": 5191,
      "Ġ;;": 5192,
      "AE": 5193,
      ".th": 5194,
      "ĠMid": 5195,
      "bridge": 5196,
      "ĠScript": 5197,
      "ĠModule": 5198,
      "ĠSM": 5199,
      "Pad": 5200,
      "/html": 5201,
      "Ġmg": 5202,
      "away": 5203,
      "ĠCODE": 5204,
      "axy": 5205,
      "ĠRen": 5206,
      "ĠPack": 5207,
      "ĠPo": 5208,
      "ĠSteve": 5209,
      "SI": 5210,
      "ĠFBI": 5211,
      "ernet": 5212,
      "dm": 5213,
      "ĠMemory": 5214,
      "rich": 5215,
      "ĠTools": 5216,
      "SO": 5217,
      "ĠTy": 5218,
      "ĠDevice": 5219,
      "Light": 5220,
      "food": 5221,
      "Â·": 5222,
      "Welcome": 5223,
      ".conf": 5224,
      "ĠCPU": 5225,
      "Ġperfectly": 5226,
      "ĠMovie": 5227,
      "ĠScreen": 5228,
      "aller": 5229,
      "ĠBody": 5230,
      "Ġingredients": 5231,
      "ĠTown": 5232,
      "ĠCell": 5233,
      "ĠMD": 5234,
      "ĠInstagram": 5235,
      "oda": 5236,
      "YES": 5237,
      "âĢĺ": 5238,
      "onic": 5239,
      "LES": 5240,
      "Sim": 5241,
      "ĠShop": 5242,
      "Ġstudio": 5243,
      "(W": 5244,
      "oga": 5245,
      "âĢ¦âĢ¦": 5246,
      "NOT": 5247,
      "ĠEdition": 5248,
      "White": 5249,
      "awa": 5250,
      "ĠBush": 5251,
      "ĠYES": 5252,
      "(com": 5253,
      "ĠHa": 5254,
      "ĠDigital": 5255,
      "ĠCountry": 5256,
      "/k": 5257,
      "ĠDATA": 5258,
      "oft": 5259,
      "ĠJe": 5260,
      "ĠAB": 5261,
      ".gov": 5262,
      "ĠBlog": 5263,
      "ĠCV": 5264,
      "/a": 5265,
      "ĠKnow": 5266,
      "ĠSaint": 5267,
      "ĠStop": 5268,
      "oli": 5269,
      "ĠDa": 5270,
      "Watch": 5271,
      "ĠSem": 5272,
      "ĠDog": 5273,
      "ĠBob": 5274,
      "ĠSeason": 5275,
      "ĠMir": 5276,
      "/st": 5277,
      ">.": 5278,
      "(Me": 5279,
      "ĠStack": 5280,
      "IFT": 5281,
      "uls": 5282,
      "ĠStone": 5283,
      ".âĢĻ": 5284,
      "ĠPhone": 5285,
      "ulf": 5286,
      "ĠDR": 5287,
      "watch": 5288,
      "ĠBa": 5289,
      "ĠCamera": 5290,
      "ĠLinux": 5291,
      "erd": 5292,
      "%.": 5293,
      "ê°": 5294,
      "News": 5295,
      "###": 5296,
      "xB": 5297,
      "lab": 5298,
      "illy": 5299,
      "ĠImp": 5300,
      "Ġ----------------": 5301,
      "gg": 5302,
      "ĠCa": 5303,
      "Black": 5304,
      "AW": 5305,
      "ĠIII": 5306,
      "?(": 5307,
      "amsung": 5308,
      "Google": 5309,
      "life": 5310,
      "ìł": 5311,
      "Ġtranslation": 5312,
      "Best": 5313,
      "ITS": 5314,
      "ĠCentre": 5315,
      ".tv": 5316,
      "Ġupcoming": 5317,
      "ĠDivision": 5318,
      "Company": 5319,
      "ĠLi": 5320,
      "ĠThree": 5321,
      "Ġâĸ": 5322,
      "-.": 5323,
      "ĠAsian": 5324,
      "ĠManual": 5325,
      "ĠCopy": 5326,
      "Health": 5327,
      "ĠHotel": 5328,
      "âĶĢ": 5329,
      "SR": 5330,
      "ìĦ": 5331,
      "ĠMode": 5332,
      "ĠOptions": 5333,
      "ĠDriver": 5334,
      "Question": 5335,
      "ĠAli": 5336,
      "ĠFair": 5337,
      "Dev": 5338,
      "ĠSound": 5339,
      "ĠAsh": 5340,
      "FD": 5341,
      "Team": 5342,
      "chi": 5343,
      "Connect": 5344,
      "world": 5345,
      "(.": 5346,
      "who": 5347,
      "aki": 5348,
      "ĠBasic": 5349,
      "ĠTour": 5350,
      "ĠNeed": 5351,
      "ĠPH": 5352,
      "ĠLittle": 5353,
      "twitter": 5354,
      "ãģĹ": 5355,
      "ĠStorage": 5356,
      "APP": 5357,
      "ĠSky": 5358,
      "atin": 5359,
      "ĠGR": 5360,
      "ĠOlymp": 5361,
      "Contents": 5362,
      "ICT": 5363,
      "ĠCloud": 5364,
      "ĠStep": 5365,
      "ĠâĢŀ": 5366,
      "egas": 5367,
      "ĠBL": 5368,
      "ĠMIT": 5369,
      "ĠConference": 5370,
      "Information": 5371,
      "ĠMail": 5372,
      "bro": 5373,
      "EF": 5374,
      "ĠEV": 5375,
      "ĠFront": 5376,
      "TT": 5377,
      "NI": 5378,
      "'\"": 5379,
      "ĠSystems": 5380,
      "ìļ": 5381,
      "ĠCharles": 5382,
      "BU": 5383,
      "ĠLearn": 5384,
      "âĦ": 5385,
      "ë¡": 5386,
      "Ġfunctionality": 5387,
      "/D": 5388,
      "ENU": 5389,
      "ĠConf": 5390,
      "BJ": 5391,
      "ĠActivity": 5392,
      "ĠYOU": 5393,
      "Power": 5394,
      "ĠSmall": 5395,
      "olding": 5396,
      "ĠSilver": 5397,
      "Ctrl": 5398,
      "ĠContinue": 5399,
      "ĠBoot": 5400,
      "don": 5401,
      "ĠFA": 5402,
      "ĠDead": 5403,
      "ĠSea": 5404,
      "Java": 5405,
      "ĠFormat": 5406,
      "ĠChildren": 5407,
      "ĠKingdom": 5408,
      "ĠHospital": 5409,
      "-----": 5410,
      "ĠAG": 5411,
      "ĠStory": 5412,
      "ĠJoseph": 5413,
      "ëĬ": 5414,
      "times": 5415,
      "ĠTab": 5416,
      "ĠRam": 5417,
      "PHP": 5418,
      "ĠReserved": 5419,
      "ĠCSS": 5420,
      "ĠSpeed": 5421,
      "ĠTax": 5422,
      "Who": 5423,
      "Family": 5424,
      "-for": 5425,
      ".uk": 5426,
      "TA": 5427,
      "WM": 5428,
      "avid": 5429,
      "Good": 5430,
      "Ġfoo": 5431,
      "ĠAI": 5432,
      "Ġtea": 5433,
      "iller": 5434,
      "-bit": 5435,
      "iph": 5436,
      "ĠLLC": 5437,
      "ĠPosted": 5438,
      "ĠCP": 5439,
      "Ġcd": 5440,
      "ãģ¯": 5441,
      "----------": 5442,
      "ĠItaly": 5443,
      "/main": 5444,
      "berry": 5445,
      "pd": 5446,
      "Today": 5447,
      "!.": 5448,
      "NET": 5449,
      "Ġprofessionals": 5450,
      "ĠGi": 5451,
      "ï½": 5452,
      "ĠAz": 5453,
      ".ac": 5454,
      "General": 5455,
      "iso": 5456,
      "obe": 5457,
      "asa": 5458,
      "Ġguarantee": 5459,
      "-back": 5460,
      "AI": 5461,
      "Ins": 5462,
      "ĠMagic": 5463,
      "ĠSU": 5464,
      "copyright": 5465,
      "Ġpresentation": 5466,
      "[[": 5467,
      "GO": 5468,
      "ĠOil": 5469,
      "ĠProducts": 5470,
      "ĠDNA": 5471,
      "ĠDesigner": 5472,
      "ĠStand": 5473,
      "ĠChapter": 5474,
      "ĠSwitch": 5475,
      ".it": 5476,
      "BN": 5477,
      "ĠIntel": 5478,
      "ĠSquare": 5479,
      "ĠBreak": 5480,
      "Big": 5481,
      "ĠJr": 5482,
      ".;": 5483,
      "van": 5484,
      "TV": 5485,
      "ADD": 5486,
      "Track": 5487,
      "Chat": 5488,
      "ĠPa": 5489,
      "ĠDu": 5490,
      "ãĥ³": 5491,
      "SK": 5492,
      "ĠLock": 5493,
      "merican": 5494,
      "ĠDrop": 5495,
      "Ġml": 5496,
      "ĠLas": 5497,
      "egan": 5498,
      ".<": 5499,
      "ãģ®": 5500,
      "ĠSmart": 5501,
      "TK": 5502,
      "/G": 5503,
      "Although": 5504,
      "ĠAcademy": 5505,
      "ĠMeta": 5506,
      "ĠSales": 5507,
      "-K": 5508,
      "ĠSa": 5509,
      "best": 5510,
      "Ġcss": 5511,
      "ĠHit": 5512,
      "pf": 5513,
      "omo": 5514,
      "REAM": 5515,
      "People": 5516,
      "ë¥": 5517,
      "Tags": 5518,
      "Basic": 5519,
      "Abstract": 5520,
      "ĠLy": 5521,
      "ĠRose": 5522,
      "eman": 5523,
      "hd": 5524,
      "ĠSanta": 5525,
      "ĠCoast": 5526,
      ".pdf": 5527,
      "Cr": 5528,
      ".gif": 5529,
      "Tip": 5530,
      "ANK": 5531,
      "ĠFC": 5532,
      "km": 5533,
      ")>": 5534,
      "AMP": 5535,
      "Direct": 5536,
      "ARI": 5537,
      "yo": 5538,
      "ĠED": 5539,
      "ĠiOS": 5540,
      "Cloud": 5541,
      "ĠFun": 5542,
      "ĠUpdated": 5543,
      "ĠSY": 5544,
      "ĠNAS": 5545,
      "ĠHost": 5546,
      "Sound": 5547,
      "mid": 5548,
      "âĦ¢": 5549,
      "ĠBattle": 5550,
      "GA": 5551,
      "ĠKorean": 5552,
      "ĠAvailable": 5553,
      ".twitter": 5554,
      "ĠDragon": 5555,
      "ĠDrive": 5556,
      "ĠTraining": 5557,
      "ãģ§": 5558,
      "ĠNEW": 5559,
      "ĠMah": 5560,
      "ĠBoy": 5561,
      "íķĺ": 5562,
      "ĠRoyal": 5563,
      "Ġvital": 5564,
      "FB": 5565,
      "ĠResources": 5566,
      "iy": 5567,
      "âĢĶâĢĶâĢĶâĢĶ": 5568,
      "Ġìŀ": 5569,
      "ĠIR": 5570,
      "ĠFREE": 5571,
      "ĠQueen": 5572,
      "ĠCredit": 5573,
      "/B": 5574,
      "IER": 5575,
      "ĠME": 5576,
      "!)": 5577,
      "ĠFrame": 5578,
      "ĠMuseum": 5579,
      "etric": 5580,
      "/P": 5581,
      "Ġgit": 5582,
      "ĠAk": 5583,
      "ĠAh": 5584,
      "(J": 5585,
      "ĠDefense": 5586,
      "ĠAgency": 5587,
      "FX": 5588,
      "ĠDisney": 5589,
      "Ġai": 5590,
      "MIN": 5591,
      "yt": 5592,
      "ĠBrand": 5593,
      "ĠGUI": 5594,
      "ĠRange": 5595,
      "/i": 5596,
      "ĠTaylor": 5597,
      "ĠTheme": 5598,
      "ISH": 5599,
      "ĠKr": 5600,
      "ĠPacific": 5601,
      "ĠRos": 5602,
      "oku": 5603,
      ".do": 5604,
      "GS": 5605,
      "DL": 5606,
      "Del": 5607,
      "ĠDI": 5608,
      "/e": 5609,
      "iga": 5610,
      "ĠOpt": 5611,
      "wan": 5612,
      "ëĬĶ": 5613,
      "------": 5614,
      "PAR": 5615,
      "ãģĦ": 5616,
      "ĠSA": 5617,
      "DX": 5618,
      "ĠEngineering": 5619,
      "ĠFish": 5620,
      "ĠCourse": 5621,
      "ĠStation": 5622,
      "ĠFilm": 5623,
      "Article": 5624,
      "ĠFR": 5625,
      "ĠSide": 5626,
      "Ġdemo": 5627,
      "SB": 5628,
      "ĠMIN": 5629,
      "Mail": 5630,
      "ĠNative": 5631,
      "Ġconvenient": 5632,
      "ĠAdministration": 5633,
      "ãģ¾": 5634,
      "ĠOperation": 5635,
      "/T": 5636,
      "(K": 5637,
      "hu": 5638,
      "ì§": 5639,
      "FIN": 5640,
      "ĠìĿ": 5641,
      "Ġê°": 5642,
      "Gu": 5643,
      "Private": 5644,
      "ĠSL": 5645,
      "CU": 5646,
      "ĠTrust": 5647,
      "ĠPod": 5648,
      "ĠIV": 5649,
      "âĻ": 5650,
      "SW": 5651,
      "oca": 5652,
      "ĠBuilding": 5653,
      "ĠSpirit": 5654,
      "ĠEM": 5655,
      "ĠPackage": 5656,
      "ĠZealand": 5657,
      "ĠBang": 5658,
      "ĠSu": 5659,
      "ĠBand": 5660,
      "ĠFactory": 5661,
      "ĠBible": 5662,
      "ĠInn": 5663,
      "Win": 5664,
      "TD": 5665,
      "âĶĢâĶĢ": 5666,
      "HA": 5667,
      "ĠTX": 5668,
      "bank": 5669,
      "ARS": 5670,
      "!!!!": 5671,
      "HR": 5672,
      "ĠÂł": 5673,
      "ĠLP": 5674,
      "ĠMajor": 5675,
      "ĠAvenue": 5676,
      "!,": 5677,
      "KN": 5678,
      "Ġ***": 5679,
      "aro": 5680,
      "ureau": 5681,
      "ĠReference": 5682,
      "ĠSeg": 5683,
      "ĠTrade": 5684,
      "ãģĻ": 5685,
      "ĠWi": 5686,
      "ĠChrome": 5687,
      "ĠNation": 5688,
      "THE": 5689,
      "ĠOriginal": 5690,
      "bell": 5691,
      "ĠQuick": 5692,
      "ĠEL": 5693,
      ",[": 5694,
      "ĠFlash": 5695,
      "ĠHo": 5696,
      "ĠFast": 5697,
      "ANY": 5698,
      "ĠAward": 5699,
      "ĠFestival": 5700,
      "'T": 5701,
      ".me": 5702,
      "ĠMoon": 5703,
      "quiry": 5704,
      "PRE": 5705,
      "ĠCat": 5706,
      "etr": 5707,
      "Posted": 5708,
      "ĠTech": 5709,
      "ĠFiles": 5710,
      "ë¡ľ": 5711,
      "ĠRelease": 5712,
      "ĠNBA": 5713,
      "dn": 5714,
      "ĠExpress": 5715,
      "ĠComputer": 5716,
      "ĠWilson": 5717,
      "ĠMulti": 5718,
      "ĠSep": 5719,
      "Ġcharacteristics": 5720,
      "POS": 5721,
      "ĠPlatform": 5722,
      "ĠPin": 5723,
      "ĠSV": 5724,
      "NUM": 5725,
      "ĠFinancial": 5726,
      "Ġprinciple": 5727,
      ",.": 5728,
      "ĠArts": 5729,
      "/O": 5730,
      "ĠForum": 5731,
      "ĠCit": 5732,
      "mann": 5733,
      "WD": 5734,
      "ÃĹ": 5735,
      "ĠVegas": 5736,
      "ĠHenry": 5737,
      "-i": 5738,
      "BT": 5739,
      "contents": 5740,
      "ĠOFF": 5741,
      "RF": 5742,
      "ĠMotor": 5743,
      "MAP": 5744,
      "DI": 5745,
      "ĠSin": 5746,
      "ĠMoney": 5747,
      "âĺ": 5748,
      "ĠNT": 5749,
      "ĠComments": 5750,
      "ĠTen": 5751,
      "Redirect": 5752,
      "ê¸": 5753,
      "ĠâĢĻ": 5754,
      "ĠCy": 5755,
      "ĠCover": 5756,
      "ĠHope": 5757,
      "/?": 5758,
      "oming": 5759,
      "ĠET": 5760,
      "ĠReading": 5761,
      "UA": 5762,
      "tech": 5763,
      "ĠVM": 5764,
      "SV": 5765,
      "bp": 5766,
      "ĠGolden": 5767,
      "ĠDream": 5768,
      "ĠBooks": 5769,
      "ĠPlant": 5770,
      "!âĢĿ": 5771,
      "LA": 5772,
      "Â§": 5773,
      "ĠPER": 5774,
      "ĠPaper": 5775,
      "(con": 5776,
      "ìĿĦ": 5777,
      "ĠExecutive": 5778,
      "ĠBell": 5779,
      "~~~~~~~~": 5780,
      "ĠGro": 5781,
      "ĠEver": 5782,
      "PN": 5783,
      "Ġhd": 5784,
      "ARM": 5785,
      "ĠAPP": 5786,
      "ĠSN": 5787,
      "WR": 5788,
      "ĠQuality": 5789,
      "(email": 5790,
      ")|": 5791,
      "Story": 5792,
      "hl": 5793,
      "ĠHeart": 5794,
      "Ġ(+": 5795,
      "jpg": 5796,
      "Ġpreparation": 5797,
      "(first": 5798,
      "Zero": 5799,
      ".go": 5800,
      "ĠDirectory": 5801,
      "ĠBC": 5802,
      "Master": 5803,
      "ĠDOM": 5804,
      "ìĬ": 5805,
      "nb": 5806,
      ".....": 5807,
      "mx": 5808,
      "-----------": 5809,
      "ĠCM": 5810,
      "ĠDVD": 5811,
      "ĠBBC": 5812,
      "ĠTravel": 5813,
      "ĠRule": 5814,
      "ĠESP": 5815,
      "ĠINC": 5816,
      "TIME": 5817,
      "Ġcompatible": 5818,
      "ĠMicro": 5819,
      "ĠIE": 5820,
      "hou": 5821,
      "fish": 5822,
      "ĠSS": 5823,
      "ĠDeep": 5824,
      "RGB": 5825,
      "ĠSport": 5826,
      "ĠKong": 5827,
      "/home": 5828,
      "FW": 5829,
      "ĠMY": 5830,
      "Ġfer": 5831,
      "ĠMarketing": 5832,
      "ĠVen": 5833,
      "ĠNAT": 5834,
      "ĠModern": 5835,
      "ĠBB": 5836,
      "*****": 5837,
      "Old": 5838,
      "ĠTE": 5839,
      "DK": 5840,
      "ĠZero": 5841,
      "oro": 5842,
      "ĠAnalysis": 5843,
      "apa": 5844,
      "MIT": 5845,
      "obi": 5846,
      "PLAY": 5847,
      "agan": 5848,
      "rix": 5849,
      "Mobile": 5850,
      "ĠGa": 5851,
      "ĠCapital": 5852,
      "Original": 5853,
      "ĠSamsung": 5854,
      "ë¥¼": 5855,
      "SY": 5856,
      "ĠArr": 5857,
      "ecurity": 5858,
      "ĠNormal": 5859,
      "ĠFarm": 5860,
      "MR": 5861,
      "ĠMORE": 5862,
      "ĠNatural": 5863,
      "WT": 5864,
      ".:": 5865,
      "WORK": 5866,
      "ĠMI": 5867,
      "opper": 5868,
      "works": 5869,
      "there": 5870,
      "good": 5871,
      "LI": 5872,
      "ĠLiving": 5873,
      "Ġkt": 5874,
      "ĠStudio": 5875,
      "ĠCT": 5876,
      "Ġìł": 5877,
      "ĠFace": 5878,
      "ĠBus": 5879,
      "ĠEasy": 5880,
      "ĠMountain": 5881,
      "ĠDoctor": 5882,
      "ĠMedicine": 5883,
      "ĠTemple": 5884,
      "ĠClo": 5885,
      "ĠSafety": 5886,
      "ĠExchange": 5887,
      "wr": 5888,
      "ĠStudies": 5889,
      ")',": 5890,
      "iu": 5891,
      "(ID": 5892,
      "AO": 5893,
      "ĠPoly": 5894,
      "VR": 5895,
      "ĠMade": 5896,
      "ĠBR": 5897,
      "WEB": 5898,
      "ĠPattern": 5899,
      "ĠSummer": 5900,
      "Chain": 5901,
      "(...": 5902,
      "ĠGB": 5903,
      "ĠPrivacy": 5904,
      "Flow": 5905,
      "sudo": 5906,
      "ĠSnow": 5907,
      "ĠLimited": 5908,
      "Î±": 5909,
      "(Data": 5910,
      "SN": 5911,
      "ĠSong": 5912,
      "ĠTalk": 5913,
      "WW": 5914,
      "ĠâĢĿ": 5915,
      "ĠChem": 5916,
      "ĠGarden": 5917,
      "ĠÎ±": 5918,
      "edi": 5919,
      "ĠEP": 5920,
      "ĠForeign": 5921,
      "ĠMT": 5922,
      "ĠSELECT": 5923,
      "sure": 5924,
      "pot": 5925,
      "ICS": 5926,
      "EA": 5927,
      "ELL": 5928,
      "ĠNations": 5929,
      "HD": 5930,
      "MY": 5931,
      "ĠVR": 5932,
      "ĠProtection": 5933,
      "ĠGM": 5934,
      "ĠStudy": 5935,
      "]\"": 5936,
      "ĠHong": 5937,
      "ãģ¨": 5938,
      "@@": 5939,
      "kk": 5940,
      "Ready": 5941,
      "ĠMetal": 5942,
      "ĠPersonal": 5943,
      "ĠMix": 5944,
      "(O": 5945,
      "ĠInstall": 5946,
      "Software": 5947,
      "Super": 5948,
      "ĠES": 5949,
      "ĠIC": 5950,
      "Sk": 5951,
      "ĠGallery": 5952,
      "market": 5953,
      "pal": 5954,
      "Christ": 5955,
      "Ġguaranteed": 5956,
      "ĠTouch": 5957,
      "(tag": 5958,
      "ĠABC": 5959,
      "ĠManchester": 5960,
      "share": 5961,
      "Stock": 5962,
      "ĠPT": 5963,
      "/R": 5964,
      "ìĹĲ": 5965,
      ".exe": 5966,
      "ĠBal": 5967,
      "FI": 5968,
      "Review": 5969,
      "itis": 5970,
      "ĠEuro": 5971,
      "(co": 5972,
      "OO": 5973,
      "ĠLL": 5974,
      "ĠCAN": 5975,
      "MAIL": 5976,
      "USH": 5977,
      "Ġsatisfied": 5978,
      "ĠUSD": 5979,
      "Mac": 5980,
      "Green": 5981,
      "ĠOfficer": 5982,
      "CV": 5983,
      "Online": 5984,
      ".facebook": 5985,
      "Aut": 5986,
      "âĢĻ,": 5987,
      "ĠML": 5988,
      "-V": 5989,
      "/_": 5990,
      "nm": 5991,
      "ĠMini": 5992,
      "ĠCut": 5993,
      "ãģ«": 5994,
      "ĠGalaxy": 5995,
      "ãĥĪ": 5996,
      "ĠWE": 5997,
      "LAB": 5998,
      "ĠJean": 5999,
      "ĠArc": 6000,
      "PF": 6001,
      "ĠBag": 6002,
      "ĠPick": 6003,
      "Station": 6004,
      "ĠCNN": 6005,
      "ĠRate": 6006,
      "Standard": 6007,
      "ĠTrack": 6008,
      ".gl": 6009,
      "Shop": 6010,
      "ĠASC": 6011,
      "ĠBM": 6012,
      "ĠWordPress": 6013,
      "ĠBerlin": 6014,
      "club": 6015,
      "ĠMas": 6016,
      "ĠBridge": 6017,
      "BF": 6018,
      "ĠAF": 6019,
      "(http": 6020,
      "WH": 6021,
      "BY": 6022,
      "*.": 6023,
      "ĠMask": 6024,
      "ĠGer": 6025,
      "ĠIce": 6026,
      "ĠCOVID": 6027,
      "ê°Ģ": 6028,
      "ĠXXX": 6029,
      "Pal": 6030,
      "ĠForest": 6031,
      "amine": 6032,
      "ĠNG": 6033,
      "ĠInterface": 6034,
      "Ġnan": 6035,
      "ĠAlexander": 6036,
      "Â©": 6037,
      "Ġpreparing": 6038,
      "Excel": 6039,
      "ĠNC": 6040,
      "ĠGirls": 6041,
      "ĠThings": 6042,
      "Ġapt": 6043,
      "ë¦": 6044,
      "ĠWinter": 6045,
      "ï¼ĳ": 6046,
      "LR": 6047,
      "Ġíķ": 6048,
      ".youtube": 6049,
      ">>>": 6050,
      "ĠKh": 6051,
      "ĠWelcome": 6052,
      "Hot": 6053,
      "ĠFly": 6054,
      "ĠVisual": 6055,
      "ĠDM": 6056,
      "ĠBased": 6057,
      "(Y": 6058,
      "?'": 6059,
      "ĠEquipment": 6060,
      "ĠVolume": 6061,
      "/o": 6062,
      "ĠÂ±": 6063,
      "/N": 6064,
      "Pa": 6065,
      "%(": 6066,
      "ĠFather": 6067,
      "Live": 6068,
      "[T": 6069,
      "?id": 6070,
      "Special": 6071,
      "anne": 6072,
      "ĠOrganization": 6073,
      "ĠCulture": 6074,
      "ìĿĺ": 6075,
      "rik": 6076,
      "Ps": 6077,
      "âĢ¦.": 6078,
      "VT": 6079,
      "Design": 6080,
      "ĠCasino": 6081,
      "ĠRoss": 6082,
      "Plan": 6083,
      "ê¸°": 6084,
      "Facebook": 6085,
      "SIZE": 6086,
      "elli": 6087,
      "rock": 6088,
      "ĠGetty": 6089,
      "ĠHAL": 6090,
      "UF": 6091,
      "ĠSingapore": 6092,
      "ĠXbox": 6093,
      "ĠDS": 6094,
      "\"'": 6095,
      "NEW": 6096,
      "Pay": 6097,
      "ĠElectric": 6098,
      "OB": 6099,
      "ĠBaby": 6100,
      "ĠEC": 6101,
      "ĠPi": 6102,
      "GM": 6103,
      "ĠAnderson": 6104,
      "ĠHan": 6105,
      "bid": 6106,
      "ĠPerformance": 6107,
      "ĠNA": 6108,
      "iri": 6109,
      "ĠAirport": 6110,
      "ĠCI": 6111,
      "Her": 6112,
      "ĠAgent": 6113,
      "ĠVirtual": 6114,
      "ĠGlass": 6115,
      "ĠRemote": 6116,
      "ĠMi": 6117,
      "LET": 6118,
      "ĠFootball": 6119,
      "oni": 6120,
      "ĠCF": 6121,
      "ĠExperience": 6122,
      ".COM": 6123,
      "ĠGas": 6124,
      "ĠSony": 6125,
      "ĠMC": 6126,
      "ĠSR": 6127,
      "ĠVA": 6128,
      "Ġxx": 6129,
      "ĠLearning": 6130,
      "BIT": 6131,
      "ĠYOUR": 6132,
      "facebook": 6133,
      "-------": 6134,
      "ĠKit": 6135,
      "Ġstudying": 6136,
      "ĠMetro": 6137,
      "Ġrefund": 6138,
      "Ġkg": 6139,
      "ĠSuite": 6140,
      "ĠRGB": 6141,
      ".zip": 6142,
      "ĠSTART": 6143,
      "ĠHi": 6144,
      "sid": 6145,
      "ĠExcel": 6146,
      "VIEW": 6147,
      "ĠDomain": 6148,
      "ĠKC": 6149,
      "Ġâī": 6150,
      "ĠWorks": 6151,
      "ĠBT": 6152,
      "ĠACT": 6153,
      "ĠGit": 6154,
      "<>": 6155,
      "ëĵ": 6156,
      "ĠThink": 6157,
      "ĠAdvanced": 6158,
      ",S": 6159,
      "UTC": 6160,
      "ĠDays": 6161,
      "Present": 6162,
      "DIS": 6163,
      "...\"": 6164,
      "ï½ŀ": 6165,
      "mic": 6166,
      "ĠCircle": 6167,
      "itas": 6168,
      "GBT": 6169,
      "ĠProfessional": 6170,
      "/ch": 6171,
      "ĠAve": 6172,
      "kb": 6173,
      "ĠSimon": 6174,
      "ĠCB": 6175,
      "ì§Ģ": 6176,
      "ĠNature": 6177,
      "Ġconfusion": 6178,
      "ĠHat": 6179,
      "MON": 6180,
      "ĠLoop": 6181,
      "ĠDJ": 6182,
      "ĠAssistant": 6183,
      "ĠIntelligence": 6184,
      "Great": 6185,
      "ĠOracle": 6186,
      "ĠNASA": 6187,
      "omi": 6188,
      "ĠMagazine": 6189,
      "ĠCIA": 6190,
      "-I": 6191,
      "ĠCarbon": 6192,
      "ĠTAG": 6193,
      "uki": 6194,
      "ĠRing": 6195,
      "ìĭ": 6196,
      "POINT": 6197,
      "DU": 6198,
      "ëł": 6199,
      "ĠOcean": 6200,
      "âĢ³": 6201,
      "ĠRC": 6202,
      "ATT": 6203,
      ")'": 6204,
      "ĠSEC": 6205,
      "fly": 6206,
      "RP": 6207,
      "ãĤ¹": 6208,
      "ĠMM": 6209,
      "ĠInsurance": 6210,
      "Di": 6211,
      "âĪ": 6212,
      "ovo": 6213,
      "ĠUnity": 6214,
      "ĠRome": 6215,
      "burn": 6216,
      "your": 6217,
      "ĠFO": 6218,
      "ĠHu": 6219,
      "ĠPE": 6220,
      "Plus": 6221,
      "/web": 6222,
      "ĠSteam": 6223,
      "Android": 6224,
      "ĠClassic": 6225,
      "âķ": 6226,
      "ĠCorp": 6227,
      "^^": 6228,
      "ĠDynamic": 6229,
      "ĠNi": 6230,
      "Ġ....": 6231,
      "ĠRain": 6232,
      "ĠAuthority": 6233,
      ".us": 6234,
      "ĠHello": 6235,
      "ĠTower": 6236,
      "ĠISO": 6237,
      "ĠOrange": 6238,
      "ĠLCD": 6239,
      "Si": 6240,
      "IAN": 6241,
      "ê³": 6242,
      "Ġ'(": 6243,
      "TM": 6244,
      "ĠRAM": 6245,
      "Ġë°": 6246,
      "ĠCBD": 6247,
      "ĠRF": 6248,
      "PEG": 6249,
      "ĠWIN": 6250,
      "ĠADC": 6251,
      "ĠWind": 6252,
      "TY": 6253,
      "ĠRevolution": 6254,
      "ĠSolid": 6255,
      "ĠUL": 6256,
      "ĠMult": 6257,
      "ãģĵ": 6258,
      "/W": 6259,
      "ĠZone": 6260,
      "ĠExport": 6261,
      ".dll": 6262,
      "tv": 6263,
      "[N": 6264,
      "ĠTIME": 6265,
      "PK": 6266,
      "UV": 6267,
      "GG": 6268,
      "ĠVue": 6269,
      "/local": 6270,
      "ĠiPad": 6271,
      "China": 6272,
      "David": 6273,
      "ĠSafe": 6274,
      "ĠHR": 6275,
      "ĠKa": 6276,
      "MAN": 6277,
      "ĠTi": 6278,
      "ĠCash": 6279,
      "United": 6280,
      "ĠGC": 6281,
      ",âĢĻ": 6282,
      "ĠSciences": 6283,
      "ĠNOW": 6284,
      "ĠVictoria": 6285,
      "Ġdevast": 6286,
      "ĠFlow": 6287,
      "ĠFinance": 6288,
      "HC": 6289,
      "ĠAST": 6290,
      "addy": 6291,
      "/view": 6292,
      "-get": 6293,
      "ĠAgreement": 6294,
      "ĠVietnam": 6295,
      "ĠFriends": 6296,
      "-'": 6297,
      "ĠEntertainment": 6298,
      "[A": 6299,
      "ĠKids": 6300,
      "wy": 6301,
      "ĠEconomic": 6302,
      "English": 6303,
      "ĠPI": 6304,
      "Bay": 6305,
      "SSL": 6306,
      "ĠAsset": 6307,
      "LF": 6308,
      "ĠâĶ": 6309,
      "III": 6310,
      "ĠPent": 6311,
      "ĠNetflix": 6312,
      "ĠAwards": 6313,
      "ĠHIV": 6314,
      "ĠGPU": 6315,
      "ĠSolutions": 6316,
      "WO": 6317,
      "Fi": 6318,
      "(<": 6319,
      "Business": 6320,
      "ĠPool": 6321,
      "ĠLayer": 6322,
      "---------": 6323,
      "ĠHold": 6324,
      "ĠAlliance": 6325,
      "ĠEarly": 6326,
      ";;;;": 6327,
      "ĠNintendo": 6328,
      "ĠPartners": 6329,
      "ĠExtract": 6330,
      "ĠTel": 6331,
      "jan": 6332,
      "azer": 6333,
      "GC": 6334,
      "TX": 6335,
      "ĠKy": 6336,
      "ĠMAC": 6337,
      "ĠSIM": 6338,
      "ĠSant": 6339,
      "ĠMind": 6340,
      "Ġcertified": 6341,
      "ĠProvider": 6342,
      "ĠBor": 6343,
      "tel": 6344,
      "Ġfacebook": 6345,
      "ĠPush": 6346,
      "ĠMorgan": 6347,
      "ĠTS": 6348,
      "ĠAnti": 6349,
      "?v": 6350,
      "ĠBot": 6351,
      "ĠMaria": 6352,
      "ĠRaw": 6353,
      "PD": 6354,
      "BOX": 6355,
      "NY": 6356,
      "ĠJobs": 6357,
      "ĠAngel": 6358,
      "Ġuncert": 6359,
      "ĠìĿ´": 6360,
      "ĠFig": 6361,
      "Ġkr": 6362,
      "uo": 6363,
      "ĠSyn": 6364,
      "ĠWM": 6365,
      "/search": 6366,
      "ĠTransfer": 6367,
      "ĠLaunch": 6368,
      "ĠMission": 6369,
      "ĠRS": 6370,
      "(App": 6371,
      "LU": 6372,
      "ĠAWS": 6373,
      "ĠWP": 6374,
      "ìĪĺ": 6375,
      "Ġapple": 6376,
      "Ĥ¹": 6377,
      ".htm": 6378,
      "=/": 6379,
      "ĠTa": 6380,
      "ĠSpot": 6381,
      "ĠFT": 6382,
      "WIN": 6383,
      "ĠMSG": 6384,
      "omics": 6385,
      "INESS": 6386,
      "ĠGPS": 6387,
      "Fit": 6388,
      "/H": 6389,
      "ĠHappy": 6390,
      "support": 6391,
      "ĠQuestions": 6392,
      "_AR": 6393,
      "ĠLG": 6394,
      "PDF": 6395,
      "ĠBetter": 6396,
      "Ĺı": 6397,
      "ĠFM": 6398,
      "ĠSF": 6399,
      "ĠGeneration": 6400,
      "Disc": 6401,
      "ogo": 6402,
      "(IN": 6403,
      "ĠNBC": 6404,
      "ĠBio": 6405,
      "Pod": 6406,
      "Ã¬": 6407,
      "aku": 6408,
      "AZ": 6409,
      "ĠForms": 6410,
      "íķľ": 6411,
      "ĠSurvey": 6412,
      "ĠFed": 6413,
      "âĢĻ.": 6414,
      "-O": 6415,
      "iko": 6416,
      "ĠCambridge": 6417,
      "/-": 6418,
      "RM": 6419,
      "exus": 6420,
      "ĠSwift": 6421,
      "ĠNHL": 6422,
      "izen": 6423,
      "ĠAlt": 6424,
      "ĠGP": 6425,
      "Â«": 6426,
      "COMP": 6427,
      "San": 6428,
      "ĠFramework": 6429,
      "Ġmk": 6430,
      "OTT": 6431,
      "HO": 6432,
      "ĠIndustry": 6433,
      "ĠBluetooth": 6434,
      "Ġìķ": 6435,
      "Flash": 6436,
      "ĠWriting": 6437,
      "Ġê²": 6438,
      "HI": 6439,
      "Office": 6440,
      "ĠCool": 6441,
      "ĠIndonesia": 6442,
      "ĠTM": 6443,
      "ĠArchitect": 6444,
      "ĠCBS": 6445,
      "ĠONE": 6446,
      "ĠProduction": 6447,
      "xxx": 6448,
      "ĠEnvironmental": 6449,
      "ĠVillage": 6450,
      "ĠSoft": 6451,
      "(Int": 6452,
      "hn": 6453,
      ".ca": 6454,
      "ISO": 6455,
      "ãĤ¤": 6456,
      "ĠCreative": 6457,
      "YN": 6458,
      ".or": 6459,
      "ĠFS": 6460,
      "ĠAMD": 6461,
      "Quick": 6462,
      "umi": 6463,
      "USA": 6464,
      "ĠCookie": 6465,
      "Ġphp": 6466,
      "ĠJet": 6467,
      ".),": 6468,
      "GP": 6469,
      "ĠSolar": 6470,
      "ĠNV": 6471,
      "ĠYang": 6472,
      "ĠMEM": 6473,
      "ĠìĹ": 6474,
      "ĠGMT": 6475,
      "UK": 6476,
      "ĠDA": 6477,
      "ĠIndustrial": 6478,
      "ĠTan": 6479,
      "ĠTechnologies": 6480,
      "ĠProtocol": 6481,
      "ĠTC": 6482,
      "Ġoz": 6483,
      "gate": 6484,
      "eo": 6485,
      "ĠScale": 6486,
      "TABLE": 6487,
      "ĠStars": 6488,
      ".aspx": 6489,
      "yll": 6490,
      "ĠVehicle": 6491,
      "ĠAlpha": 6492,
      "ĠFan": 6493,
      ".]": 6494,
      "Tom": 6495,
      "Ah": 6496,
      "ĠÃĹ": 6497,
      "amen": 6498,
      "/product": 6499,
      "ãĤĵ": 6500,
      "ĠXP": 6501,
      "ĠPK": 6502,
      "Shift": 6503,
      "design": 6504,
      "Twitter": 6505,
      "ĠCN": 6506,
      "ĠDeveloper": 6507,
      "ìĬ¤": 6508,
      "ĠWS": 6509,
      "Fn": 6510,
      "ï¼Ĵ": 6511,
      "ĠViews": 6512,
      "ĠHarvard": 6513,
      "ĠNET": 6514,
      "ĠSEO": 6515,
      "Ġ\\\\": 6516,
      "ĠIDC": 6517,
      "ĠTOP": 6518,
      "ĠDT": 6519,
      "ĠKB": 6520,
      "South": 6521,
      "Chapter": 6522,
      "ĠSIG": 6523,
      "TING": 6524,
      "ĠPinterest": 6525,
      "ãĢĭ": 6526,
      "ĠTs": 6527,
      "abi": 6528,
      "hop": 6529,
      "Ġâĺ": 6530,
      "Recent": 6531,
      "Spring": 6532,
      "ĠCancer": 6533,
      "ĠReader": 6534,
      "GN": 6535,
      "TEX": 6536,
      "ĠConsumer": 6537,
      "ĠIssue": 6538,
      "ĠSB": 6539,
      "ĠChallenge": 6540,
      "adoop": 6541,
      "Mc": 6542,
      "rin": 6543,
      "Paul": 6544,
      "OTH": 6545,
      "VI": 6546,
      "ĠSSL": 6547,
      "ĠSIZE": 6548,
      "=&": 6549,
      "/new": 6550,
      "TOP": 6551,
      "GT": 6552,
      "Cam": 6553,
      "Ġsudo": 6554,
      "ABC": 6555,
      "ĠREST": 6556,
      "ĠCOLOR": 6557,
      "unto": 6558,
      "techn": 6559,
      "WC": 6560,
      "ĠYellow": 6561,
      "ĠCommunications": 6562,
      "ĠEnterprise": 6563,
      "ĠRestaurant": 6564,
      "ĠUniversal": 6565,
      "/wiki": 6566,
      "Ġâľ": 6567,
      "Ġsketch": 6568,
      "SEC": 6569,
      "ĠCommons": 6570,
      "FM": 6571,
      "Mo": 6572,
      "IDS": 6573,
      "Zoom": 6574,
      "/E": 6575,
      "online": 6576,
      "ĠPremium": 6577,
      "ĠAlbum": 6578,
      "WP": 6579,
      "-us": 6580,
      "ĠRy": 6581,
      "ĠINS": 6582,
      "Air": 6583,
      "íĬ": 6584,
      "ìŀĲ": 6585,
      "Ġnm": 6586,
      "ĠMAN": 6587,
      "Life": 6588,
      "maker": 6589,
      "ãģª": 6590,
      "MAC": 6591,
      "ĠPeace": 6592,
      "ĠRED": 6593,
      "ĠMeet": 6594,
      "Bank": 6595,
      "ĠACC": 6596,
      "Amazon": 6597,
      "ĠConvention": 6598,
      "âĨ": 6599,
      "ĠFirefox": 6600,
      ")_": 6601,
      "IPS": 6602,
      "Ġ:)": 6603,
      "?!": 6604,
      "Alt": 6605,
      "ï¼Ĳ": 6606,
      "USB": 6607,
      "VS": 6608,
      "Â½": 6609,
      "ĠCoffee": 6610,
      "ĠPAR": 6611,
      "Ġ(âĢľ": 6612,
      "Ġlg": 6613,
      "BP": 6614,
      "ĠCAP": 6615,
      "ĠPink": 6616,
      "ĠFlex": 6617,
      "JO": 6618,
      "ĠEPA": 6619,
      "ANC": 6620,
      "ĠTokyo": 6621,
      "ĠESPN": 6622,
      "ĠDelivery": 6623,
      "/watch": 6624,
      "ĠGuest": 6625,
      "ĠTheatre": 6626,
      "NP": 6627,
      "ĠCoin": 6628,
      "âĺħ": 6629,
      "-Fi": 6630,
      "FORMATION": 6631,
      "Social": 6632,
      "NR": 6633,
      "ìľ": 6634,
      "ĠMySQL": 6635,
      "ĠGA": 6636,
      "WA": 6637,
      "KA": 6638,
      "ĠCu": 6639,
      "ĠSpark": 6640,
      "ĠPD": 6641,
      "story": 6642,
      "Har": 6643,
      "/y": 6644,
      "ĠER": 6645,
      "ĠPOS": 6646,
      "ĠSTE": 6647,
      "ĠShift": 6648,
      "office": 6649,
      "Ġ\"-\"": 6650,
      "ĠðŁĺ": 6651,
      "ĠHub": 6652,
      "ĠIdentity": 6653,
      "ĠCampaign": 6654,
      "/#": 6655,
      "ĠMotion": 6656,
      "Apple": 6657,
      "Scan": 6658,
      "Analysis": 6659,
      "Ġdocker": 6660,
      "????": 6661,
      "TI": 6662,
      "ĠSDK": 6663,
      "ĠAFP": 6664,
      "ĠTCP": 6665,
      "ĠLetter": 6666,
      "ĠTechnical": 6667,
      "ĠHW": 6668,
      "sky": 6669,
      "ĠThunder": 6670,
      "ìĦľ": 6671,
      "ìļ©": 6672,
      "Blog": 6673,
      "ĠCE": 6674,
      "ĠNJ": 6675,
      "Food": 6676,
      "USD": 6677,
      "ĠTrip": 6678,
      ",,,,": 6679,
      "ĠCards": 6680,
      "ĠTesting": 6681,
      "Cat": 6682,
      "ĠKal": 6683,
      "ĠMK": 6684,
      "ĠGROUP": 6685,
      "ĠCastle": 6686,
      "made": 6687,
      "ãĢĬ": 6688,
      "ĠSkin": 6689,
      "ĠSurface": 6690,
      "ĠLIST": 6691,
      "Ġusb": 6692,
      "ĠPractice": 6693,
      "FK": 6694,
      "Ġexhibition": 6695,
      ",M": 6696,
      "ĠGolf": 6697,
      "su": 6698,
      "OFF": 6699,
      "ĠChoice": 6700,
      "ĠPIN": 6701,
      "ernational": 6702,
      "ĠJoy": 6703,
      "Brand": 6704,
      "OTO": 6705,
      "JP": 6706,
      "ë©": 6707,
      "ĠFederation": 6708,
      "/V": 6709,
      "oko": 6710,
      ".ly": 6711,
      ",D": 6712,
      "ĠUFC": 6713,
      "Ġsyndrome": 6714,
      "/news": 6715,
      "XP": 6716,
      "ìĸ": 6717,
      "ĠUTC": 6718,
      "LT": 6719,
      "ĠMaps": 6720,
      "Research": 6721,
      "ĠCSV": 6722,
      "ĠRd": 6723,
      "ĠPixel": 6724,
      "ĠRIGHT": 6725,
      "ĠðŁĻĤ": 6726,
      "ë²": 6727,
      "God": 6728,
      "Ġ[âĢ¦]": 6729,
      "HOME": 6730,
      "Î¿": 6731,
      "ĠMX": 6732,
      "ĠDNS": 6733,
      "'M": 6734,
      "Ġcertification": 6735,
      "Ġgrades": 6736,
      "ãģŁ": 6737,
      "ĠBS": 6738,
      ".microsoft": 6739,
      "ISC": 6740,
      "ê²": 6741,
      "dump": 6742,
      "ĠPlanning": 6743,
      "ĠTD": 6744,
      "ews": 6745,
      "ĠStrategy": 6746,
      "Ġclicks": 6747,
      "ĠìĦ": 6748,
      "ĠCAR": 6749,
      "ĠPCI": 6750,
      "ĠEye": 6751,
      "(Z": 6752,
      "/content": 6753,
      "ĠIBM": 6754,
      "ĠVoice": 6755,
      "ĠFE": 6756,
      "ĠRB": 6757,
      "ĠIDE": 6758,
      "ĠMorning": 6759,
      "ĠMovement": 6760,
      "ë³": 6761,
      "ë¦¬": 6762,
      "GI": 6763,
      "ĠWW": 6764,
      "Ġlbs": 6765,
      "ĠVo": 6766,
      "Â´": 6767,
      "ãĤ¯": 6768,
      "Actual": 6769,
      "ĠProcessing": 6770,
      "IOS": 6771,
      "......": 6772,
      "ĠRX": 6773,
      "ãģĮ": 6774,
      "CAT": 6775,
      "Âº": 6776,
      "ĠUltra": 6777,
      "ĠAA": 6778,
      "-Q": 6779,
      "ĠWang": 6780,
      "Love": 6781,
      "ĠCAM": 6782,
      "ĠUrban": 6783,
      "ĠMR": 6784,
      "ĠIntroduction": 6785,
      "ĠArtist": 6786,
      "ĠEngineer": 6787,
      "ĠPF": 6788,
      "American": 6789,
      "firstname": 6790,
      "ĠRA": 6791,
      ":)": 6792,
      "ĠWa": 6793,
      "ĠDemo": 6794,
      "ĠChain": 6795,
      "ĠMON": 6796,
      "bet": 6797,
      "IK": 6798,
      "ĠWA": 6799,
      "ĠAngular": 6800,
      "ĠImpact": 6801,
      "ĠAdministrator": 6802,
      "kw": 6803,
      "íĬ¸": 6804,
      "ĠâĦ": 6805,
      "SF": 6806,
      "CN": 6807,
      "(*)": 6808,
      ",...": 6809,
      "ĠOH": 6810,
      "ĠìĪĺ": 6811,
      "park": 6812,
      "ĠStay": 6813,
      "ëł¥": 6814,
      "ĠSafari": 6815,
      "ĠChampions": 6816,
      "ĠUltimate": 6817,
      "ĠAdobe": 6818,
      "ĠLD": 6819,
      "ĠFX": 6820,
      "Ġìĭ": 6821,
      "Fig": 6822,
      "ĠSync": 6823,
      "BM": 6824,
      "ĠShopping": 6825,
      "/default": 6826,
      "ĠPublished": 6827,
      "IFF": 6828,
      "ĠUV": 6829,
      "Lab": 6830,
      "ois": 6831,
      "-->": 6832,
      "ĠYouth": 6833,
      "ĠBP": 6834,
      "ĠTP": 6835,
      ".jsp": 6836,
      "-Y": 6837,
      "ĠSoul": 6838,
      "ĠTF": 6839,
      "ĠEffects": 6840,
      "ĠExplorer": 6841,
      "TN": 6842,
      "ĠNord": 6843,
      "ãģĨ": 6844,
      "ĠLS": 6845,
      "\"(": 6846,
      "Ġssh": 6847,
      "ĠNATO": 6848,
      "ĠGate": 6849,
      "RB": 6850,
      "ãĤĭ": 6851,
      "ĠRSS": 6852,
      "ìłķ": 6853,
      "ĠXX": 6854,
      "ĠKo": 6855,
      "ìĭľ": 6856,
      "ëĵľ": 6857,
      "VIDIA": 6858,
      "SEL": 6859,
      "ĠFDA": 6860,
      "ĥĿ": 6861,
      "ĠShell": 6862,
      "ãĤĴ": 6863,
      "MX": 6864,
      "ACC": 6865,
      "Â²": 6866,
      "ĠKi": 6867,
      "JavaScript": 6868,
      "ãģĤ": 6869,
      "-ray": 6870,
      "mall": 6871,
      "igi": 6872,
      "-Ch": 6873,
      "ĠCY": 6874,
      "ĠPure": 6875,
      "Phil": 6876,
      "ĠDance": 6877,
      "ĠTL": 6878,
      "ĠSG": 6879,
      "ĠFalls": 6880,
      "ĠVI": 6881,
      "]|": 6882,
      "wiki": 6883,
      "ãģķ": 6884,
      "ĠNPC": 6885,
      "ĠGDP": 6886,
      "ĠShield": 6887,
      "Je": 6888,
      "ĠBMW": 6889,
      "ĠSupply": 6890,
      "ĠOPEN": 6891,
      "ĠPP": 6892,
      "AFE": 6893,
      "ĠGE": 6894,
      "KB": 6895,
      "ĠTip": 6896,
      "inet": 6897,
      "ĠXL": 6898,
      "ĠFit": 6899,
      "ĠSMS": 6900,
      "AH": 6901,
      "ĠFF": 6902,
      "ĠBou": 6903,
      "ĠNam": 6904,
      "fee": 6905,
      "ĠTea": 6906,
      "NL": 6907,
      "ĠPG": 6908,
      "love": 6909,
      "ĠCK": 6910,
      ".blog": 6911,
      "ĠTB": 6912,
      "Sun": 6913,
      ",L": 6914,
      "-br": 6915,
      "Sch": 6916,
      "aru": 6917,
      "ĠFine": 6918,
      "University": 6919,
      "ĠHO": 6920,
      "ĠStudios": 6921,
      "Python": 6922,
      "&T": 6923,
      "ĠPalace": 6924,
      "ĠBrain": 6925,
      "ãĤĬ": 6926,
      "Instant": 6927,
      "achi": 6928,
      "Ġï¼ļ": 6929,
      "ashi": 6930,
      "ĠCommerce": 6931,
      "ìķ": 6932,
      "Regular": 6933,
      "ĠPatch": 6934,
      "Da": 6935,
      "(the": 6936,
      "uba": 6937,
      "ĠTheory": 6938,
      "ĠVision": 6939,
      "ĠGaming": 6940,
      "QR": 6941,
      "ĠARM": 6942,
      "disk": 6943,
      "mag": 6944,
      "ĠUC": 6945,
      "Ġë³": 6946,
      "Soft": 6947,
      "ï¸ı": 6948,
      "ĠSI": 6949,
      "-X": 6950,
      "ĠAK": 6951,
      "Ġtorrent": 6952,
      "ĠBeauty": 6953,
      "ĠFashion": 6954,
      "ĠVS": 6955,
      "]'": 6956,
      "ĠTrend": 6957,
      "Äģ": 6958,
      "kh": 6959,
      "Dear": 6960,
      "ĠROM": 6961,
      "ĠYahoo": 6962,
      "VL": 6963,
      "RNA": 6964,
      "HB": 6965,
      "ĠSUM": 6966,
      "ĠVPN": 6967,
      "usa": 6968,
      "oka": 6969,
      "ĠINFO": 6970,
      "ĠDX": 6971,
      "National": 6972,
      "ĠImplementation": 6973,
      "ĠRM": 6974,
      "Hy": 6975,
      "ĠBalance": 6976,
      "ISS": 6977,
      "ĠLINE": 6978,
      "Fun": 6979,
      "ĠCommunication": 6980,
      "ĠLC": 6981,
      "ĠAZ": 6982,
      "ĠDD": 6983,
      "ĠMaterials": 6984,
      "ĠChip": 6985,
      "ĠTN": 6986,
      "ĠPB": 6987,
      "Â°C": 6988,
      "COLOR": 6989,
      "ĠFAQ": 6990,
      "ĠLAB": 6991,
      "ICA": 6992,
      "Ġgithub": 6993,
      "?\",": 6994,
      "ãĥ©": 6995,
      "ãģĭ": 6996,
      "ìĸ´": 6997,
      "/z": 6998,
      "AML": 6999,
      "TB": 7000,
      "ĠYe": 7001,
      "bps": 7002,
      "anth": 7003,
      "ĠPreview": 7004,
      "DN": 7005,
      "ĠPlayStation": 7006,
      "ĠRisk": 7007,
      "ĠKN": 7008,
      "ĠPartner": 7009,
      "ĠWave": 7010,
      "ìĿ¸": 7011,
      "Studio": 7012,
      "ĠChamber": 7013,
      "!'": 7014,
      "ĠMall": 7015,
      "ĠCertificate": 7016,
      "/all": 7017,
      "ĠDIY": 7018,
      "ĠInterview": 7019,
      "ĠGmbH": 7020,
      "-In": 7021,
      "Ġ*.": 7022,
      "haus": 7023,
      "ĠIPv": 7024,
      "ĠTrading": 7025,
      "flare": 7026,
      "MF": 7027,
      "pliance": 7028,
      "CPU": 7029,
      "ĠHoliday": 7030,
      "/J": 7031,
      "ĠDP": 7032,
      "ĠZen": 7033,
      "lickr": 7034,
      "âĤĤ": 7035,
      "DEV": 7036,
      "ĠWine": 7037,
      "ĠMVP": 7038,
      "ĠOC": 7039,
      "ãĤĤ": 7040,
      "Chris": 7041,
      "DMI": 7042,
      "âĻĢ": 7043,
      "INA": 7044,
      "ĠKnowledge": 7045,
      "MG": 7046,
      "Care": 7047,
      "bee": 7048,
      "ĠClinical": 7049,
      "eat": 7050,
      "ìĿ¼": 7051,
      "Multiple": 7052,
      "ĠGitHub": 7053,
      "ĠìĤ¬": 7054,
      "WF": 7055,
      "ĠNan": 7056,
      "TAG": 7057,
      "ĠExpert": 7058,
      "ĠNL": 7059,
      "(DB": 7060,
      "ëı": 7061,
      ".jp": 7062,
      "ãģĬ": 7063,
      "ĠInvestment": 7064,
      "ë©´": 7065,
      "ADA": 7066,
      "ĠExam": 7067,
      "CES": 7068,
      "-US": 7069,
      "RG": 7070,
      "&D": 7071,
      "ĠAssociate": 7072,
      "ãĤī": 7073,
      "ĠAnalytics": 7074,
      "Drive": 7075,
      "ĠRV": 7076,
      "ĠPalm": 7077,
      "âĢĿ)": 7078,
      "...)": 7079,
      "ĠCho": 7080,
      "ãĥ«": 7081,
      "[B": 7082,
      "ICO": 7083,
      "ĠLam": 7084,
      "ĠHyper": 7085,
      "(#": 7086,
      "ĠTT": 7087,
      "ĠWide": 7088,
      "ĠLinkedIn": 7089,
      "ĠDH": 7090,
      "ìĦ±": 7091,
      "ëĲ": 7092,
      "Happy": 7093,
      "/K": 7094,
      "Ġ!!!": 7095,
      "ĠÎ¼": 7096,
      "ĠCrypto": 7097,
      "Po": 7098,
      "·¸": 7099,
      "ĠDiscover": 7100,
      "ĠAJ": 7101,
      "ĠDL": 7102,
      "/X": 7103,
      "trip": 7104,
      "Ġë§": 7105,
      "???": 7106,
      "ĠApps": 7107,
      "Virtual": 7108,
      "DAY": 7109,
      "ITAL": 7110,
      "ĠÎ²": 7111,
      "Ġfx": 7112,
      "âĪĴ": 7113,
      "Fort": 7114,
      "(?": 7115,
      "ĠWiFi": 7116,
      "ĠAW": 7117,
      "NB": 7118,
      ".wikipedia": 7119,
      "Ġgrasp": 7120,
      "ĠIRS": 7121,
      "ĠâĶĤ": 7122,
      "ĠHS": 7123,
      "ĠISBN": 7124,
      "Deep": 7125,
      "mart": 7126,
      "ĠBA": 7127,
      "PART": 7128,
      "ĠRPG": 7129,
      "ìľ¼": 7130,
      "ï¼ĵ": 7131,
      "Prev": 7132,
      "ZZ": 7133,
      "KT": 7134,
      "ĠFP": 7135,
      "ĠNVIDIA": 7136,
      "ĠãĢĲ": 7137,
      "íĻ": 7138,
      "ĠCyber": 7139,
      "ĠViewModel": 7140,
      "/download": 7141,
      "-book": 7142,
      "ĠWireless": 7143,
      "International": 7144,
      "CSS": 7145,
      "ĠDual": 7146,
      "ìĿĢ": 7147,
      "ĠPortal": 7148,
      "ĠGrowth": 7149,
      "ADI": 7150,
      "Smart": 7151,
      "[*": 7152,
      "ĠResort": 7153,
      "íĦ°": 7154,
      "%),": 7155,
      "ĠART": 7156,
      "íķ´": 7157,
      "/q": 7158,
      "RAM": 7159,
      "ĠRecovery": 7160,
      "ĠGTX": 7161,
      "ĠEthereum": 7162,
      "ĠRPC": 7163,
      ".âĢľ": 7164,
      "LB": 7165,
      "JK": 7166,
      "(Text": 7167,
      "ĠTerminal": 7168,
      "Tech": 7169,
      "Experience": 7170,
      "ĠAzure": 7171,
      "ĠAirlines": 7172,
      "]<": 7173,
      "Ġëĭ": 7174,
      "ĠElectronic": 7175,
      "Notice": 7176,
      "/my": 7177,
      "ISA": 7178,
      "ĠBeta": 7179,
      "ĠCreation": 7180,
      "ĠConcept": 7181,
      "ê³ł": 7182,
      "ĠUR": 7183,
      "ĠGang": 7184,
      "ĠShin": 7185,
      ".pass": 7186,
      "NAS": 7187,
      "ĠSecure": 7188,
      "CY": 7189,
      "ìĨ": 7190,
      "-U": 7191,
      "iii": 7192,
      "Micro": 7193,
      "ĠVista": 7194,
      "ĠSummit": 7195,
      "ĠMozilla": 7196,
      "ĠSYSTEM": 7197,
      "Pi": 7198,
      "ĠLANGUAGE": 7199,
      "ĠSpa": 7200,
      "ĠNH": 7201,
      "Ġassure": 7202,
      "Ġvocabulary": 7203,
      ".ini": 7204,
      "ĠUbuntu": 7205,
      "ondo": 7206,
      "ĠNB": 7207,
      "ìĺ": 7208,
      "&A": 7209,
      "AU": 7210,
      "Rock": 7211,
      "ì²": 7212,
      "(New": 7213,
      "ĠVIP": 7214,
      "paration": 7215,
      "asia": 7216,
      "LEX": 7217,
      "ĠGS": 7218,
      "ĠDesktop": 7219,
      "ĠChemical": 7220,
      "ĠPayPal": 7221,
      ".).": 7222,
      "ĠìŀĪ": 7223,
      "ĠâĻ": 7224,
      "ĠCluster": 7225,
      "Science": 7226,
      "ĠCertified": 7227,
      "Advanced": 7228,
      "@example": 7229,
      "Ġê°Ģ": 7230,
      "ìĬµ": 7231,
      "wire": 7232,
      "ĠTW": 7233,
      "Jet": 7234,
      "OPS": 7235,
      "ãĢı": 7236,
      "ĠCreator": 7237,
      "Internet": 7238,
      "ãģł": 7239,
      "ĠNokia": 7240,
      "usions": 7241,
      "Ġjavascript": 7242,
      "ìļĶ": 7243,
      "uku": 7244,
      "bj": 7245,
      "ALT": 7246,
      "ĠContents": 7247,
      "ĠSOL": 7248,
      "ĠBass": 7249,
      "RIC": 7250,
      "ĠCle": 7251,
      "ĠpH": 7252,
      "ĠBTC": 7253,
      "Ġìłķ": 7254,
      "brush": 7255,
      "ĠHz": 7256,
      "ĥģ": 7257,
      "AWS": 7258,
      "Contin": 7259,
      "Ġpng": 7260,
      ";)": 7261,
      "Rev": 7262,
      "+)": 7263,
      "Talk": 7264,
      "ĠSAP": 7265,
      "ĠCMS": 7266,
      "ĠÂ°": 7267,
      ";;;": 7268,
      "Ġì¶": 7269,
      "GF": 7270,
      "Vol": 7271,
      "ĠSSD": 7272,
      "CAR": 7273,
      "nos": 7274,
      "ĠISS": 7275,
      "mini": 7276,
      "ALK": 7277,
      "Su": 7278,
      "ĠABS": 7279,
      ".NET": 7280,
      "-,": 7281,
      "XL": 7282,
      "OTA": 7283,
      "BOOK": 7284,
      "olin": 7285,
      "ĠWC": 7286,
      "ĠBLACK": 7287,
      "RD": 7288,
      "ĠIQ": 7289,
      "ãĥª": 7290,
      "Easy": 7291,
      "inch": 7292,
      "ĠVilla": 7293,
      "ĠMET": 7294,
      "ĠBIG": 7295,
      "ĠForex": 7296,
      "\"[": 7297,
      "VB": 7298,
      "Cert": 7299,
      "ĠCovid": 7300,
      "Ġëª": 7301,
      "ĠCtrl": 7302,
      "Â±": 7303,
      "ãģ¦": 7304,
      "ĠShanghai": 7305,
      "Ġìľ": 7306,
      "[F": 7307,
      "ĠDegree": 7308,
      "ìłľ": 7309,
      "ĠEUR": 7310,
      "(IS": 7311,
      "Introduction": 7312,
      "ĠëĤ": 7313,
      "ĠThing": 7314,
      "ĠEvolution": 7315,
      "Ġâĺħ": 7316,
      "Tel": 7317,
      "ĠAnswers": 7318,
      "hz": 7319,
      "ìĽ": 7320,
      "ĠYoutube": 7321,
      "Unity": 7322,
      "Computer": 7323,
      "Geo": 7324,
      "EVENT": 7325,
      "PAGE": 7326,
      "..\"": 7327,
      "ĠRadeon": 7328,
      "ĠCrypt": 7329,
      "magic": 7330,
      "/blog": 7331,
      "(My": 7332,
      "MHz": 7333,
      "Steve": 7334,
      "ĠKO": 7335,
      "-Mail": 7336,
      "IFA": 7337,
      "ĠGeForce": 7338,
      "ĠZoom": 7339,
      "ãģ§ãģĻ": 7340,
      "ĠEconomy": 7341,
      "ĠPoker": 7342,
      "awei": 7343,
      "ĠInnovation": 7344,
      "ĠMOV": 7345,
      "ĠSOC": 7346,
      "Works": 7347,
      "ĠElectronics": 7348,
      "ĠDAY": 7349,
      "âľ": 7350,
      "ĠFactor": 7351,
      "ĠETH": 7352,
      "ĠDW": 7353,
      "LESS": 7354,
      "EW": 7355,
      "ĠProvince": 7356,
      "ĠArchitecture": 7357,
      "ĠPV": 7358,
      "PY": 7359,
      "/sub": 7360,
      "ĠNSW": 7361,
      "XC": 7362,
      "sitemap": 7363,
      "DES": 7364,
      "ĠRD": 7365,
      "AMA": 7366,
      "Stay": 7367,
      "Digital": 7368,
      "ĠCanon": 7369,
      "ĠTI": 7370,
      "Ġìŀħ": 7371,
      "ë°": 7372,
      "/article": 7373,
      "ĠMF": 7374,
      "ĠDell": 7375,
      "âĢ¦âĢ¦âĢ¦âĢ¦": 7376,
      "DEL": 7377,
      "ĠEA": 7378,
      "ëŀ": 7379,
      "ĠProgramming": 7380,
      "INC": 7381,
      "ĠND": 7382,
      "ĠIg": 7383,
      "Asia": 7384,
      "Ġgif": 7385,
      "ĠSHOW": 7386,
      "ĠJin": 7387,
      "âĢ²": 7388,
      "Ġìĺ": 7389,
      "ĠOpera": 7390,
      "ĠCampus": 7391,
      "ĠNutrition": 7392,
      "Ġkb": 7393,
      "/@": 7394,
      "ĠSUV": 7395,
      "Think": 7396,
      "ĠDesk": 7397,
      "ĠQR": 7398,
      "ĠNetworks": 7399,
      "ĠSpeech": 7400,
      "ãĥ¡": 7401,
      "ANA": 7402,
      "ãĤ¢": 7403,
      "EU": 7404,
      "Market": 7405,
      "ĠAES": 7406,
      "ĠDisk": 7407,
      "Ro": 7408,
      "ĠTA": 7409,
      ",#": 7410,
      "Ops": 7411,
      "ë§": 7412,
      "Ġdoubts": 7413,
      "OV": 7414,
      "ĠEQ": 7415,
      ")...": 7416,
      "Ġillustration": 7417,
      "ĠIEEE": 7418,
      "ĠTommy": 7419,
      "ĠTherapy": 7420,
      "ĠAU": 7421,
      "ĠPublisher": 7422,
      "ĠLV": 7423,
      "ëĤ": 7424,
      "ĠDAC": 7425,
      "ĠWHO": 7426,
      "&M": 7427,
      "yper": 7428,
      "ĠCLI": 7429,
      "ĠNR": 7430,
      "ĠCDC": 7431,
      "ĠBD": 7432,
      "_-": 7433,
      "ĠSpecialist": 7434,
      "ĠConverter": 7435,
      "ĠGateway": 7436,
      "[M": 7437,
      ".apple": 7438,
      "^.": 7439,
      ".sk": 7440,
      "ppo": 7441,
      "âĻª": 7442,
      "kon": 7443,
      "ĠProvide": 7444,
      "âĢĻS": 7445,
      "ĠLaser": 7446,
      "ĠTeams": 7447,
      "ĠGD": 7448,
      "IFE": 7449,
      "Ġexams": 7450,
      "ĠHB": 7451,
      "GV": 7452,
      "ĠLOVE": 7453,
      "ĠFULL": 7454,
      "smart": 7455,
      "`s": 7456,
      "ĮĢ": 7457,
      "yu": 7458,
      "ĠGF": 7459,
      "Mozilla": 7460,
      "ĠCW": 7461,
      "ĠIntegration": 7462,
      "ĠRNA": 7463,
      "ĠMLB": 7464,
      "ĠNEWS": 7465,
      "ĠLB": 7466,
      "Grand": 7467,
      "-DD": 7468,
      "BUS": 7469,
      "Travel": 7470,
      "-pop": 7471,
      "ìļ°": 7472,
      "ĠPlaza": 7473,
      "JE": 7474,
      "ĠCRM": 7475,
      "ĠBET": 7476,
      "KS": 7477,
      "ĠSSH": 7478,
      "Made": 7479,
      "ĠMaker": 7480,
      "ĠDocker": 7481,
      "ĠICE": 7482,
      "ĠHOME": 7483,
      "Young": 7484,
      "ĠEPS": 7485,
      "PB": 7486,
      "ĠLabs": 7487,
      "(ST": 7488,
      "ĠVIEW": 7489,
      "ĠAX": 7490,
      "ĠìĤ¬ìļ©": 7491,
      "âĹ": 7492,
      "ĠCU": 7493,
      "ëª": 7494,
      "ĠOEM": 7495,
      "Ġê¸": 7496,
      "otel": 7497,
      "ĠACE": 7498,
      "/detail": 7499,
      "GD": 7500,
      "ìŀ¥": 7501,
      "ĠLite": 7502,
      "CHANGE": 7503,
      "Ġcafe": 7504,
      "(+": 7505,
      "dB": 7506,
      "ĠPST": 7507,
      "ĠGN": 7508,
      "ĠHDMI": 7509,
      "ĠOutlook": 7510,
      "ĠManufacturing": 7511,
      "ĠRealm": 7512,
      "CLA": 7513,
      "ĠAjax": 7514,
      "Coin": 7515,
      "ĠSkype": 7516,
      "ĠCycle": 7517,
      ")!": 7518,
      "ĠHA": 7519,
      "OA": 7520,
      "inside": 7521,
      "ĠEE": 7522,
      "Thomas": 7523,
      "ĠVault": 7524,
      "ìĦ¸": 7525,
      "ĠRP": 7526,
      "ĠNI": 7527,
      "ãĥŃ": 7528,
      "FN": 7529,
      "exam": 7530,
      "ĠPNG": 7531,
      "ĠTLS": 7532,
      "ë³´": 7533,
      "_<": 7534,
      "ĠNZ": 7535,
      "ĠCAS": 7536,
      "Booking": 7537,
      "ethyl": 7538,
      "Â¼": 7539,
      "Mi": 7540,
      "į°": 7541,
      "amba": 7542,
      "ĠWI": 7543,
      "ĠPLAY": 7544,
      "ìľ¼ë¡ľ": 7545,
      "ë²Ī": 7546,
      "ĠAE": 7547,
      "ĠCisco": 7548,
      "ĠAds": 7549,
      "ĠHK": 7550,
      "ETF": 7551,
      "ĠSAT": 7552,
      "ĠMV": 7553,
      "Ġï¼Ī": 7554,
      "Ġìŀħëł¥": 7555,
      "UBE": 7556,
      "!).": 7557,
      "yun": 7558,
      "Ġiphone": 7559,
      "[S": 7560,
      "ĠQC": 7561,
      "ĠLens": 7562,
      "ĠFlower": 7563,
      "ĠCafe": 7564,
      "ARP": 7565,
      "&P": 7566,
      "ĠHBO": 7567,
      "ĠBlockchain": 7568,
      "IOR": 7569,
      "íķĺëĬĶ": 7570,
      "KG": 7571,
      "ĠDLC": 7572,
      "ĠOrganic": 7573,
      "Sphere": 7574,
      "ĠIA": 7575,
      "ITT": 7576,
      "Ġê²½": 7577,
      "Î¼": 7578,
      "ĠPeak": 7579,
      "HN": 7580,
      "ĠOB": 7581,
      "Â³": 7582,
      "(RE": 7583,
      "ĠNP": 7584,
      ".^": 7585,
      "ĠESC": 7586,
      "ĠUSC": 7587,
      "NX": 7588,
      "AMS": 7589,
      ".#": 7590,
      "ĠVisa": 7591,
      "ĠCaps": 7592,
      "ĠChang": 7593,
      "ĠDF": 7594,
      "fps": 7595,
      "--------------------------------------------------------------------------------": 7596,
      "Journal": 7597,
      "ĠVC": 7598,
      "ï¼ķ": 7599,
      "[C": 7600,
      "ãĢİ": 7601,
      "Daily": 7602,
      "ìĨĮ": 7603,
      "ĠFPS": 7604,
      "ĠFIFA": 7605,
      "(Cl": 7606,
      "ë¶": 7607,
      "ĠDDR": 7608,
      "ĠReality": 7609,
      "FREE": 7610,
      "ìŀħ": 7611,
      "ãĥ¬": 7612,
      ")||": 7613,
      "âĹı": 7614,
      "ĠWEB": 7615,
      "ĠCAT": 7616,
      "ĠEF": 7617,
      "Spy": 7618,
      "ĠiPod": 7619,
      "ĠDock": 7620,
      "=âĢĿ": 7621,
      "MK": 7622,
      "paring": 7623,
      "?âĢĻ": 7624,
      "ĠLIVE": 7625,
      "ĠBooking": 7626,
      "JA": 7627,
      "ĠBAR": 7628,
      "MER": 7629,
      "ĠTK": 7630,
      "ĠDAO": 7631,
      "ĠMW": 7632,
      "ĠInfrastructure": 7633,
      ".news": 7634,
      "Ġìĭľ": 7635,
      "ĠãĢĮ": 7636,
      "feat": 7637,
      "+,": 7638,
      "¤í": 7639,
      "ĠNF": 7640,
      "iPhone": 7641,
      "SEN": 7642,
      "/kg": 7643,
      "ĠHotels": 7644,
      "William": 7645,
      "ĠPhotoshop": 7646,
      "ĠRid": 7647,
      "Developer": 7648,
      "ĠNEXT": 7649,
      "DBC": 7650,
      "JI": 7651,
      "entral": 7652,
      "ĠíĮ": 7653,
      "Ġê³": 7654,
      "ISBN": 7655,
      "orean": 7656,
      "ĠBBQ": 7657,
      "ĠIH": 7658,
      "Ġíģ": 7659,
      "ĠBN": 7660,
      "ĠMongoDB": 7661,
      "Ti": 7662,
      "ĠEthernet": 7663,
      "ĠSEM": 7664,
      "ĠIPT": 7665,
      "ĠDSL": 7666,
      "ĠMH": 7667,
      "Ġê°Ĵ": 7668,
      "Hotel": 7669,
      "ï¼Ķ": 7670,
      "ĠâĢº": 7671,
      "ĠRSA": 7672,
      "ĠìľĦ": 7673,
      "ĠPOP": 7674,
      "ĠCVE": 7675,
      "ĠComputing": 7676,
      "ĠBEST": 7677,
      "RX": 7678,
      "ĠHC": 7679,
      "ĠAIR": 7680,
      "EV": 7681,
      ",)": 7682,
      "ĠATM": 7683,
      "ĠITS": 7684,
      "Bluetooth": 7685,
      "JB": 7686,
      "âĺĨ": 7687,
      "ãĤ³": 7688,
      "ĠIG": 7689,
      ")`": 7690,
      "ãĤ¿": 7691,
      "instagram": 7692,
      "ĠASF": 7693,
      "Ġë³Ģ": 7694,
      "Linux": 7695,
      "ATIC": 7696,
      "ĠâĨĳ": 7697,
      "ramer": 7698,
      "ĠKS": 7699,
      "ĠConsulting": 7700,
      "ĠLM": 7701,
      "Ġnpm": 7702,
      "ĠLAN": 7703,
      "ARC": 7704,
      "ĠICO": 7705,
      "ĠCITY": 7706,
      "ĠSAM": 7707,
      "SIM": 7708,
      "AFP": 7709,
      "âĸł": 7710,
      "ĠìĹĨ": 7711,
      "ĠConcert": 7712,
      "(NS": 7713,
      "(Global": 7714,
      "OH": 7715,
      "ĠGIF": 7716,
      "ãģı": 7717,
      "ĠNGO": 7718,
      "ëŁ": 7719,
      "ĠMarkets": 7720,
      "privacy": 7721,
      "ĠíĻ": 7722,
      "agate": 7723,
      "ĠUAE": 7724,
      "arat": 7725,
      "sit": 7726,
      "ĠRapid": 7727,
      "/etc": 7728,
      "ĠBI": 7729,
      "ĠAAA": 7730,
      "ĠBOOK": 7731,
      "LG": 7732,
      "ĠDLL": 7733,
      "ĠNFC": 7734,
      "GHz": 7735,
      "POP": 7736,
      "ĠCAD": 7737,
      "ĠAH": 7738,
      "pcs": 7739,
      "íĺ¸": 7740,
      "(~": 7741,
      "ĠMPL": 7742,
      "ļĮ": 7743,
      "ĠDesigned": 7744,
      "Ġíĺ": 7745,
      "ĠâĨĲ": 7746,
      "ASF": 7747,
      "QA": 7748,
      "(...)": 7749,
      "ĠFTP": 7750,
      "|\"": 7751,
      "Disk": 7752,
      "ĠVAT": 7753,
      "(In": 7754,
      "LOUD": 7755,
      "Ġë²": 7756,
      "-market": 7757,
      "TEL": 7758,
      "ĠìĥĿ": 7759,
      "íķł": 7760,
      "/site": 7761,
      "Ġì§": 7762,
      "ĠUFO": 7763,
      "ì¹": 7764,
      "INO": 7765,
      "ëıĦ": 7766,
      "ĠFW": 7767,
      "Ġë©": 7768,
      "Ġfirstname": 7769,
      "ĠHV": 7770,
      "&B": 7771,
      "arl": 7772,
      "ĠHTC": 7773,
      "âĳ": 7774,
      "Kim": 7775,
      "ĠSTEP": 7776,
      "Ġì²": 7777,
      "(ne": 7778,
      "ĠìķĦ": 7779,
      "ĠASP": 7780,
      "ìĿĮ": 7781,
      "ĠCX": 7782,
      "ĠGI": 7783,
      "âĺħâĺħ": 7784,
      "ĠSCP": 7785,
      "âĿ": 7786,
      "CAD": 7787,
      "ê·¸": 7788,
      "Ġbundles": 7789,
      "EMA": 7790,
      ".......": 7791,
      "Oracle": 7792,
      "orrent": 7793,
      "Japan": 7794,
      "OUNTRY": 7795,
      "ĠJP": 7796,
      "HY": 7797,
      "ĠEOS": 7798,
      "ĠGithub": 7799,
      "Dog": 7800,
      "Ġê²½ìļ°": 7801,
      "hee": 7802,
      "Chrome": 7803,
      "ĠIoT": 7804,
      "Intel": 7805,
      "ĠEB": 7806,
      "%B": 7807,
      "ë¯": 7808,
      "Cas": 7809,
      "ĠPET": 7810,
      "(Un": 7811,
      "^-": 7812,
      "ĠJung": 7813,
      "Instagram": 7814,
      "ĠMATLAB": 7815,
      "Ġëĭ¤": 7816,
      "ĠPAY": 7817,
      "ĠALT": 7818,
      "ĠBlvd": 7819,
      "Ġâĸł": 7820,
      ".ct": 7821,
      "ĠKY": 7822,
      "XS": 7823,
      "ì²´": 7824,
      "ĠHybrid": 7825,
      "ĠUCLA": 7826,
      "ë¡Ŀ": 7827,
      "=M": 7828,
      "HF": 7829,
      "ãģį": 7830,
      "ĠRewards": 7831,
      "jin": 7832,
      "Secure": 7833,
      "ĠPVC": 7834,
      "GPU": 7835,
      "-more": 7836,
      "JD": 7837,
      "Ġrpm": 7838,
      "otte": 7839,
      "ĠPCB": 7840,
      "Ġsns": 7841,
      "âĢ¦âĢĿ": 7842,
      "ĠLTD": 7843,
      "ĠSeoul": 7844,
      "ĠCertification": 7845,
      "ãģĵãģ®": 7846,
      "ADM": 7847,
      "ĠDG": 7848,
      "ìĦ¸ìļĶ": 7849,
      "ëĿ¼": 7850,
      "STEP": 7851,
      "KK": 7852,
      "ĠâĹı": 7853,
      "ĠCOMMENT": 7854,
      "ĠFI": 7855,
      "ĠHuawei": 7856,
      "ĠROI": 7857,
      "ĠâĢķ": 7858,
      "!!!!!!!!": 7859,
      "ĠìķĬ": 7860,
      "ĠMonitoring": 7861,
      "HEL": 7862,
      "ĠSAS": 7863,
      "ĠExperts": 7864,
      "/)": 7865,
      "ĠPASS": 7866,
      "ĠEco": 7867,
      "|-": 7868,
      "ĠWORLD": 7869,
      "Ġíķ¨": 7870,
      "ĠIdea": 7871,
      "\\\\\\\\": 7872,
      "âĨĴ": 7873,
      "ĠXM": 7874,
      "(SE": 7875,
      "ĠBW": 7876,
      "(cm": 7877,
      "IDA": 7878,
      "ĠMG": 7879,
      "ĠSpl": 7880,
      "ĠDV": 7881,
      "Î²": 7882,
      "NH": 7883,
      "ĸī": 7884,
      "Ġ???": 7885,
      "DH": 7886,
      "ĠBOARD": 7887,
      "ĠMRI": 7888,
      "Ġë©Ķ": 7889,
      "ĠLTE": 7890,
      "PRODUCT": 7891,
      "ĠADHD": 7892,
      "ORA": 7893,
      "ë¬¸": 7894,
      "ĠSQ": 7895,
      "(Char": 7896,
      "Wave": 7897,
      "ĠBUY": 7898,
      "INATION": 7899,
      "íķľëĭ¤": 7900,
      "ĠElastic": 7901,
      "ĠìĥĿìĦ±": 7902,
      "Queen": 7903,
      "ĠBlizzard": 7904,
      "%).": 7905,
      "ĠPU": 7906,
      "ssa": 7907,
      "âģ": 7908,
      "HM": 7909,
      "âĢ¦..": 7910,
      "Phot": 7911,
      "ONY": 7912,
      "ĠThinking": 7913,
      "ëĲľ": 7914,
      "XM": 7915,
      "ĠDong": 7916,
      "ĠWB": 7917,
      "ĠJR": 7918,
      "\"...": 7919,
      "%A": 7920,
      "ĠDjango": 7921,
      ".biz": 7922,
      "ĠDynamics": 7923,
      "ĠBOX": 7924,
      ".pe": 7925,
      "Immediate": 7926,
      "VK": 7927,
      "abol": 7928,
      "XR": 7929,
      "ĠRAW": 7930,
      "Tok": 7931,
      "ĠBIOS": 7932,
      "OE": 7933,
      "WB": 7934,
      "ë£": 7935,
      "ìķĦ": 7936,
      "KL": 7937,
      "/request": 7938,
      "ĠâĬ": 7939,
      "brain": 7940,
      "ĠETF": 7941,
      "ìĬ¤íĬ¸": 7942,
      "DJ": 7943,
      "[K": 7944,
      "ĠNAV": 7945,
      "ĠAdvisor": 7946,
      "ĠHOT": 7947,
      "ĠISP": 7948,
      "Ġë¬¸": 7949,
      "ëŀĺ": 7950,
      "ĠMBA": 7951,
      "ì¶": 7952,
      "ĠPowerPoint": 7953,
      "ĠHoldings": 7954,
      "ĠëķĮ": 7955,
      "ĠTransformation": 7956,
      "ê³¼": 7957,
      "ESC": 7958,
      "DG": 7959,
      "YouTube": 7960,
      "YG": 7961,
      "UNCH": 7962,
      "ĠRPM": 7963,
      "ĠAutomation": 7964,
      "/~": 7965,
      "ãģĻãĤĭ": 7966,
      "(AP": 7967,
      "CCC": 7968,
      "Ġíķĺ": 7969,
      "ãģĭãĤī": 7970,
      "-water": 7971,
      "ìĹ´": 7972,
      "ARA": 7973,
      "Lee": 7974,
      "Ġì¤": 7975,
      "Ġëª¨": 7976,
      "Ġê¸°": 7977,
      "MW": 7978,
      "ĠKang": 7979,
      "ĠObjective": 7980,
      "ìĽĲ": 7981,
      "ì£¼": 7982,
      "ĠHDR": 7983,
      "~,": 7984,
      "Verified": 7985,
      "arket": 7986,
      "ĠJPEG": 7987,
      "ĠZERO": 7988,
      "won": 7989,
      "ĠSITE": 7990,
      "GU": 7991,
      "Ġê·¸": 7992,
      "youtu": 7993,
      "FAQ": 7994,
      "ãĢľ": 7995,
      "KO": 7996,
      "ĠíĮĮ": 7997,
      "ìĤ¬": 7998,
      "âĢ¦\"": 7999,
      "ĠDK": 8000,
      "ĠOL": 8001,
      "GIS": 8002,
      "DNA": 8003,
      "ĠFax": 8004,
      "ĠPiano": 8005,
      "ĠHorizon": 8006,
      "CNN": 8007,
      "(IP": 8008,
      "ĠPX": 8009,
      "COMM": 8010,
      "VPN": 8011,
      "Ġì£¼": 8012,
      ".xyz": 8013,
      "ĠâĹ": 8014,
      "ĠIPA": 8015,
      "ĠKM": 8016,
      "Ġkim": 8017,
      "Ġëĵ": 8018,
      "ĠTG": 8019,
      "ĠBLUE": 8020,
      "ìĥģ": 8021,
      "EOS": 8022,
      "ë¯¸": 8023,
      "(OS": 8024,
      "ãĤ·": 8025,
      "ĠEG": 8026,
      "Bet": 8027,
      "ĠSUN": 8028,
      "ðĿ": 8029,
      ".|": 8030,
      "íĻĶ": 8031,
      "(cookie": 8032,
      "RW": 8033,
      "ĠDFS": 8034,
      "ĠìłĦ": 8035,
      "(..": 8036,
      "FTP": 8037,
      "ìĹĲìĦľ": 8038,
      "Ni": 8039,
      "ABA": 8040,
      "ĠDSP": 8041,
      "YO": 8042,
      "ĠZIP": 8043,
      "ĠGG": 8044,
      "EFI": 8045,
      "ĠSTAR": 8046,
      ".instagram": 8047,
      "ãĥĨ": 8048,
      "ãĤĪ": 8049,
      "rive": 8050,
      "Ġë¦¬": 8051,
      "ìĹ¬": 8052,
      "ĠUPS": 8053,
      "ëıĻ": 8054,
      "ĠUM": 8055,
      "ìŀ¬": 8056,
      "ĠLF": 8057,
      "ï½¥": 8058,
      "ĠâľĶ": 8059,
      "łí": 8060,
      "ĠFinder": 8061,
      "ĠNX": 8062,
      ".asp": 8063,
      "ĠSlack": 8064,
      "ìĺ¤": 8065,
      "AUT": 8066,
      "ãģĿãģ®": 8067,
      "VIS": 8068,
      "ĠLORD": 8069,
      "!?": 8070,
      "HK": 8071,
      "ABS": 8072,
      "COPY": 8073,
      "ĠeBook": 8074,
      "Professional": 8075,
      "ĠMacBook": 8076,
      "ĠAUD": 8077,
      "Ġ^^": 8078,
      "ĠDHCP": 8079,
      "jun": 8080,
      "AMD": 8081,
      "OOM": 8082,
      "ê²Į": 8083,
      "Ġì¶Ķ": 8084,
      "ãģĪ": 8085,
      "ĠìĦ¤": 8086,
      "ĠXS": 8087,
      "kim": 8088,
      "ertz": 8089,
      "ĠWAR": 8090,
      "Wi": 8091,
      "Ġapk": 8092,
      "Ġìĥģ": 8093,
      "ULA": 8094,
      "ATO": 8095,
      "ì¤": 8096,
      "ĠICC": 8097,
      "OLID": 8098,
      "ĠPW": 8099,
      "ìĻ": 8100,
      "'(": 8101,
      "JC": 8102,
      "FTA": 8103,
      "Ġíķ¨ìĪĺ": 8104,
      "ĠPLUS": 8105,
      ".da": 8106,
      "ĠDOI": 8107,
      "PGA": 8108,
      "ãĢįãĢĮ": 8109,
      "ĠìĿ¸": 8110,
      "ĠIRA": 8111,
      "ĠâĩĴ": 8112,
      "LTE": 8113,
      "ĠGTA": 8114,
      "Ġêµ¬": 8115,
      "ï¼İ": 8116,
      "CBS": 8117,
      "âī": 8118,
      "ĠIMF": 8119,
      "BTC": 8120,
      ".+": 8121,
      "Sea": 8122,
      "-proof": 8123,
      "âĶģ": 8124,
      "Bio": 8125,
      "/details": 8126,
      "XB": 8127,
      "(SC": 8128,
      "ï¼ĸ": 8129,
      "Â¹": 8130,
      "ĠSung": 8131,
      "afari": 8132,
      "YE": 8133,
      "ĠCNC": 8134,
      "ì¹ĺ": 8135,
      "ichael": 8136,
      "ê°ľ": 8137,
      "ãĤµ": 8138,
      "SU": 8139,
      "/arch": 8140,
      "ĠLIFE": 8141,
      "UNG": 8142,
      "|(": 8143,
      "ĠYesterday": 8144,
      "Ġìłķë³´": 8145,
      "orea": 8146,
      "Mob": 8147,
      "/sec": 8148,
      "Â·Â·": 8149,
      "OX": 8150,
      "âĢĶâĢĶâĢĶâĢĶâĢĶâĢĶâĢĶâĢĶâĢĶâĢĶâĢĶâĢĶâĢĶâĢĶâĢĶâĢĶ": 8151,
      "ëŁ¬": 8152,
      "Fax": 8153,
      "ëĤĺ": 8154,
      "ĠXC": 8155,
      "ĠDOC": 8156,
      "Ġdumps": 8157,
      "ĠDRM": 8158,
      "MODEL": 8159,
      "research": 8160,
      "ĠNeural": 8161,
      "ĠÂ®": 8162,
      "IRA": 8163,
      "ĠJC": 8164,
      "íĥ": 8165,
      "Ġíķ´": 8166,
      ",,,": 8167,
      "ĠManaged": 8168,
      "?[": 8169,
      "itech": 8170,
      "ĠCJ": 8171,
      "ãĤģ": 8172,
      "ĠGmail": 8173,
      "ĠëĮĢ": 8174,
      ".........": 8175,
      "ADDRESS": 8176,
      "ĠHTTPS": 8177,
      "DNS": 8178,
      "ĠMTV": 8179,
      "ACP": 8180,
      "Ġíķľ": 8181,
      "POWER": 8182,
      ".!": 8183,
      "...]": 8184,
      "ĠBiz": 8185,
      "ĠUX": 8186,
      "PLUS": 8187,
      "íļĮ": 8188,
      "kHz": 8189,
      "_TS": 8190,
      "ãĤŃ": 8191,
      "ĠðŁĳ": 8192,
      "ĠXT": 8193,
      "KR": 8194,
      "ĠGRE": 8195,
      "IQ": 8196,
      "DV": 8197,
      "âĢķ": 8198,
      "-)": 8199,
      "goo": 8200,
      "ĠGX": 8201,
      "Ġìłľ": 8202,
      "Ġì°": 8203,
      "Ġë§Į": 8204,
      "@@@@": 8205,
      "ĠLv": 8206,
      "DFS": 8207,
      "ê°Ħ": 8208,
      "Ġãĥ»": 8209,
      "IMS": 8210,
      "RID": 8211,
      "ĠAPK": 8212,
      "ACA": 8213,
      "ĶĦ": 8214,
      "GW": 8215,
      "ACS": 8216,
      "Ġë¶": 8217,
      "iOS": 8218,
      "SEO": 8219,
      "Ġï¼": 8220,
      "Ġvip": 8221,
      "DAQ": 8222,
      "ĠAMP": 8223,
      "\"..": 8224,
      "Ġíģ´": 8225,
      "Creative": 8226,
      "ĠNano": 8227,
      "ĠCSR": 8228,
      "ĠEW": 8229,
      "ãģ¿": 8230,
      "ĠðŁĴ": 8231,
      "ĠSTEM": 8232,
      "ë¶Ģ": 8233,
      "(ft": 8234,
      "ë¦Ħ": 8235,
      "ĠIPS": 8236,
      "GPS": 8237,
      "ITA": 8238,
      "ĠHY": 8239,
      "ë£Į": 8240,
      "Ġë³´": 8241,
      "ĠBlackBerry": 8242,
      ",+": 8243,
      "ĠAFC": 8244,
      "ĠWD": 8245,
      "ĠSMB": 8246,
      "âĢ»": 8247,
      "ãĤ»": 8248,
      "Ġë°ĺ": 8249,
      "ê±": 8250,
      "YM": 8251,
      ":D": 8252,
      "Ġepub": 8253,
      "LCD": 8254,
      "ĠIOS": 8255,
      "ëĲĺ": 8256,
      ".pol": 8257,
      "ãĤ¦": 8258,
      "Realm": 8259,
      "Dream": 8260,
      "(World": 8261,
      "ĠìŀĪëĬĶ": 8262,
      "ĠìŀĲ": 8263,
      "aaS": 8264,
      "KC": 8265,
      "ĠGuarantee": 8266,
      "ĠSPL": 8267,
      "ëĭ¹": 8268,
      "Ġëı": 8269,
      "ëĵ¤": 8270,
      "íģ": 8271,
      "ĠVMware": 8272,
      "KF": 8273,
      "ï¼ĺ": 8274,
      "eon": 8275,
      "ASP": 8276,
      "ĠKR": 8277,
      "ĠERP": 8278,
      "íĻĺ": 8279,
      "ãĢįãģ¨": 8280,
      "ê²½": 8281,
      "Ġì¡°": 8282,
      "ĠâĢ¦.": 8283,
      "ĠëĦ": 8284,
      "SMS": 8285,
      "KM": 8286,
      "Ġì¢": 8287,
      "Ġìļ": 8288,
      "ĠPvP": 8289,
      "ìłĦ": 8290,
      "ĠìĦ¤ìłķ": 8291,
      "ĠQA": 8292,
      "APT": 8293,
      "ĠCENTER": 8294,
      "ëĬ¥": 8295,
      "íĮ": 8296,
      "ĠëĤ´": 8297,
      "ĠGMO": 8298,
      "ĠMCU": 8299,
      "Â®,": 8300,
      "ĠOG": 8301,
      "ĠKubernetes": 8302,
      "íķĺê¸°": 8303,
      "ĠFare": 8304,
      "ëĶ": 8305,
      "ĠATP": 8306,
      "MV": 8307,
      "ĠPCR": 8308,
      "Exam": 8309,
      "FPS": 8310,
      "BBC": 8311,
      "ĠDirectX": 8312,
      "Ġì§Ģ": 8313,
      "ëĮĢ": 8314,
      "ĠIPO": 8315,
      "'[": 8316,
      "ograd": 8317,
      "ĠExhibition": 8318,
      "RH": 8319,
      "ï¼Ļ": 8320,
      "STAR": 8321,
      "(mm": 8322,
      "Ġ.....": 8323,
      "ĠmacOS": 8324,
      "(Web": 8325,
      "ĠDESIGN": 8326,
      "moon": 8327,
      "_^": 8328,
      "Îº": 8329,
      "ĠWK": 8330,
      "ĠMSI": 8331,
      "ĠCOD": 8332,
      "ìŀĳ": 8333,
      "ĠGSM": 8334,
      "ĠCOP": 8335,
      "ĠâĻ¥": 8336,
      "ĠXR": 8337,
      "ĠíĮĮìĿ¼": 8338,
      ">('": 8339,
      "ãĥŀ": 8340,
      "ĠKL": 8341,
      "IBM": 8342,
      "FIT": 8343,
      ".kr": 8344,
      "ĠFAT": 8345,
      "ĠYong": 8346,
      "ĠMVC": 8347,
      "Survey": 8348,
      "!]": 8349,
      "Vision": 8350,
      "âĢº": 8351,
      "ĠSJ": 8352,
      "Ġìŀĳ": 8353,
      "ĠESL": 8354,
      "Ġì¶Ķê°Ģ": 8355,
      "ĠHDD": 8356,
      "ĠSCM": 8357,
      "NEWS": 8358,
      "ëį": 8359,
      "(Bit": 8360,
      "XE": 8361,
      "ĠSAR": 8362,
      "ĠPSP": 8363,
      "=L": 8364,
      "IOC": 8365,
      "RSS": 8366,
      "ĠTPP": 8367,
      "ĠìĪ": 8368,
      "/read": 8369,
      "ĠPLC": 8370,
      "ìĥ": 8371,
      "Ġíı": 8372,
      "ĠPSA": 8373,
      "ĠWIFI": 8374,
      "ĠThin": 8375,
      "ãħ": 8376,
      "&C": 8377,
      "ĠMID": 8378,
      "!!!!!": 8379,
      ">|": 8380,
      "ì¶ľ": 8381,
      "ĠJJ": 8382,
      "ĠNK": 8383,
      "ĠEMS": 8384,
      "ĠKG": 8385,
      "âĢľ(": 8386,
      "ìħ": 8387,
      "ãĤĦ": 8388,
      "ĠCCTV": 8389,
      "ĠJE": 8390,
      "ãĤ«": 8391,
      "âħ": 8392,
      "wang": 8393,
      "SCI": 8394,
      "ë¹Ħ": 8395,
      "Ġë¡": 8396,
      "Xi": 8397,
      "(IM": 8398,
      "DDR": 8399,
      "'|": 8400,
      "Ġì¤ĳ": 8401,
      "ĠOLED": 8402,
      "ĠInsight": 8403,
      "Ġë¡ľ": 8404,
      "Ġê²ĥ": 8405,
      "Ġjpg": 8406,
      "ĠXD": 8407,
      "!âĢĻ": 8408,
      "ĠMSD": 8409,
      "NSE": 8410,
      "ĳľ": 8411,
      "Ġì²ĺ": 8412,
      "Ware": 8413,
      "âĨĲ": 8414,
      "iae": 8415,
      "ĠDEST": 8416,
      "ĠInsights": 8417,
      "ë²Īíĺ¸": 8418,
      "ĠSATA": 8419,
      "=S": 8420,
      "ĠCNBC": 8421,
      "ĠëĲ": 8422,
      "ĠSPORT": 8423,
      "(SK": 8424,
      "ħĮ": 8425,
      "ë§Į": 8426,
      "ĠDropbox": 8427,
      ".lastname": 8428,
      "Ġdong": 8429,
      "oS": 8430,
      "IMA": 8431,
      "âĢ¦)": 8432,
      "âĶĤ": 8433,
      "ĠMOS": 8434,
      "Ġìĺ¤": 8435,
      "/channel": 8436,
      "PCR": 8437,
      "...'": 8438,
      "CONTACT": 8439,
      "CDC": 8440,
      "Ġ?????": 8441,
      "ĠëĤĺ": 8442,
      "Ġê°ľ": 8443,
      "ĠPostgreSQL": 8444,
      "Ġë°°": 8445,
      "ĠEMC": 8446,
      "rpm": 8447,
      "Ġë¹Ħ": 8448,
      "ĠPPP": 8449,
      "(CC": 8450,
      "Ġ......": 8451,
      "ĠREC": 8452,
      "ëħ": 8453,
      "ĠICT": 8454,
      "ĽĦ": 8455,
      "âľĶ": 8456,
      "Ġíĥ": 8457,
      "ĠKak": 8458,
      "&page": 8459,
      "Ġstrives": 8460,
      "ĠASUS": 8461,
      "âłĢ": 8462,
      "|[": 8463,
      "ĠCIS": 8464,
      "Ġë°©": 8465,
      "DTV": 8466,
      "ĠìĻ": 8467,
      "ĠSiri": 8468,
      "PHONE": 8469,
      "ĠKDE": 8470,
      "ëĦ": 8471,
      "ĠEssentials": 8472,
      "cheon": 8473,
      "dong": 8474,
      "Sketch": 8475,
      "ĠAAC": 8476,
      "ĠVGA": 8477,
      "ðŁĺ": 8478,
      "ĠíķĦ": 8479,
      "ABOUT": 8480,
      "-II": 8481,
      "ãĤ¨": 8482,
      "KH": 8483,
      "ĠSHOP": 8484,
      "ĠLX": 8485,
      "ãģ£ãģ¦": 8486,
      "ĠOBS": 8487,
      "ĠSuites": 8488,
      "ãģ§ãģ¯": 8489,
      "ĠSharePoint": 8490,
      "NK": 8491,
      "ĠJB": 8492,
      "âĨĳ": 8493,
      "ìĭĿ": 8494,
      "ĠSPA": 8495,
      "(Fl": 8496,
      "ìĥĿ": 8497,
      "ĠëĶ": 8498,
      "KY": 8499,
      "âĻ¥": 8500,
      "?-": 8501,
      "ĠBK": 8502,
      "TG": 8503,
      "(Be": 8504,
      "Ġëĵ±": 8505,
      "Designed": 8506,
      "DVD": 8507,
      "ìĥī": 8508,
      "ãģĹãģ¾ãģĻ": 8509,
      "ĠìĹ°": 8510,
      "ãĥģ": 8511,
      "ĠRIGHTS": 8512,
      "ĠKT": 8513,
      "Ġppt": 8514,
      "ĠKP": 8515,
      "ãĥĭ": 8516,
      "ĠìĨ": 8517,
      "ĠRAID": 8518,
      "ĠRESERVED": 8519,
      "ĠQS": 8520,
      "WHO": 8521,
      "ĠmRNA": 8522,
      "Ġ~~": 8523,
      "ĠâĨĵ": 8524,
      "JV": 8525,
      "(NO": 8526,
      "íķ¨": 8527,
      "COVID": 8528,
      "Azure": 8529,
      "ê³µ": 8530,
      "YT": 8531,
      "Ġê°Ļ": 8532,
      "ĠOECD": 8533,
      "CEO": 8534,
      "mAh": 8535,
      "KW": 8536,
      "MRI": 8537,
      "ĠUEFA": 8538,
      "SHOP": 8539,
      "ë²Ħ": 8540,
      "âĨĵ": 8541,
      "SOC": 8542,
      "ĠDSM": 8543,
      "ĠìĬ": 8544,
      "Ġìĸ": 8545,
      "|#": 8546,
      "ìĤ": 8547,
      "ASA": 8548,
      "ĠSMART": 8549,
      "EMS": 8550,
      "ëªħ": 8551,
      "ë¶Ħ": 8552,
      "ĠPGA": 8553,
      "Ġë¬¸ìŀĲ": 8554,
      "COMMENT": 8555,
      "ĠECB": 8556,
      "IU": 8557,
      "-IN": 8558,
      "ĠREVIEW": 8559,
      "ĠTOUR": 8560,
      "ĠKH": 8561,
      "ĠAnxiety": 8562,
      "ĠCES": 8563,
      "ĠSCI": 8564,
      "ZY": 8565,
      "PLEASE": 8566,
      "ìĻĢ": 8567,
      "ĠOCR": 8568,
      "Ġë³ĢìĪĺ": 8569,
      "ĠGV": 8570,
      "ĠOTP": 8571,
      "ìľĦ": 8572,
      "ĠSalesforce": 8573,
      "ìłģ": 8574,
      "KI": 8575,
      "Ġì²ĺë¦¬": 8576,
      "FDA": 8577,
      "íģ¬": 8578,
      "Gs": 8579,
      "AGR": 8580,
      "ĠÎĶ": 8581,
      "Ġìµľ": 8582,
      "young": 8583,
      "JT": 8584,
      "ĠSOS": 8585,
      "Hu": 8586,
      "AAD": 8587,
      ".?": 8588,
      "Adobe": 8589,
      "ë¡ľê·¸": 8590,
      "ëĵł": 8591,
      "Ġë°Ķ": 8592,
      "ĠGAM": 8593,
      "ĠBTS": 8594,
      "ĠISIL": 8595,
      "íķĺìĹ¬": 8596,
      "ï¼ŀ": 8597,
      "(AT": 8598,
      "ĠGIS": 8599,
      "||(": 8600,
      "âĸº": 8601,
      "(Art": 8602,
      "ìĭł": 8603,
      ".priv": 8604,
      "(The": 8605,
      "Ġê²°": 8606,
      "ĠLH": 8607,
      "ê°Ĵ": 8608,
      "ĠSTORY": 8609,
      "DSL": 8610,
      "ĠOPS": 8611,
      "(CH": 8612,
      "ë¥¸": 8613,
      "ëĭĪ": 8614,
      "..'": 8615,
      "ê¹": 8616,
      "ĠTED": 8617,
      ".âĢ¦": 8618,
      "ĠGBP": 8619,
      "âĢł": 8620,
      "ìł¸": 8621,
      "ê¸Ģ": 8622,
      "Ġì´Ī": 8623,
      "_exam": 8624,
      "ĠâĢ»": 8625,
      "IMO": 8626,
      "ĠìĹ¬": 8627,
      "ĠìĿ¼": 8628,
      "Ġë°Ľ": 8629,
      "Ġë¦¬ìĬ¤íĬ¸": 8630,
      "ì§¸": 8631,
      "-sample": 8632,
      "&R": 8633,
      "aget": 8634,
      "Gb": 8635,
      "SAT": 8636,
      "ĠíĶĦ": 8637,
      "ERP": 8638,
      "ĠISA": 8639,
      "ĠHCI": 8640,
      "GX": 8641,
      "/IP": 8642,
      "ĠYM": 8643,
      "Ġë²Ī": 8644,
      "ë©Ķ": 8645,
      "JR": 8646,
      "ĠANC": 8647,
      "ìĤ°": 8648,
      "ì§Ħ": 8649,
      "Ġê²Ģ": 8650,
      "Ġë¶Ģ": 8651,
      "ĠìĽ": 8652,
      "ĠLDL": 8653,
      "Reviewer": 8654,
      "ĠJAVA": 8655,
      "ĠRTP": 8656,
      "DETAIL": 8657,
      "ĠRFID": 8658,
      "BUY": 8659,
      "ĠìļĶ": 8660,
      "OLF": 8661,
      "ĠìĿ´ë¦Ħ": 8662,
      "(EC": 8663,
      "Ġá": 8664,
      "Mbps": 8665,
      "ĠAPC": 8666,
      "ĠCPA": 8667,
      "íĥľ": 8668,
      "ĠBJ": 8669,
      "ĠCPI": 8670,
      "ĠChoi": 8671,
      "ensis": 8672,
      "ĠSPF": 8673,
      "ĠOO": 8674,
      "Ġë²Ħ": 8675,
      "|M": 8676,
      "ĠiCloud": 8677,
      "ĠCSI": 8678,
      "ĠBlackjack": 8679,
      "SPA": 8680,
      "ICC": 8681,
      "ĠIMS": 8682,
      "INI": 8683,
      "íķĺì§Ģ": 8684,
      "CHAPTER": 8685,
      "ĠJT": 8686,
      "CAS": 8687,
      "ëª©": 8688,
      "Firefox": 8689,
      "Ġë³Ģê²½": 8690,
      "ĠLNG": 8691,
      "#.": 8692,
      "êµ": 8693,
      "(IT": 8694,
      "ĠGarmin": 8695,
      "ĠPSI": 8696,
      "êµ¬": 8697,
      "ĠCDN": 8698,
      ")..": 8699,
      "ĠìĪĺìłķ": 8700,
      "ì°": 8701,
      "IPA": 8702,
      "ê²°": 8703,
      "Ġê°Ģìł¸": 8704,
      "QM": 8705,
      "ĠJPG": 8706,
      "ĠKA": 8707,
      "(IC": 8708,
      "ê·": 8709,
      "Ġì»": 8710,
      "Ĩµ": 8711,
      "ëĶĶ": 8712,
      "&S": 8713,
      "ĠJL": 8714,
      "ĠFPGA": 8715,
      "ï¼į": 8716,
      "HQ": 8717,
      "ìķ¼": 8718,
      "ëŀĺìĬ¤": 8719,
      "ĠìĦľ": 8720,
      "ãĤª": 8721,
      "ĠGAP": 8722,
      "ìľ¼ë©´": 8723,
      "ãĥł": 8724,
      "IRS": 8725,
      "OTP": 8726,
      "ĠAutodesk": 8727,
      "ĠìĹĲ": 8728,
      "ĠìĿ´ë¯¸": 8729,
      "ĠPCIe": 8730,
      "Ġì¹": 8731,
      "AEA": 8732,
      "ĠGDPR": 8733,
      "Ġë°°ìĹ´": 8734,
      "Cisco": 8735,
      "Ġíĺ¸": 8736,
      "Ġjt": 8737,
      "íķĺìĦ¸ìļĶ": 8738,
      "Ġbj": 8739,
      "ĠCCC": 8740,
      "ì£¼ìĦ¸ìļĶ": 8741,
      "ħ§": 8742,
      "Fed": 8743,
      "anky": 8744,
      "Ġ:-)": 8745,
      "ìħĺ": 8746,
      "ECH": 8747,
      "...(": 8748,
      "ĠOCI": 8749,
      "Ĥ¤": 8750,
      "ðŁĴ": 8751,
      "ê±°": 8752,
      "artner": 8753,
      "ĠVOC": 8754,
      "ĠCNS": 8755,
      "/AIDS": 8756,
      "-ST": 8757,
      "ĠPSG": 8758,
      "Ġê´Ģ": 8759,
      "ĠSMP": 8760,
      "ì¡°": 8761,
      "ĠâĺĨ": 8762,
      "?]": 8763,
      "ĠAOL": 8764,
      "Trader": 8765,
      "Ġíģ´ëŀĺìĬ¤": 8766,
      "ĠJK": 8767,
      "ĠOST": 8768,
      "(SS": 8769,
      "âłĢâłĢ": 8770,
      "Ġê°ĴìĿĦ": 8771,
      "ìļ´": 8772,
      "ìŀĦ": 8773,
      "Ġìĭľìŀĳ": 8774,
      "ĠCFO": 8775,
      "Beauty": 8776,
      "onga": 8777,
      "íĦ´": 8778,
      "Ġê³Ħ": 8779,
      "ĠíĽĦ": 8780,
      "/Linux": 8781,
      "Canon": 8782,
      "Ltd": 8783,
      "Ġíķ´ëĭ¹": 8784,
      "ĠGUIDE": 8785,
      "CTS": 8786,
      "ystems": 8787,
      "Ġë°ĺíĻĺ": 8788,
      "ì¦": 8789,
      "BEST": 8790,
      "Ġíķł": 8791,
      "ĠShopify": 8792,
      "ĠCRT": 8793,
      "ĠðŁĶ": 8794,
      "âĢĻ)": 8795,
      "ĠCPC": 8796,
      "ĠìķĪ": 8797,
      "ëĤ´": 8798,
      "Ġì´Īê¸°": 8799,
      "Ġê°ĢëĬ¥": 8800,
      "ãĥĬ": 8801,
      "Ġkak": 8802,
      "(PC": 8803,
      "ï¼ı": 8804,
      "ĠJW": 8805,
      "Ġíĺ¸ì¶ľ": 8806,
      "ĠCentOS": 8807,
      "Ġë§Ī": 8808,
      "ĠSDS": 8809,
      "ĠìĺĪ": 8810,
      "ĠPlex": 8811,
      "Ġë°ľ": 8812,
      "íķ´ìĦľ": 8813,
      "ĠHDC": 8814,
      "ĠOTA": 8815,
      "Monkey": 8816,
      "ĠIOC": 8817,
      "(IR": 8818,
      "ë¸": 8819,
      "MZ": 8820,
      ".xxx": 8821,
      "âŀ": 8822,
      "ĠDPI": 8823,
      "ĠëĲĺ": 8824,
      "Ġì¡°íļĮ": 8825,
      "Ġê±": 8826,
      "abay": 8827,
      "/board": 8828,
      "+_": 8829,
      "%p": 8830,
      "ĠAcrobat": 8831,
      "BMW": 8832,
      "ë³µ": 8833,
      "ELS": 8834,
      "ë¥ĺ": 8835,
      "ĠíļĮ": 8836,
      "ĠEDM": 8837,
      "YW": 8838,
      ")âĢĿ": 8839,
      "ĠRCA": 8840,
      "Ġì¢ħ": 8841,
      "-ROM": 8842,
      "------------------------------------------------------------------------------------------------": 8843,
      "ĠTFT": 8844,
      "Į¨": 8845,
      "THR": 8846,
      "ŃĲ": 8847,
      "Ġê²°ê³¼": 8848,
      "ĠWAN": 8849,
      "VIP": 8850,
      "Feat": 8851,
      "(IB": 8852,
      "Ġíı¬": 8853,
      "Ġê²Į": 8854,
      "íĬ¼": 8855,
      "ĠìľĦì¹ĺ": 8856,
      "ĠWTO": 8857,
      "çļĦ": 8858,
      "ä¸Ģ": 8859,
      "åį": 8860,
      "ä¸į": 8861,
      "äºĨ": 8862,
      "æĺ¯": 8863,
      "æľī": 8864,
      "äºº": 8865,
      "åľ¨": 8866,
      "æķ": 8867,
      "å¤§": 8868,
      "ä¸Ń": 8869,
      "åĴĮ": 8870,
      "ä¸Ĭ": 8871,
      "çĶŁ": 8872,
      "éĿ": 8873,
      "æĪĳ": 8874,
      "è¦ģ": 8875,
      "åı¯": 8876,
      "ä¼ļ": 8877,
      "çĶ¨": 8878,
      "ä»¥": 8879,
      "è¡Į": 8880,
      "åĩº": 8881,
      "åħ¬": 8882,
      "ä½ľ": 8883,
      "èĩª": 8884,
      "èĥ½": 8885,
      "ä¸ĭ": 8886,
      "åľ°": 8887,
      "å®¶": 8888,
      "çĲĨ": 8889,
      "å¿ĥ": 8890,
      "å¹´": 8891,
      "å¤ļ": 8892,
      "åĽ½": 8893,
      "å°ı": 8894,
      "æĪĲ": 8895,
      "åŃĲ": 8896,
      "æľ¬": 8897,
      "åĪĨ": 8898,
      "åĬĽ": 8899,
      "æĸ°": 8900,
      "é«ĺ": 8901,
      "å¥½": 8902,
      "æ³ķ": 8903,
      "æĸ¹": 8904,
      "åħ¨": 8905,
      "å¸Ĥ": 8906,
      "æĸĩ": 8907,
      "çĻ": 8908,
      "åĮĸ": 8909,
      "æĢ§": 8910,
      "éĿ¢": 8911,
      "å¤©": 8912,
      "éĥ": 8913,
      "å®ļ": 8914,
      "ä¹Ł": 8915,
      "ä¸»": 8916,
      "äºĭ": 8917,
      "åĲĪ": 8918,
      "å¾Ĺ": 8919,
      "æ°´": 8920,
      "éĥ¨": 8921,
      "ä¿¡": 8922,
      "åĲĮ": 8923,
      "ä¹ĭ": 8924,
      "éĩį": 8925,
      "åĵģ": 8926,
      "æīĢ": 8927,
      "åı¸": 8928,
      "åº¦": 8929,
      "å»º": 8930,
      "æĹ¥": 8931,
      "éģĵ": 8932,
      "æĥħ": 8933,
      "éĢļ": 8934,
      "ä¿Ŀ": 8935,
      "æĦı": 8936,
      "éĥ½": 8937,
      "åĬł": 8938,
      "ä¸ī": 8939,
      "åĨħ": 8940,
      "åīį": 8941,
      "æīĭ": 8942,
      "èµ·": 8943,
      "æľŁ": 8944,
      "å±ķ": 8945,
      "å®ī": 8946,
      "åĲį": 8947,
      "çĽ¸": 8948,
      "éĩĳ": 8949,
      "æľĢ": 8950,
      "ä½į": 8951,
      "æ°ĳ": 8952,
      "çŃī": 8953,
      "ç¬¬": 8954,
      "åĪ¶": 8955,
      "æĺİ": 8956,
      "å¦Ĥ": 8957,
      "åħ¥": 8958,
      "è¡¨": 8959,
      "åħ¶": 8960,
      "èĢħ": 8961,
      "äº¤": 8962,
      "åĭ": 8963,
      "åĪ©": 8964,
      "èĢĮ": 8965,
      "çī©": 8966,
      "äºĮ": 8967,
      "æ´»": 8968,
      "ç§ĳ": 8969,
      "çĽ®": 8970,
      "å¸¸": 8971,
      "å¤ĸ": 8972,
      "çķ": 8973,
      "éĩĮ": 8974,
      "èº«": 8975,
      "çŁ¥": 8976,
      "æľį": 8977,
      "åįģ": 8978,
      "ä»£": 8979,
      "æĶ¿": 8980,
      "ç¾İ": 8981,
      "éĻ¢": 8982,
      "çĦ¶": 8983,
      "å¹³": 8984,
      "ä»»": 8985,
      "è§£": 8986,
      "åķĨ": 8987,
      "åŁº": 8988,
      "æ¯Ķ": 8989,
      "ç³»": 8990,
      "å¼ı": 8991,
      "å·±": 8992,
      "ç¡": 8993,
      "åİ»": 8994,
      "æŃ£": 8995,
      "æĦŁ": 8996,
      "è·¯": 8997,
      "æµģ": 8998,
      "åı£": 8999,
      "ç¦": 9000,
      "åĽŀ": 9001,
      "èī²": 9002,
      "ä½¿": 9003,
      "åİŁ": 9004,
      "æŀľ": 9005,
      "æµ·": 9006,
      "å±±": 9007,
      "èĢģ": 9008,
      "æł¼": 9009,
      "æ¬¡": 9010,
      "åĻ¨": 9011,
      "åĽł": 9012,
      "ç¤¾": 9013,
      "ç«ĭ": 9014,
      "åıĹ": 9015,
      "åħī": 9016,
      "èĤ²": 9017,
      "å¼º": 9018,
      "åŁİ": 9019,
      "çĽ´": 9020,
      "ç²¾": 9021,
      "è¥¿": 9022,
      "èĬ±": 9023,
      "æľĪ": 9024,
      "æºĲ": 9025,
      "åħĪ": 9026,
      "ç¥ŀ": 9027,
      "éĢł": 9028,
      "æĪ¿": 9029,
      "çĻ½": 9030,
      "çĹħ": 9031,
      "æ²»": 9032,
      "å½¢": 9033,
      "éĽĨ": 9034,
      "çľ¼": 9035,
      "ä¸ĸ": 9036,
      "åıĸ": 9037,
      "å®¢": 9038,
      "åħĥ": 9039,
      "åħ±": 9040,
      "ç©º": 9041,
      "æĺĵ": 9042,
      "æŃ¤": 9043,
      "åĽĽ": 9044,
      "åįĹ": 9045,
      "ä½ķ": 9046,
      "äºĶ": 9047,
      "çĻ¾": 9048,
      "ä¸ŃåĽ½": 9049,
      "æĶ¯": 9050,
      "èĩ³": 9051,
      "æĢĿ": 9052,
      "å¥³": 9053,
      "åŃĹ": 9054,
      "éĿŀ": 9055,
      "åĬŁ": 9056,
      "å¤ª": 9057,
      "åĳ¨": 9058,
      "ä½ı": 9059,
      "åı·": 9060,
      "åĨį": 9061,
      "åıį": 9062,
      "è¨Ģ": 9063,
      "å¿ħ": 9064,
      "çģ«": 9065,
      "ç«ł": 9066,
      "å£«": 9067,
      "å·ŀ": 9068,
      "çķĮ": 9069,
      "åıĭ": 9070,
      "å¾·": 9071,
      "é¦ĸ": 9072,
      "åĮĹ": 9073,
      "çľģ": 9074,
      "æľª": 9075,
      "æŀĹ": 9076,
      "åı²": 9077,
      "çŁ³": 9078,
      "é£Ł": 9079,
      "è¶Ĭ": 9080,
      "æĻ¯": 9081,
      "è¡Ģ": 9082,
      "ä»Ĭ": 9083,
      "æľĽ": 9084,
      "æĺŁ": 9085,
      "æī¿": 9086,
      "éĸ": 9087,
      "ä¿®": 9088,
      "çİĭ": 9089,
      "æł¹": 9090,
      "å§ĭ": 9091,
      "è¶³": 9092,
      "åĳ½": 9093,
      "éŁ³": 9094,
      "æĿĳ": 9095,
      "åĸľ": 9096,
      "æ±Ł": 9097,
      "è¶ħ": 9098,
      "åįĬ": 9099,
      "è±¡": 9100,
      "åºĹ": 9101,
      "èĭ±": 9102,
      "æľĥ": 9103,
      "ä¾Ĩ": 9104,
      "ç¾¤": 9105,
      "å±ħ": 9106,
      "åįĥ": 9107,
      "çĽĬ": 9108,
      "åı¤": 9109,
      "åĳ³": 9110,
      "å¿Ĺ": 9111,
      "å¯Į": 9112,
      "åĥı": 9113,
      "æĸĩåĮĸ": 9114,
      "åĪĿ": 9115,
      "åľŁ": 9116,
      "å®¤": 9117,
      "æĻĤ": 9118,
      "æ²³": 9119,
      "æĹı": 9120,
      "åħ«": 9121,
      "æķħ": 9122,
      "æĺ¥": 9123,
      "èī¯": 9124,
      "å®£": 9125,
      "é»ĳ": 9126,
      "æľ¨": 9127,
      "æ³¢": 9128,
      "ä¸ĸçķĮ": 9129,
      "ç¦ı": 9130,
      "åħŃ": 9131,
      "åľĭ": 9132,
      "åºľ": 9133,
      "åºı": 9134,
      "èĳĹ": 9135,
      "éħĴ": 9136,
      "å®ĺ": 9137,
      "æŃ¦": 9138,
      "é¦Ļ": 9139,
      "åį°": 9140,
      "ä¸ĥ": 9141,
      "ç±³": 9142,
      "çĶ³": 9143,
      "ä¹Ŀ": 9144,
      "çĻ¼": 9145,
      "å®Ī": 9146,
      "æĿİ": 9147,
      "æĻº": 9148,
      "æ¹ĸ": 9149,
      "åħ¸": 9150,
      "èįī": 9151,
      "é½": 9152,
      "äº¬": 9153,
      "èĹı": 9154,
      "åĭķ": 9155,
      "æ¯Ĵ": 9156,
      "çĶ²": 9157,
      "çĶ·": 9158,
      "æ¯į": 9159,
      "éģİ": 9160,
      "å°į": 9161,
      "éĽ¨": 9162,
      "èĭ¦": 9163,
      "æŃ»": 9164,
      "éĺ¿": 9165,
      "èĮ¶": 9166,
      "å¤ľ": 9167,
      "æĿ¾": 9168,
      "é«Ķ": 9169,
      "åĸĦ": 9170,
      "å¤«": 9171,
      "æľĿ": 9172,
      "çħ": 9173,
      "è¡Ĺ": 9174,
      "æ°¸": 9175,
      "éĽª": 9176,
      "æĽ²": 9177,
      "æ©Ł": 9178,
      "åħµ": 9179,
      "ä»¤": 9180,
      "èªª": 9181,
      "åŃ¸": 9182,
      "æŃĮ": 9183,
      "éķ·": 9184,
      "å¯¦": 9185,
      "è«": 9186,
      "åłĤ": 9187,
      "çīĽ": 9188,
      "ç§ģ": 9189,
      "å·¦": 9190,
      "çı¾": 9191,
      "æ¥Ń": 9192,
      "æ´¾": 9193,
      "èĭ¥": 9194,
      "ç§Ģ": 9195,
      "çĶ°": 9196,
      "åł´": 9197,
      "éĸĭ": 9198,
      "æ²Ļ": 9199,
      "ç¶ĵ": 9200,
      "ç§ĭ": 9201,
      "éĢ²": 9202,
      "éĩİ": 9203,
      "æĸ¼": 9204,
      "å¤ı": 9205,
      "ç½ª": 9206,
      "è»Ĭ": 9207,
      "éĮ": 9208,
      "å¾Į": 9209,
      "çİī": 9210,
      "åĲī": 9211,
      "éŃĶ": 9212,
      "æķ¬": 9213,
      "çĪ¶": 9214,
      "éĸĵ": 9215,
      "ä½Ľ": 9216,
      "èĪŀ": 9217,
      "æ±ł": 9218,
      "å¸Ŀ": 9219,
      "æĹĹ": 9220,
      "åįĪ": 9221,
      "å±ĭ": 9222,
      "å³°": 9223,
      "ç¨®": 9224,
      "éĹľ": 9225,
      "éĽĦ": 9226,
      "å®Ĺ": 9227,
      "å°¾": 9228,
      "çĦ¡": 9229,
      "åħ§": 9230,
      "æ°£": 9231,
      "è¾Ľ": 9232,
      "åĤ³": 9233,
      "èĪ¹": 9234,
      "éłŃ": 9235,
      "ç¥ĸ": 9236,
      "åł±": 9237,
      "éģĭ": 9238,
      "è³ª": 9239,
      "ä»Ļ": 9240,
      "å¯Ĵ": 9241,
      "åįĢ": 9242,
      "ä¹Ļ": 9243,
      "è°·": 9244,
      "åĪ¥": 9245,
      "è¦ĭ": 9246,
      "è¨ĺ": 9247,
      "å·Ŀ": 9248,
      "æ³°": 9249,
      "åĶĲ": 9250,
      "æķ¸": 9251,
      "ä¸¹": 9252,
      "æ´ŀ": 9253,
      "å¸«": 9254,
      "å¡Ķ": 9255,
      "æĺĮ": 9256,
      "çµĲ": 9257,
      "éĸĢ": 9258,
      "æĿ±": 9259,
      "ä¿Ĺ": 9260,
      "è¦ĸ": 9261,
      "ç¯Ģ": 9262,
      "èŃī": 9263,
      "å°ĩ": 9264,
      "æ³ī": 9265,
      "æĦĽ": 9266,
      "æĽ¸": 9267,
      "æ¨Ĥ": 9268,
      "è«ĸ": 9269,
      "è§Ģ": 9270,
      "åĮĹäº¬": 9271,
      "åķı": 9272,
      "èĻķ": 9273,
      "è©±": 9274,
      "è®Ĭ": 9275,
      "äºķ": 9276,
      "ç´Ħ": 9277,
      "é¡ŀ": 9278,
      "éĦ": 9279,
      "çĶµå½±": 9280,
      "æ¢ħ": 9281,
      "ç·ļ": 9282,
      "èª¿": 9283,
      "éģĶ": 9284,
      "èŃ°": 9285,
      "æµ¦": 9286,
      "å¾ŀ": 9287,
      "ä»ģ": 9288,
      "çµ±": 9289,
      "æŁ±": 9290,
      "åľĺ": 9291,
      "éĨ«": 9292,
      "åľĸ": 9293,
      "æĪ°": 9294,
      "å²©": 9295,
      "è½ī": 9296,
      "çĨ±": 9297,
      "æ»¿": 9298,
      "èı¯": 9299,
      "æ¬Ĭ": 9300,
      "ç¾©": 9301,
      "éĻµ": 9302,
      "äºŀ": 9303,
      "åĭ¢": 9304,
      "æª¢": 9305,
      "èĪĪ": 9306,
      "ä¸ģ": 9307,
      "èĻİ": 9308,
      "éĢ£": 9309,
      "å¼µ": 9310,
      "åľĴ": 9311,
      "æº«": 9312,
      "å½¹": 9313,
      "æĹ¥æľ¬": 9314,
      "åĲĽ": 9315,
      "å¾Ĳ": 9316,
      "å®ĭ": 9317,
      "é¢¨": 9318,
      "ç«¹": 9319,
      "éĽ£": 9320,
      "æ¢Ŀ": 9321,
      "å½¼": 9322,
      "éĽ¢": 9323,
      "èµ¤": 9324,
      "é»¨": 9325,
      "çį¨": 9326,
      "ç¥Ń": 9327,
      "ç¦®": 9328,
      "éĮĦ": 9329,
      "è²¡": 9330,
      "æ°ı": 9331,
      "æ´ª": 9332,
      "åīĩ": 9333,
      "å¿ł": 9334,
      "é¦¬": 9335,
      "èģ²": 9336,
      "è¦ª": 9337,
      "è¾°": 9338,
      "é¤Ĭ": 9339,
      "æ®¿": 9340,
      "ç¢ĳ": 9341,
      "å¯¶": 9342,
      "å¾©": 9343,
      "ç´Ģ": 9344,
      "æľ´": 9345,
      "è¾²": 9346,
      "èĪĩ": 9347,
      "èĲ¬": 9348,
      "æŁ³": 9349,
      "æĻĭ": 9350,
      "èĻŁ": 9351,
      "å¯º": 9352,
      "è»į": 9353,
      "éģł": 9354,
      "æģ¨": 9355,
      "åŃĿ": 9356,
      "éĿĪ": 9357,
      "éŁĵ": 9358,
      "éĲµ": 9359,
      "éļ±": 9360,
      "æľ±": 9361,
      "å¾¡": 9362,
      "éĤª": 9363,
      "é¤¨": 9364,
      "éĻ½": 9365,
      "ç¾ħ": 9366,
      "èĩº": 9367,
      "ä¸Ļ": 9368,
      "éłĨ": 9369,
      "éºĹ": 9370,
      "èĩ¨": 9371,
      "éİ": 9372,
      "å©¦": 9373,
      "ä¸Ńåľĭ": 9374,
      "æ²Ī": 9375,
      "èªŀ": 9376,
      "æ¥µ": 9377,
      "èĩ£": 9378,
      "é»ĥ": 9379,
      "æ¿Ł": 9380,
      "æŃ²": 9381,
      "éĬĢ": 9382,
      "äºŃ": 9383,
      "èĹ¥": 9384,
      "é£Ľ": 9385,
      "éĽ²": 9386,
      "æ¨ĵ": 9387,
      "ç¸£": 9388,
      "ç©´": 9389,
      "çķ°": 9390,
      "æ®º": 9391,
      "èģĸ": 9392,
      "å¤¢": 9393,
      "ä¸ĳ": 9394,
      "æ¼¢": 9395,
      "é¤ĺ": 9396,
      "æħ¶": 9397,
      "è³ŀ": 9398,
      "éģº": 9399,
      "èªĮ": 9400,
      "ç´ħ": 9401,
      "æĽ°": 9402,
      "é¾į": 9403,
      "èĳī": 9404,
      "èĹ¤": 9405,
      "éĥ¡": 9406,
      "å®®": 9407,
      "åĦĴ": 9408,
      "åĭĿ": 9409,
      "èĪĬ": 9410,
      "åľĵ": 9411,
      "èĦ«": 9412,
      "ç´Ļ": 9413,
      "æŃ¸": 9414,
      "äºĤ": 9415,
      "çĪ²": 9416,
      "èĻĽ": 9417,
      "èĵ®": 9418,
      "æķµ": 9419,
      "å£½": 9420,
      "è«¸": 9421,
      "æªĢ": 9422,
      "éŁĵåľĭ": 9423,
      "ãĢĶ": 9424,
      "ãĢķ": 9425,
      "éĻ³": 9426,
      "éŃļ": 9427,
      "å³¶": 9428,
      "èĺĩ": 9429,
      "å´Ķ": 9430,
      "æ¨¹": 9431,
      "æ¹¯": 9432,
      "åĬī": 9433,
      "æĥ¡": 9434,
      "å°¹": 9435,
      "åĲ³": 9436,
      "éĻ°": 9437,
      "æ©ĭ": 9438,
      "å¯§": 9439,
      "åĬį": 9440,
      "é½Ĭ": 9441,
      "è©©": 9442,
      "éĦŃ": 9443,
      "æ¾¤": 9444,
      "åŃ«": 9445,
      "æ»ħ": 9446,
      "åºļ": 9447,
      "è¶Ļ": 9448,
      "èĦĪ": 9449,
      "é³¥": 9450,
      "å¯ħ": 9451,
      "æĪĬ": 9452,
      "æ¡ĵ": 9453,
      "çĶ£": 9454,
      "åį¯": 9455,
      "è³¢": 9456,
      "çĽ§": 9457,
      "éħī": 9458,
      "å£¬": 9459,
      "çĶº": 9460,
      "æĪĮ": 9461,
      "å·³": 9462,
      "åĬ¨æ¼«": 9463,
      "çĶµè§Ĩåī§": 9464,
      "ä¸»ç¾©": 9465,
      "æĿ±äº¬": 9466,
      "ç¿Ĵè¿ĳå¹³": 9467,
      "å¹´çĶŁ": 9468,
      "æľĿé®®": 9469,
      "ãģĹãģŁ": 9470,
      "ëĭĪëĭ¤": 9471,
      "ãģĹãģ¦": 9472,
      "ãģ£ãģŁ": 9473,
      "ãģªãģĦ": 9474,
      "ãĥŁ": 9475,
      "íĸ": 9476,
      "ìĹħ": 9477,
      "íı": 9478,
      "Ġêµ": 9479,
      "ĴĪ": 9480,
      "íķĻ": 9481,
      "êµŃ": 9482,
      "ê³Ħ": 9483,
      "ìĹĪ": 9484,
      "ëł¤": 9485,
      "ìĬµëĭĪëĭ¤": 9486,
      "íķ©": 9487,
      "íĴĪ": 9488,
      "ê´Ģ": 9489,
      "ë¬´": 9490,
      "ëį°": 9491,
      "ë¥´": 9492,
      "Ġê³µ": 9493,
      "ĠìĨĮ": 9494,
      "íĸī": 9495,
      "ëĭ¨": 9496,
      "ë§Ī": 9497,
      "íĸĪ": 9498,
      "ë¬¼": 9499,
      "ëłĪ": 9500,
      "ãĥį": 9501,
      "íħ": 9502,
      "ê¸Ī": 9503,
      "ê¹Į": 9504,
      "íİ": 9505,
      "ãģĦãģ¦": 9506,
      "Ġìľł": 9507,
      "Ġìĸ´": 9508,
      "ìľł": 9509,
      "ëħĦ": 9510,
      "íŀ": 9511,
      "ìĪ": 9512,
      "ìĹ°": 9513,
      "ãģ¨ãģĦãģĨ": 9514,
      "Ġë¯": 9515,
      "ìĦł": 9516,
      "ìķĪ": 9517,
      "íĶĦ": 9518,
      "ìłĢ": 9519,
      "ë¯¼": 9520,
      "ãĥ¢": 9521,
      "ĠíĬ": 9522,
      "Ġê·": 9523,
      "ìĺģ": 9524,
      "íŀĪ": 9525,
      "íĭ": 9526,
      "Ġë¶Ħ": 9527,
      "ìĭ¤": 9528,
      "ë©°": 9529,
      "ìĹŃ": 9530,
      "ë°ĺ": 9531,
      "ìĭ¬": 9532,
      "ìĨį": 9533,
      "íĶ": 9534,
      "Ġê³ł": 9535,
      "Ġìĭł": 9536,
      "ĠìĿĺ": 9537,
      "ĠëıĦ": 9538,
      "êµĲ": 9539,
      "ë°©": 9540,
      "ìķ½": 9541,
      "ì¢": 9542,
      "ê¶Į": 9543,
      "ëŀĮ": 9544,
      "ì¼": 9545,
      "ĠìĦł": 9546,
      "ĠìĦ¸": 9547,
      "Ġëį": 9548,
      "Ġëħ": 9549,
      "ĠìĤ": 9550,
      "Ġì¦": 9551,
      "ãģŃ": 9552,
      "íı¬": 9553,
      "ê²©": 9554,
      "±ħ": 9555,
      "íĹ": 9556,
      "Ġëĭ¹": 9557,
      "ĠíĿ": 9558,
      "ë°Ķ": 9559,
      "íĳľ": 9560,
      "ë²ķ": 9561,
      "ê°ģ": 9562,
      "Ĩł": 9563,
      "ãĥı": 9564,
      "ãĤ½": 9565,
      "ï¼Ĭ": 9566,
      "ëģ": 9567,
      "Ġë¬´": 9568,
      "Ġìļ°": 9569,
      "ĠêµŃ": 9570,
      "ĠëıĻ": 9571,
      "Ġìĺģ": 9572,
      "ĠëĬ": 9573,
      "íĨµ": 9574,
      "ì°¨": 9575,
      "íĥĢ": 9576,
      "ìĸĳ": 9577,
      "ê´": 9578,
      "ãĥİ": 9579,
      "ìĺĢ": 9580,
[...]
