{
  "version": "1.0",
  "truncation": null,
  "padding": null,
  "added_tokens": [
    {
      "id": 0,
      "content": "[PAD]",
      "single_word": false,
      "lstrip": false,
      "rstrip": false,
      "normalized": false,
      "special": true
    },
    {
      "id": 1,
      "content": "[UNK]",
      "single_word": false,
      "lstrip": false,
      "rstrip": false,
      "normalized": false,
      "special": true
    },
    {
      "id": 2,
      "content": "[BOS]",
      "single_word": false,
      "lstrip": false,
      "rstrip": false,
      "normalized": false,
      "special": true
    },
    {
      "id": 3,
      "content": "[EOS]",
      "single_word": false,
      "lstrip": false,
      "rstrip": false,
      "normalized": false,
      "special": true
    },
    {
      "id": 16000,
      "content": "<pad>",
      "single_word": false,
      "lstrip": false,
      "rstrip": false,
      "normalized": false,
      "special": true
    },
    {
      "id": 16001,
      "content": "<bos>",
      "single_word": false,
      "lstrip": false,
      "rstrip": false,
      "normalized": false,
      "special": true
    },
    {
      "id": 16002,
      "content": "<eos>",
      "single_word": false,
      "lstrip": false,
      "rstrip": false,
      "normalized": false,
      "special": true
    },
    {
      "id": 16003,
      "content": "<unk>",
      "single_word": false,
      "lstrip": false,
      "rstrip": false,
      "normalized": false,
      "special": true
    }
  ],
  "normalizer": null,
  "pre_tokenizer": {
    "type": "ByteLevel",
    "add_prefix_space": false,
    "trim_offsets": true,
    "use_regex": true
  },
  "post_processor": {
    "type": "TemplateProcessing",
    "single": [
      {
        "Sequence": {
          "id": "A",
          "type_id": 0
        }
      }
    ],
    "pair": [
      {
        "Sequence": {
          "id": "A",
          "type_id": 0
        }
      },
      {
        "Sequence": {
          "id": "B",
          "type_id": 1
        }
      }
    ],
    "special_tokens": {}
  },
  "decoder": {
    "type": "ByteLevel",
    "add_prefix_space": true,
    "trim_offsets": true,
    "use_regex": true
  },
  "model": {
    "type": "BPE",
    "dropout": null,
    "unk_token": "[UNK]",
    "continuing_subword_prefix": null,
    "end_of_word_suffix": null,
    "fuse_unk": false,
    "byte_fallback": false,
    "ignore_merges": false,
    "vocab": {
      "[PAD]": 0,
      "[UNK]": 1,
      "[BOS]": 2,
      "[EOS]": 3,
      "!": 4,
      "\"": 5,
      "#": 6,
      "$": 7,
      "%": 8,
      "&": 9,
      "'": 10,
      "(": 11,
      ")": 12,
      "*": 13,
      "+": 14,
      ",": 15,
      "-": 16,
      ".": 17,
      "/": 18,
      "0": 19,
      "1": 20,
      "2": 21,
      "3": 22,
      "4": 23,
      "5": 24,
      "6": 25,
      "7": 26,
      "8": 27,
      "9": 28,
      ":": 29,
      ";": 30,
      "<": 31,
      "=": 32,
      ">": 33,
      "?": 34,
      "@": 35,
      "A": 36,
      "B": 37,
      "C": 38,
      "D": 39,
      "E": 40,
      "F": 41,
      "G": 42,
      "H": 43,
      "I": 44,
      "J": 45,
      "K": 46,
      "L": 47,
      "M": 48,
      "N": 49,
      "O": 50,
      "P": 51,
      "Q": 52,
      "R": 53,
      "S": 54,
      "T": 55,
      "U": 56,
      "V": 57,
      "W": 58,
      "X": 59,
      "Y": 60,
      "Z": 61,
      "[": 62,
      "\\": 63,
      "]": 64,
      "^": 65,
      "_": 66,
      "`": 67,
      "a": 68,
      "b": 69,
      "c": 70,
      "d": 71,
      "e": 72,
      "f": 73,
      "g": 74,
      "h": 75,
      "i": 76,
      "j": 77,
      "k": 78,
      "l": 79,
      "m": 80,
      "n": 81,
      "o": 82,
      "p": 83,
      "q": 84,
      "r": 85,
      "s": 86,
      "t": 87,
      "u": 88,
      "v": 89,
      "w": 90,
      "x": 91,
      "y": 92,
      "z": 93,
      "{": 94,
      "|": 95,
      "}": 96,
      "~": 97,
      "¡": 98,
      "¢": 99,
      "£": 100,
      "¤": 101,
      "¥": 102,
      "¦": 103,
      "§": 104,
      "¨": 105,
      "©": 106,
      "ª": 107,
      "«": 108,
      "¬": 109,
      "®": 110,
      "¯": 111,
      "°": 112,
      "±": 113,
      "²": 114,
      "³": 115,
      "´": 116,
      "µ": 117,
      "¶": 118,
      "·": 119,
      "¸": 120,
      "¹": 121,
      "º": 122,
      "»": 123,
      "¼": 124,
      "½": 125,
      "¾": 126,
      "¿": 127,
      "Â": 128,
      "Ã": 129,
      "Ä": 130,
      "Å": 131,
      "Æ": 132,
      "É": 133,
      "Ê": 134,
      "Ë": 135,
      "Î": 136,
      "Ï": 137,
      "Ð": 138,
      "Ñ": 139,
      "×": 140,
      "Ø": 141,
      "à": 142,
      "á": 143,
      "â": 144,
      "ã": 145,
      "ä": 146,
      "å": 147,
      "æ": 148,
      "ç": 149,
      "è": 150,
      "é": 151,
      "ê": 152,
      "ë": 153,
      "ì": 154,
      "í": 155,
      "ï": 156,
      "ð": 157,
      "Ā": 158,
      "Ċ": 159,
      "Ġ": 160,
      "Ģ": 161,
      "ģ": 162,
      "Ĥ": 163,
      "ĥ": 164,
      "Ħ": 165,
      "ħ": 166,
      "Ĩ": 167,
      "ĩ": 168,
      "Ī": 169,
      "ī": 170,
      "Ĭ": 171,
      "ĭ": 172,
      "Į": 173,
      "į": 174,
      "İ": 175,
      "ı": 176,
      "Ĳ": 177,
      "ĳ": 178,
      "Ĵ": 179,
      "ĵ": 180,
      "Ķ": 181,
      "ķ": 182,
      "ĸ": 183,
      "Ĺ": 184,
      "ĺ": 185,
      "Ļ": 186,
      "ļ": 187,
      "Ľ": 188,
      "ľ": 189,
      "Ŀ": 190,
      "ŀ": 191,
      "Ł": 192,
      "ł": 193,
      "Ń": 194,
      "ãģ": 195,
      "Ġì": 196,
      "ãĤ": 197,
      "Ġë": 198,
      "ìĿ": 199,
      "ãĥ": 200,
      "Ġê": 201,
      "ëĭ": 202,
      "íķ": 203,
      "ìĿ´": 204,
      "ìĹ": 205,
      "ëĬ": 206,
      "ê°": 207,
      "Ġí": 208,
      "ëĬĶ": 209,
      "ëĭ¤": 210,
      "ãĢ": 211,
      "ìķ": 212,
      "ê³": 213,
      "ï¼": 214,
      "ì§": 215,
      "ãģĦ": 216,
      "ìļ": 217,
      "ĸ´": 218,
      "ê°Ģ": 219,
      "Ġìķ": 220,
      "·¸": 221,
      "ë¦": 222,
      "ãģ®": 223,
      "ê³ł": 224,
      "Ġìŀ": 225,
      "ìĹĲ": 226,
      "ä¸": 227,
      "ìĿĦ": 228,
      "Ġê·¸": 229,
      "ì§Ģ": 230,
      "ìļĶ": 231,
      "ĠëĤ": 232,
      "ãģĹ": 233,
      "ëĵ": 234,
      "ãģª": 235,
      "ìĸ´": 236,
      "ìĦ": 237,
      "ãĤĵ": 238,
      "íķĺ": 239,
      "ê²": 240,
      "ãģ£": 241,
      "ãģĭ": 242,
      "ë¦¬": 243,
      "ĠìĿ": 244,
      "ãģŁ": 245,
      "ãģĨ": 246,
      "ëĭĪ": 247,
      "ãģ¦": 248,
      "ìŀ": 249,
      "ëı": 250,
      "ìĿĢ": 251,
      "ê¸": 252,
      "Ġë§": 253,
      "ë¡": 254,
      "ï¼Į": 255,
      "ë¥": 256,
      "ëĤ": 257,
      "ãĥ¼": 258,
      "ìĭ": 259,
      "..": 260,
      "ãģ¯": 261,
      "ìĬ": 262,
      "ãģ«": 263,
      "Ġìł": 264,
      "ë§": 265,
      "ëŀ": 266,
      "ãĢģ": 267,
      "âĢ": 268,
      "æĺ": 269,
      "ìł": 270,
      "ĠìĹ": 271,
      "Ġê°": 272,
      "ãģ¨": 273,
      "ìĿĺ": 274,
      "ãģ§": 275,
      "ëł": 276,
      "ëıĦ": 277,
      "ĠìŀĪ": 278,
      "ë¡ľ": 279,
      "ëĵ¤": 280,
      "æľ": 281,
      "±°": 282,
      "Ġíķ": 283,
      "ãģ¾": 284,
      "âĢ¦": 285,
      "ìĦľ": 286,
      "ãģĮ": 287,
      "ê¸°": 288,
      "åħ": 289,
      "ìķĦ": 290,
      "äº": 291,
      "ãĤĭ": 292,
      "ĠìķĦ": 293,
      "ìķ¼": 294,
      "ëŁ": 295,
      "ãģĵ": 296,
      "çĶ": 297,
      "ãģĤ": 298,
      "æĺ¯": 299,
      "ëĭĪëĭ¤": 300,
      "ë¥¼": 301,
      "ĠìĿ´": 302,
      "ãģł": 303,
      "Ġëĭ": 304,
      "ê²Į": 305,
      "Ġì§": 306,
      "å¤": 307,
      "Ġìļ": 308,
      "ì£": 309,
      "ãĤī": 310,
      "ãĤĤ": 311,
      "ä»": 312,
      "Ġë°": 313,
      "ãģı": 314,
      "Ĥ¬": 315,
      "ëį": 316,
      "ëĿ": 317,
      "ãĢĤ": 318,
      "Ġëª": 319,
      "ãģĻ": 320,
      "ãĥ³": 321,
      "åı": 322,
      "ãģį": 323,
      "ãģĬ": 324,
      "ìĺ": 325,
      "ãĥ»": 326,
      "ãĤĬ": 327,
      "ëĿ¼": 328,
      "Ġê²": 329,
      "ãģķ": 330,
      "Ġìļ°": 331,
      "åľ": 332,
      "ìľ": 333,
      "å®": 334,
      "Ġìĭ": 335,
      "ãģ¡": 336,
      "íķľ": 337,
      "ãĤĮ": 338,
      "ĠëĤĺ": 339,
      "êµ": 340,
      "ãĤĴ": 341,
      "íķ´": 342,
      "ìĬ¤": 343,
      "ĸĪ": 344,
      "ìĹĪ": 345,
      "ë©": 346,
      "Ġìĺ": 347,
      "ëĤĺ": 348,
      "ë²": 349,
      "ãĤĪ": 350,
      "æĸ": 351,
      "Īĺ": 352,
      "åŃ": 353,
      "ä½": 354,
      "ĠìĤ¬": 355,
      "ìĿ¸": 356,
      "Ġëı": 357,
      "Ġìļ°ë¦¬": 358,
      "åĪ": 359,
      "ê±°": 360,
      "³´": 361,
      "Ġìĸ´": 362,
      "Ħ¤": 363,
      "ìŀĲ": 364,
      "åĲ": 365,
      "ìĽ": 366,
      "ĮĢ": 367,
      "ãģĿ": 368,
      "ãĥĥ": 369,
      "ĠìĪĺ": 370,
      "ï¼ģ": 371,
      "ĠëĤ´": 372,
      "ãĤı": 373,
      "Ġë§Ĳ": 374,
      "ìĥ": 375,
      "íĸĪ": 376,
      "...": 377,
      "ãģĪ": 378,
      "Ġê°Ģ": 379,
      "Ġê±°": 380,
      "ë©´": 381,
      "ìľ¼": 382,
      "ëħ": 383,
      "ë¬": 384,
      "ê¹": 385,
      "ë§Į": 386,
      "Ġê³": 387,
      "ãģ£ãģ¦": 388,
      "æĹ": 389,
      "æĪ": 390,
      "éĢ": 391,
      "ãĥ»ãĥ»": 392,
      "ë°": 393,
      "ãĤĦ": 394,
      "Ġì£": 395,
      "ãģĺ": 396,
      "Ġìĥ": 397,
      "ãģ¿": 398,
      "ãģĳ": 399,
      "ĠìłĦ": 400,
      "ìĭľ": 401,
      "å°": 402,
      "åį": 403,
      "Ġë¬": 404,
      "ä¸Ģ": 405,
      "ãģ¤": 406,
      "ìĬµ": 407,
      "ìĭł": 408,
      "æī": 409,
      "Ġë¶": 410,
      "ĠìĹĨ": 411,
      "å¹": 412,
      "è¨": 413,
      "å¾": 414,
      "Ġì§Ģ": 415,
      "ãĤ¹": 416,
      "ì£ł": 417,
      "ĠìĹ¬": 418,
      "ãĤ¤": 419,
      "ìĹĲìĦľ": 420,
      "Ġíķĺ": 421,
      "è¦": 422,
      "ĠìĿ¼": 423,
      "ï½": 424,
      "ìĺ¤": 425,
      "æ°": 426,
      "ãĥĪ": 427,
      "ãĤĥ": 428,
      "ä¹": 429,
      "ìĬµëĭĪëĭ¤": 430,
      "éģ": 431,
      "ëŁ¬": 432,
      "Ġì¢": 433,
      "ìĸ´ìļĶ": 434,
      "ãģ©": 435,
      "ëį°": 436,
      "ëł¤": 437,
      "ë¶": 438,
      "ĠìĨ": 439,
      "å·": 440,
      "¯¸": 441,
      "ãĥ«": 442,
      "ëĳ": 443,
      "éĩ": 444,
      "ĠëĲ": 445,
      "Ġê¸": 446,
      "ì£¼": 447,
      "ëĲ": 448,
      "æĿ": 449,
      "ãĤĩ": 450,
      "Ĭ¸": 451,
      "ì¹": 452,
      "è¡": 453,
      "ìłľ": 454,
      "åº": 455,
      "éĸ": 456,
      "ê¹Į": 457,
      "ĠìĻ": 458,
      "Ġëį": 459,
      "ĠìŀĲ": 460,
      "åĽ": 461,
      "ìĿ¼": 462,
      "Ġëª¨": 463,
      "ìķĺ": 464,
      "ĠìķĮ": 465,
      "ìĨ": 466,
      "ĠíĻ": 467,
      "ãģªãģĦ": 468,
      "èĢ": 469,
      "ë¹": 470,
      "Ġëĭ¤": 471,
      "æŃ": 472,
      "åĢ": 473,
      "ëŀĺ": 474,
      "Ġì¤": 475,
      "ìĻ": 476,
      "ĠìķĪ": 477,
      "ĠìĦ": 478,
      "åĬ": 479,
      "ï¼Ł": 480,
      "ì²": 481,
      "ê²ł": 482,
      "çĽ": 483,
      "Ġìĸ": 484,
      "å±": 485,
      "çļ": 486,
      "Ġìľ": 487,
      "ìĥģ": 488,
      "ĠëĦ": 489,
      "Ġëĵ": 490,
      "Ġìĭľ": 491,
      "ãģ£ãģŁ": 492,
      "æĻ": 493,
      "å¤§": 494,
      "èª": 495,
      "ëĮĢ": 496,
      "æķ": 497,
      "±´": 498,
      "ê³¼": 499,
      "Ġìĺ¤": 500,
      "ëª": 501,
      "éĽ": 502,
      "ķĮ": 503,
      "éĥ": 504,
      "Ġëĭ¹": 505,
      "å¸": 506,
      "ãĤ¯": 507,
      "ãĤį": 508,
      "ï½¥": 509,
      "ãģŃ": 510,
      "ãģĽ": 511,
      "å¿": 512,
      "ë§Ī": 513,
      "ãģĹãģ¦": 514,
      "å¯": 515,
      "ãĥ©": 516,
      "ì°": 517,
      "Ġíı": 518,
      "ëĦ¤": 519,
      "ä¸Ń": 520,
      "ëĵľ": 521,
      "å¥": 522,
      "ĠìķĬ": 523,
      "ëŀĮ": 524,
      "ë³´": 525,
      "ëĵł": 526,
      "çĤ": 527,
      "Ġíķ´": 528,
      "ãĥª": 529,
      "ãĤ¢": 530,
      "ä¿": 531,
      "Ġê²ĥ": 532,
      "íĬ¸": 533,
      "00": 534,
      "çī": 535,
      "Ġìĸ´ë": 536,
      "Ġë²": 537,
      "ê·¸": 538,
      "ìĸ": 539,
      "íŀ": 540,
      "æĹ¥": 541,
      "ëįĺ": 542,
      "Ġë§Ī": 543,
      "ĠëıĦ": 544,
      "êµ¬": 545,
      "åĮ": 546,
      "Ġê·¸ëŁ": 547,
      "ä¼": 548,
      "ç§": 549,
      "ĶĦ": 550,
      "ç¨": 551,
      "åĨ": 552,
      "åī": 553,
      "Ġíĺ": 554,
      "ä¸į": 555,
      "Ġêµ": 556,
      "!!": 557,
      "Ġê°Ļ": 558,
      "èĩ": 559,
      "©ëĭĪëĭ¤": 560,
      "Ġê¸°": 561,
      "å½": 562,
      "ãĥ¼ãĥ": 563,
      "çĻ": 564,
      "ãģĭãĤī": 565,
      "äºº": 566,
      "ãĤģ": 567,
      "Ġë°Ķ": 568,
      "ë²Ħ": 569,
      "ĠëĪ": 570,
      "å¼": 571,
      "åĭ": 572,
      "ç´": 573,
      "Ġë³´": 574,
      "Ġì£¼": 575,
      "ĠìŀĪëĬĶ": 576,
      "æĢ": 577,
      "ĠëŃ": 578,
      "Ġë¹": 579,
      "ë¥´": 580,
      "Ġì¢ĭ": 581,
      "±¸": 582,
      "ìŀ¥": 583,
      "ĠëĨ": 584,
      "åł": 585,
      "ĠìĬ": 586,
      "ãĤ«": 587,
      "è²": 588,
      "æ³": 589,
      "æ²": 590,
      "çµ": 591,
      "ìľ¼ë¡ľ": 592,
      "Ġ1": 593,
      "Ġì°": 594,
      "çļĦ": 595,
      "èĪ": 596,
      "ĠëįĶ": 597,
      "íķł": 598,
      "íħ": 599,
      "ãĤĩãģĨ": 600,
      "éĿ": 601,
      "ì¡": 602,
      "æµ": 603,
      "íĥ": 604,
      "åĩ": 605,
      "çĶŁ": 606,
      "íĻ": 607,
      "ä¸Ĭ": 608,
      "ĠìĤ¬ëŀĮ": 609,
      "åħ¥": 610,
      "Ġëĭ¹ìĭł": 611,
      "ëıĻ": 612,
      "éĻ": 613,
      "ç¾": 614,
      "íķĺëĬĶ": 615,
      "ãĤ·": 616,
      "ĠëķĮ": 617,
      "åĵ": 618,
      "åľ¨": 619,
      "ĠëĤ¨": 620,
      "ĠìĤ": 621,
      "Ġëĵ¤": 622,
      "æĬ": 623,
      "ì¤": 624,
      "´Ĳ": 625,
      "ãĤ¿": 626,
      "æľī": 627,
      "ãģĹãģŁ": 628,
      "ãģ°": 629,
      "åĳ": 630,
      "çķ": 631,
      "Ġì¡": 632,
      "åŃĲ": 633,
      "æ¥": 634,
      "ìĻĢ": 635,
      "ĠëĮĢ": 636,
      "ìĽĮ": 637,
      "ìĿĮ": 638,
      "ĠìĥĿ": 639,
      "çŁ": 640,
      "ìĤ¬": 641,
      "ãģ§ãģĻ": 642,
      "æĦ": 643,
      "çĦ": 644,
      "ĠìłĢ": 645,
      "ãĥ¬": 646,
      "ê¸Ī": 647,
      "ê°Ħ": 648,
      "Ġë¯¸": 649,
      "íķĺê³ł": 650,
      "ĠëĤ´ê°Ģ": 651,
      "ë¬¸": 652,
      "Ġìĸ´ëĸ": 653,
      "ãĤŃ": 654,
      "ìļ°": 655,
      "è»": 656,
      "åľĭ": 657,
      "ê±´": 658,
      "íĺ": 659,
      "çľ": 660,
      "ãĢĮ": 661,
      "ëħĦ": 662,
      "Ġë¬´": 663,
      "é¡": 664,
      "æĶ": 665,
      "ãģĶ": 666,
      "ëĤ´": 667,
      "ĠëĦ¤": 668,
      "ĠíĽ": 669,
      "ìłģ": 670,
      "Ġíķľ": 671,
      "ëĤľ": 672,
      "ãĥī": 673,
      "ëĥ": 674,
      "Ġ'": 675,
      "è©": 676,
      "ï½¥ï½¥": 677,
      "æ±": 678,
      "ä»¥": 679,
      "ë¶Ģ": 680,
      "ãģ²": 681,
      "ì§Ģë§Į": 682,
      "æĽ": 683,
      "íĦ": 684,
      "ĶĶ": 685,
      "æĻĤ": 686,
      "ìĹĲê²Į": 687,
      "éł": 688,
      "å¹´": 689,
      "ç¥": 690,
      "è¿": 691,
      "çĲ": 692,
      "ìķĪ": 693,
      "æ´": 694,
      "ãĤĵãģł": 695,
      "ĠëĦĪ": 696,
      "ë¬´": 697,
      "ãĤ³": 698,
      "ëĵ¤ìĿĦ": 699,
      "ê°ģ": 700,
      "ëĵ¤ìĿĢ": 701,
      "íģ": 702,
      "Ġíĸ": 703,
      "Ġì§ĳ": 704,
      "æľ¬": 705,
      "ìĭ¤": 706,
      "èĥ": 707,
      "íŀĪ": 708,
      "ĠìľĦ": 709,
      "åĴ": 710,
      "åİ": 711,
      "Ġì¡°": 712,
      "èĭ": 713,
      "Ġìłľ": 714,
      "ãĥģ": 715,
      "êµ°": 716,
      "ìłķ": 717,
      "æİ": 718,
      "æł": 719,
      "æĥ": 720,
      "ç¤": 721,
      "ëĲĺ": 722,
      "ì¹ĺ": 723,
      "è£": 724,
      "Ġë¶Ģ": 725,
      "ëĿ¼ê³ł": 726,
      "æ¸": 727,
      "ãĤª": 728,
      "Ġì£½": 729,
      "ĠT": 730,
      "ë¦¬ê³ł": 731,
      "ãĥķ": 732,
      "Ġê±¸": 733,
      "ĠìĨĮ": 734,
      "Ġì²": 735,
      "æ¯": 736,
      "ĠìĥĿê°ģ": 737,
      "éļ": 738,
      "Ġë³": 739,
      "ëłĩ": 740,
      "ãĥĲ": 741,
      "ìŀħ": 742,
      "ç«": 743,
      "ãĤ¸": 744,
      "Ġê·¸ëŀĺ": 745,
      "ãĢį": 746,
      "éĸĵ": 747,
      "ë¦°": 748,
      "ç·": 749,
      "é£": 750,
      "çĤº": 751,
      "ëĭ¤ê³ł": 752,
      "ë°©": 753,
      "æĪĳ": 754,
      "ĠëĤľ": 755,
      "ĠëĤĺëĬĶ": 756,
      "ãĥŃ": 757,
      "ìĦł": 758,
      "ãģĺãĤĥ": 759,
      "íĦ°": 760,
      "ãģķãĤĵ": 761,
      "çı": 762,
      "ĠëĲĺ": 763,
      "ìĿ´ìķ¼": 764,
      "é«": 765,
      "ë¯¸": 766,
      "Ġë§Į": 767,
      "Ġê³ł": 768,
      "è¦ĭ": 769,
      "Ġì¤ĳ": 770,
      "ĠìŀĪìĹĪ": 771,
      "æ¬": 772,
      "äºĭ": 773,
      "Ġì¹": 774,
      "Â¥": 775,
      "ë§ī": 776,
      "Ġìĸ´ëĸ»": 777,
      "Ġì§Ģê¸Ī": 778,
      "íĶĦ": 779,
      "ëŀĢ": 780,
      "ĠëĪĦ": 781,
      "å£": 782,
      "çİ": 783,
      "åĥ": 784,
      "ãģ¾ãģĻ": 785,
      "æı": 786,
      "Ġë¦": 787,
      "èī": 788,
      "çŃ": 789,
      "æŀ": 790,
      "ä¾": 791,
      "ä¹ĭ": 792,
      "íĻĶ": 793,
      "åŁ": 794,
      "ĠëŃĲ": 795,
      "ĠíıŃ": 796,
      "ãģļ": 797,
      "åĩº": 798,
      "¯¼": 799,
      "ëŁ¼": 800,
      "æĮ": 801,
      "ĦìĹĲ": 802,
      "ĠìĬ¤": 803,
      "Ġíĥ": 804,
      "Ġëª»": 805,
      "ãģ¡ãĤĥ": 806,
      "ìŁ": 807,
      "Ġìłķ": 808,
      "Ġìĸ´ëĸ»ê²Į": 809,
      "å§": 810,
      "è³": 811,
      "20": 812,
      "ãĥŀ": 813,
      "èģ": 814,
      "ļĮ": 815,
      "ãĤħ": 816,
      "ãĥ£": 817,
      "ë¦´": 818,
      "ìŀĸ": 819,
      "ç©": 820,
      "ĠìķĦëĭĪ": 821,
      "ç¶": 822,
      "è·": 823,
      "è¡Į": 824,
      "ìĨĮ": 825,
      "ì§ģ": 826,
      "ç¬": 827,
      "ãģ»": 828,
      "Ġëĳ": 829,
      "ĠìķĦìĿ´": 830,
      "è¬": 831,
      "ãĤĵãģª": 832,
      "æĭ": 833,
      "åĸ": 834,
      "éĤ": 835,
      "ëĭ¤ëĬĶ": 836,
      "æ®": 837,
      "èı": 838,
      "æ©": 839,
      "ãģµ": 840,
      "èĤ": 841,
      "ê»": 842,
      "êµŃ": 843,
      "åģ": 844,
      "íĨ": 845,
      "è¥": 846,
      "íĤ": 847,
      "ĠëĤł": 848,
      "ëªħ": 849,
      "ë³": 850,
      "è«": 851,
      "åĪĨ": 852,
      "ãģĵãģ¨": 853,
      "ĠìĽ": 854,
      "æ¨": 855,
      "å»": 856,
      "Ġíķł": 857,
      "ĠA": 858,
      "èĩª": 859,
      "Ġë¶Ī": 860,
      "éħ": 861,
      "è±": 862,
      "âĢ¦âĢ¦": 863,
      "èŃ": 864,
      "æŁ": 865,
      "èĬ": 866,
      "Ġê²½": 867,
      "ãĥĹ": 868,
      "ëŀĳ": 869,
      "µľ": 870,
      "åľ°": 871,
      "ìŀĸìķĦ": 872,
      "é¦": 873,
      "ĠìĤ´": 874,
      "ëĭĪê¹Į": 875,
      "ê±°ìķ¼": 876,
      "Ġê·¸ëŁ°": 877,
      "ì§Ħ": 878,
      "Ġë°ĺ": 879,
      "Ġê·¸ëłĩ": 880,
      "ëĬĶì§Ģ": 881,
      "èĳ": 882,
      "ëĵ¤ìĿ´": 883,
      "æ·": 884,
      "å¦": 885,
      "Ġì¶": 886,
      "ĠìĿ¼ìĸ´": 887,
      "ëĳĳ": 888,
      "Ġìļ°ë¦¬ëĬĶ": 889,
      "å®¶": 890,
      "è¼": 891,
      "ìĦ¸": 892,
      "åīį": 893,
      "åķ": 894,
      "è¶": 895,
      "ä»Ĭ": 896,
      "æ§": 897,
      "è§": 898,
      "Ġíķ©ëĭĪëĭ¤": 899,
      "ç¦": 900,
      "éĢĻ": 901,
      "èĲ": 902,
      "ãģĵãģ®": 903,
      "ëĶĶ": 904,
      "Ġë¨": 905,
      "åĲĪ": 906,
      "ĠíĸĪ": 907,
      "ëł¸": 908,
      "łìĿ´": 909,
      "æ¼": 910,
      "ä½ķ": 911,
      "æĸ¹": 912,
      "Ġìµľ": 913,
      "íħĮ": 914,
      "ĲìĿ´": 915,
      "æģ": 916,
      "å°ı": 917,
      "ãĥ»ãĥ»ãĥ»ãĥ»": 918,
      "ç¸": 919,
      "Ġëĸ": 920,
      "ë£": 921,
      "ĠëķĮë¬¸": 922,
      "ãģĿãģĨ": 923,
      "íķĺì§Ģ": 924,
      "ê°ľ": 925,
      "ìĦ±": 926,
      "ìĹħ": 927,
      "ìĨį": 928,
      "å±±": 929,
      "ĠëıĦëĳĳ": 930,
      "é§": 931,
      "Ġìŀĺ": 932,
      "íĥĢ": 933,
      "å³": 934,
      "æĸ°": 935,
      "Ġëĵ¤ìĸ´": 936,
      "Ġíģ": 937,
      "æīĢ": 938,
      "æīĭ": 939,
      "ì²´": 940,
      "Ġëª¨ë¥´": 941,
      "æħ": 942,
      "Ġì¢ĭìķĦ": 943,
      "èĹ": 944,
      "IN": 945,
      "æº": 946,
      "ëĵ¤ìĿĺ": 947,
      "ãĤµ": 948,
      "é¤": 949,
      "Ġìĸĺ": 950,
      "ë¥¸": 951,
      "é»": 952,
      "ä¸ĭ": 953,
      "ë¹Ľ": 954,
      "ĠëĳĲ": 955,
      "ĠìĶ": 956,
      "ä»ĸ": 957,
      "Ġê³Ħ": 958,
      "åı¯": 959,
      "Ġìŀĳ": 960,
      "ãĥĳ": 961,
      "Ġë¬¼": 962,
      "íķ©ëĭĪëĭ¤": 963,
      "ãĤ¦": 964,
      "çĶ¨": 965,
      "åĲį": 966,
      "ãģĻãĤĭ": 967,
      "çĹ": 968,
      "íĸ": 969,
      "ãĤ¬": 970,
      "ë¹Ħ": 971,
      "Ġë¦¬": 972,
      "ìļ´": 973,
      "ĠìķĮê³ł": 974,
      "ãĤ°": 975,
      "æĤ": 976,
      "éŁ": 977,
      "éŃ": 978,
      "ëĭ¹": 979,
      "æ¶": 980,
      "ãģĴ": 981,
      "ãĥ¥": 982,
      "çł": 983,
      "Ġìŀ¡": 984,
      "ĠìĦľ": 985,
      "çĶ°": 986,
      "èĢħ": 987,
      "è¾": 988,
      "10": 989,
      "ç¿": 990,
      "ĠëĬ": 991,
      "ĠìĥĪ": 992,
      "ĠS": 993,
      "ç§ģ": 994,
      "Ġíĸĩ": 995,
      "èµ": 996,
      "Ġê²ģ": 997,
      "Ġëªħ": 998,
      "ìŀĳ": 999,
      "ë´Ĳ": 1000,
      "ĠìłĪ": 1001,
      "åĤ": 1002,
      "æ¢": 1003,
      "ä¸ī": 1004,
      "ê±°ëĵł": 1005,
      "ëħĢ": 1006,
      "å²": 1007,
      "ï¼ģï¼ģ": 1008,
      "Ġê·": 1009,
      "ĠìĹ¬ìŀĲ": 1010,
      "HE": 1011,
      "ãģĦãģĦ": 1012,
      "Ġê°ľ": 1013,
      "ãģªãĤĵ": 1014,
      "ìĿ´íĬ¸": 1015,
      "éĨ": 1016,
      "ãĤĨ": 1017,
      "æľĪ": 1018,
      "äºĮ": 1019,
      "ĠìĻķ": 1020,
      "Ġìµľê³ł": 1021,
      "ãģ¶": 1022,
      "ãģĵãģĨ": 1023,
      "è¨Ģ": 1024,
      "ç½": 1025,
      "ìłĦ": 1026,
      "Ġë¹Ħ": 1027,
      "å·Ŀ": 1028,
      "Ġíĸĩë¹Ľ": 1029,
      "åĦ": 1030,
      "Ġê·¸ë¦¬ê³ł": 1031,
      "ç¯": 1032,
      "ĠìŀĪìĬµëĭĪëĭ¤": 1033,
      "ëĳĲ": 1034,
      "ãĥ¡": 1035,
      "åĻ": 1036,
      "ìłĢ": 1037,
      "ç¢": 1038,
      "åĴĮ": 1039,
      "Ġê°ĻìĿĢ": 1040,
      "å¢": 1041,
      "è¢": 1042,
      "ìŁģ": 1043,
      "ãĤ£": 1044,
      "ãĥı": 1045,
      "íİ": 1046,
      "ç²": 1047,
      "éĹ": 1048,
      "æ£": 1049,
      "è¦ģ": 1050,
      "åĿ": 1051,
      "Ġìľł": 1052,
      "èĮ": 1053,
      "ĠíĨ": 1054,
      "ìĿ´ìĹĪ": 1055,
      "ä¼ļ": 1056,
      "Ġìĺ¬": 1057,
      "ê¸°ëĬĶ": 1058,
      "ãģ§ãĤĤ": 1059,
      "Ġê±´": 1060,
      "åŃ¸": 1061,
      "çĲĨ": 1062,
      "ãĥĨ": 1063,
      "ãĤĪãģĨ": 1064,
      "çĥ": 1065,
      "ãģĦãģŁ": 1066,
      "Ġë§ŀ": 1067,
      "ĠíĶĦ": 1068,
      "éĮ": 1069,
      "ëĦ": 1070,
      "ĠíĽĦ": 1071,
      "å´": 1072,
      "ëĤ¬": 1073,
      "ìĦĿ": 1074,
      "íķ´ìĦľ": 1075,
      "Ġìĥģ": 1076,
      "ëł¤ê³ł": 1077,
      "éľ": 1078,
      "ìĹĨ": 1079,
      "çģ": 1080,
      "ãģİ": 1081,
      "ç¹": 1082,
      "ä½ľ": 1083,
      "éĥ¨": 1084,
      "Ġê·¸ëŁ¼": 1085,
      "ëĬĶëį°": 1086,
      "æ¡": 1087,
      "Ġì¢Ģ": 1088,
      "ãģ©ãģĨ": 1089,
      "åĢĳ": 1090,
      "åł´": 1091,
      "è®": 1092,
      "åĨħ": 1093,
      "ĠíķŃ": 1094,
      "ãĤĢ": 1095,
      "èį": 1096,
      "Ġëģ": 1097,
      "ç®": 1098,
      "ë¨": 1099,
      "ĠíĮ": 1100,
      "æ°Ĺ": 1101,
      "Ġê²ģëĭĪëĭ¤": 1102,
      "ãģĿãĤĮ": 1103,
      "çĶº": 1104,
      "ĢìĿ´": 1105,
      "Ġì§Ħ": 1106,
      "éķ": 1107,
      "Ġë¦¬ë§ī": 1108,
      "å¾Į": 1109,
      "Ġê²Į": 1110,
      "çĶµ": 1111,
      "Ġêµ°": 1112,
      "ãģĲ": 1113,
      "æ»": 1114,
      "ìĪ": 1115,
      "ë¡Ŀ": 1116,
      "ëĤł": 1117,
      "ì²ĺ": 1118,
      "çª": 1119,
      "ì¶": 1120,
      "Ġìļ°ë¦¬ê°Ģ": 1121,
      "ĠM": 1122,
      "ìħ": 1123,
      "ĠìĨĲ": 1124,
      "íķľëĭ¤": 1125,
      "ĠíķŃìĥģ": 1126,
      "æĸĩ": 1127,
      "æĵ": 1128,
      "åįģ": 1129,
      "æ¹": 1130,
      "âĻ": 1131,
      "ĠëıĻ": 1132,
      "çĪ": 1133,
      "íĸĪëĭ¤": 1134,
      "è½": 1135,
      "èĸ": 1136,
      "ëĥĲ": 1137,
      "ìĿ´ì£ł": 1138,
      "ë¦Ħ": 1139,
      "çĢ": 1140,
      "çĬ": 1141,
      "ìĭĿ": 1142,
      "Ġ19": 1143,
      "!?": 1144,
      "éĩĳ": 1145,
      "RE": 1146,
      "äºĨ": 1147,
      "æľª": 1148,
      "æĸ¼": 1149,
      "æ°´": 1150,
      "èº": 1151,
      "ë¡ľê°Ģ": 1152,
      "ìļ°ëĵľ": 1153,
      "ĠíĻķ": 1154,
      "Ġë¬¸": 1155,
      "Ġë´Ĳ": 1156,
      "Ġê´": 1157,
      "é¨": 1158,
      "ìģ": 1159,
      "ìĹĲìļĶ": 1160,
      "ãģĿãģ®": 1161,
      "çĭ": 1162,
      "ĠìĻľ": 1163,
      "ãĥĸ": 1164,
      "èĻ": 1165,
      "å¿ĥ": 1166,
      "ãģĸ": 1167,
      "ãģ£ãģ¨": 1168,
      "çī©": 1169,
      "ì§ĢëĬĶ": 1170,
      "Ġë°Ķìļ°ëĵľ": 1171,
      "ãĥŁ": 1172,
      "çį": 1173,
      "Ġìłģ": 1174,
      "æĪĲ": 1175,
      "ĠìĹ¬ê¸°": 1176,
      "Ġê±°ìķ¼": 1177,
      "Ī¬": 1178,
      "ĠìłĦìŁģ": 1179,
      "íģ¬": 1180,
      "çĿ": 1181,
      "ĠíıŃìĬ¤": 1182,
      "Ġìĺģ": 1183,
      "ĠëĲł": 1184,
      "åħĪ": 1185,
      "íĹ": 1186,
      "éº": 1187,
      "åŃĹ": 1188,
      "ãĤ¨": 1189,
      "ãĢľ": 1190,
      "ê¸°ë¥¼": 1191,
      "Ġëĸł": 1192,
      "è¯": 1193,
      "ìĺĢ": 1194,
      "ĠìŀĪìĸ´": 1195,
      "åħ¨": 1196,
      "ãĤ´": 1197,
      "ìĶ": 1198,
      "åºĹ": 1199,
      "ëĦ¤ìļĶ": 1200,
      "æį": 1201,
      "ĠìķĦì£¼": 1202,
      "ëįĶ": 1203,
      "ì°¨": 1204,
      "ĠìĿ´ìłľ": 1205,
      "é«ĺ": 1206,
      "åĬĽ": 1207,
      "ãĥĬ": 1208,
      "ìĿ´ëĭ¤": 1209,
      "å«": 1210,
      "æ¿": 1211,
      "éĺ": 1212,
      "íķľíħĮ": 1213,
      "ĠìĽĲ": 1214,
      "éĿ¢": 1215,
      "å¤ĸ": 1216,
      "é¶": 1217,
      "Ġ5": 1218,
      "å¡": 1219,
      "åĵģ": 1220,
      "éĬ": 1221,
      "....": 1222,
      "AN": 1223,
      "å®ļ": 1224,
      "ë²Ī": 1225,
      "å©": 1226,
      "OU": 1227,
      "ç³": 1228,
      "ìĹ¬": 1229,
      "ãĥĵ": 1230,
      "ì§Ģê°Ģ": 1231,
      "ãģĦãĤĭ": 1232,
      "ãģĵãĤĮ": 1233,
      "æ½": 1234,
      "ãĥĢ": 1235,
      "ìĹĪëĭ¤": 1236,
      "åĢĭ": 1237,
      "ç¾İ": 1238,
      "ìĭ¬": 1239,
      "Ķ¼": 1240,
      "ìĸĳ": 1241,
      "å·¥": 1242,
      "Ġë§İ": 1243,
      "ĠìķĬìķĺ": 1244,
      "ãĥĩ": 1245,
      "èĥ½": 1246,
      "ĭ°": 1247,
      "èĪĩ": 1248,
      "èħ": 1249,
      "ãģķãģĦ": 1250,
      "ĠI": 1251,
      "çĦ¡": 1252,
      "æĩ": 1253,
      "ìĬ¨": 1254,
      "ëıĦë¡Ŀ": 1255,
      "ìĥĿ": 1256,
      "Ġëª¨ë¥´ê²ł": 1257,
      "ë¸": 1258,
      "Ġì¤Ħ": 1259,
      "Ġíŀ": 1260,
      "ëłĪ": 1261,
      "æ°ĳ": 1262,
      "ON": 1263,
      "ë¶Ħ": 1264,
      "çı¾": 1265,
      "æľĢ": 1266,
      "ëĲľ": 1267,
      "ëª¨": 1268,
      "æļ": 1269,
      "é·": 1270,
      "æĲ": 1271,
      "ĠìĿ´ìķ¼": 1272,
      "Ġ2": 1273,
      "ãĥĿ": 1274,
      "íĮ": 1275,
      "Ġê·¸ëĬĶ": 1276,
      "æĿ±": 1277,
      "Ġê¹": 1278,
      "13": 1279,
      "èĶ": 1280,
      "ç±": 1281,
      "íķ´ìķ¼": 1282,
      "åĹ": 1283,
      "ìĸµ": 1284,
      "Ġíĥľ": 1285,
      "Ġíģ´": 1286,
      "ä»£": 1287,
      "ì½": 1288,
      "ëĭ¨": 1289,
      "çħ": 1290,
      "ìŀħëĭĪëĭ¤": 1291,
      "çĨ": 1292,
      "´¤": 1293,
      "Ġê³µ": 1294,
      "ãģŀ": 1295,
      "ãģĦãģ¦": 1296,
      "çĴ": 1297,
      "èŁ": 1298,
      "ëĨ": 1299,
      "ç¤¾": 1300,
      "çĸ": 1301,
      "èľ": 1302,
      "Ġì£¼ìĦĿ": 1303,
      "æĢĿ": 1304,
      "ĠC": 1305,
      "ãģĹãģĦ": 1306,
      "æ¤": 1307,
      "é½": 1308,
      "ãģ¡ãĤĥãĤĵ": 1309,
      "Ġê·¸ëŁ¬": 1310,
      "éķ·": 1311,
      "å¬": 1312,
      "åĽ½": 1313,
      "ì¡Į": 1314,
      "æ³ķ": 1315,
      "è¨Ī": 1316,
      "åħ¬": 1317,
      "íı": 1318,
      "Ġëĭ¤ë¥¸": 1319,
      "çŀ": 1320,
      "æĴ": 1321,
      "ç£": 1322,
      "çŁ¥": 1323,
      "çĽ®": 1324,
      "çĮ": 1325,
      "ãĤº": 1326,
      "æ¾": 1327,
      "èĵ": 1328,
      "å¤ļ": 1329,
      "ê³Ħ": 1330,
      "ĠìŀĪëĭ¤": 1331,
      "é¼": 1332,
      "éĦ": 1333,
      "Ġë¯¸êµŃ": 1334,
      "æĳ": 1335,
      "çĩ": 1336,
      "æ¦": 1337,
      "ãĤ±": 1338,
      "ãĥĭ": 1339,
      "Ġëª¨ëĳĲ": 1340,
      "ãģ¹": 1341,
      "Ġ\"": 1342,
      "ãģ³": 1343,
      "ĠëĪĪ": 1344,
      "ãģ«ãģª": 1345,
      "ê²ĥ": 1346,
      "Ġìĭ¶": 1347,
      "èĦ": 1348,
      "æĺİ": 1349,
      "æķĻ": 1350,
      "Ġê·¸ëħĢ": 1351,
      "åİŁ": 1352,
      "ãĤĮãģ¦": 1353,
      "ìĹĲëĬĶ": 1354,
      "ĠëķĮë¬¸ìĹĲ": 1355,
      "å¨": 1356,
      "ãģ¸": 1357,
      "ë¦¼": 1358,
      "ë³´ëĭ¤": 1359,
      "ĠìĹĦ": 1360,
      "èķ": 1361,
      "åº¦": 1362,
      "ãĥł": 1363,
      "æµ·": 1364,
      "æĨ": 1365,
      "ĠíķĺëĤĺ": 1366,
      "ĠìĹ°": 1367,
      "èĢĮ": 1368,
      "ìľł": 1369,
      "éī": 1370,
      "ê´": 1371,
      "ë©°": 1372,
      "è¸": 1373,
      "åŃ¦": 1374,
      "Ġë¯¼": 1375,
      "èł": 1376,
      "èŀ": 1377,
      "åĭķ": 1378,
      "ì¼": 1379,
      "ìĽĲ": 1380,
      "ëł¨": 1381,
      "Ġ3": 1382,
      "ì²ĺëŁ¼": 1383,
      "íŀĮ": 1384,
      "è¥¿": 1385,
      "ãĥ¯": 1386,
      "Ġêµ¬": 1387,
      "ë¯¼": 1388,
      "è©±": 1389,
      "ìĺĪ": 1390,
      "ãĤįãģĨ": 1391,
      "Ġë©": 1392,
      "íĴ": 1393,
      "éĲ": 1394,
      "an": 1395,
      "ìĪĺ": 1396,
      "ĠíĶĦë¡ľ": 1397,
      "éĭ": 1398,
      "ĠW": 1399,
      "Ġì£½ìĹĪ": 1400,
      "Ġ9": 1401,
      "ãĤ¤ãĥ³": 1402,
      "ì¢": 1403,
      "ĠìķĦë²Ħ": 1404,
      "ĠíĻľ": 1405,
      "ĺìĿ´": 1406,
      "è¤": 1407,
      "çĳ": 1408,
      "å¥³": 1409,
      "Ġëı¼": 1410,
      "ìł¸": 1411,
      "ç¨®": 1412,
      "æĿ¥": 1413,
      "ì°°": 1414,
      "æĦı": 1415,
      "è¹": 1416,
      "Ġì§ģ": 1417,
      "ĠìķĦì§ģ": 1418,
      "ãģĽãĤĵ": 1419,
      "in": 1420,
      "éį": 1421,
      "ìĩ": 1422,
      "åĺ": 1423,
      "ĠíļĮ": 1424,
      "Ġê·¸ëŀĺìĦľ": 1425,
      "ãģĤãĤĭ": 1426,
      "åĶ": 1427,
      "ĠëĪĦê°Ģ": 1428,
      "ìľ¼ë©´": 1429,
      "ãģĦãģĨ": 1430,
      "é©": 1431,
      "éİ": 1432,
      "åĽŀ": 1433,
      "é¢": 1434,
      "íĸī": 1435,
      "ãģ«ãģ¯": 1436,
      "å¤©": 1437,
      "ë¬¼": 1438,
      "é¬": 1439,
      "ĠìĿĺ": 1440,
      "çº": 1441,
      "ĠíĬ¸": 1442,
      "èĽ": 1443,
      "èĨ": 1444,
      "ĠëĦĪë¬´": 1445,
      "ìĤ": 1446,
      "éĢļ": 1447,
      "Ġëį°": 1448,
      "ê»ĺ": 1449,
      "Ġìĭ¤": 1450,
      "Ġëħ": 1451,
      "íħľ": 1452,
      "èİ": 1453,
      "íļ": 1454,
      "ë²ķ": 1455,
      "éĳ": 1456,
      "é¥": 1457,
      "Ġì¼": 1458,
      "12": 1459,
      "ê¸´": 1460,
      "Ġì´": 1461,
      "ç¨İ": 1462,
      "ãģĭãģ£ãģŁ": 1463,
      "ĠíĺĦ": 1464,
      "ĠíĻĶ": 1465,
      "ĠìĬ¹": 1466,
      "éĩİ": 1467,
      "æŃ£": 1468,
      "ĠìĿ´ë¦Ħ": 1469,
      "å¶": 1470,
      "ãĥľ": 1471,
      "Ġíİ": 1472,
      "ãĥĦ": 1473,
      "ãģłãģĳ": 1474,
      "íļĮ": 1475,
      "çĺ": 1476,
      "ç°": 1477,
      "æ¥Ń": 1478,
      "åĪ©": 1479,
      "åĮĸ": 1480,
      "ìĬ¤íħľ": 1481,
      "åı·": 1482,
      "íĺ¸": 1483,
      "èĺ": 1484,
      "ľêµ¬": 1485,
      "ìĿ´ëĿ¼": 1486,
      "å¸Ĥ": 1487,
      "åŀ": 1488,
      "ìĸ´ìķ¼": 1489,
      "ãģĹãģ¾": 1490,
      "ê·¸ëŀ": 1491,
      "ãģ¡ãĤĩãģĨ": 1492,
      "**": 1493,
      "ãĤĮãģŁ": 1494,
      "ãħ": 1495,
      "Ġê¸°ìĸµ": 1496,
      "æª": 1497,
      "15": 1498,
      "ä¹Ł": 1499,
      "ê±¸": 1500,
      "AT": 1501,
      "ãĥĥãĥĪ": 1502,
      "å¥½": 1503,
      "ë§Ĳ": 1504,
      "éĪ": 1505,
      "ĠíĻľëıĻ": 1506,
      "ê·¸ëŀ¨": 1507,
      "Ġë§ŀìķĺ": 1508,
      "ìĻĶ": 1509,
      "ER": 1510,
      "èĿ": 1511,
      "ĠìĭľìĬ¤íħľ": 1512,
      "ãģĤãĤĬ": 1513,
      "ë¦¬ëĬĶ": 1514,
      "ãĤĮãĤĭ": 1515,
      "ãĤ§": 1516,
      "ĠìķĮìķĺ": 1517,
      "åĪ°": 1518,
      "ë²Ħëł¸": 1519,
      "ãģ§ãģ¯": 1520,
      "Ġë³Ģ": 1521,
      "Ġì¡°ìĿ´": 1522,
      "ì³": 1523,
      "ëłµ": 1524,
      "Ġìµľê³łìĿĺ": 1525,
      "ĠëıĮ": 1526,
      "ĠíĶĦë¡ľê·¸ëŀ¨": 1527,
      "ãĥ§": 1528,
      "er": 1529,
      "Ġë§ĲíĸĪ": 1530,
      "ì§ķ": 1531,
      "ãĤħãģĨ": 1532,
      "ĠìĨį": 1533,
      "ï½ŀ": 1534,
      "ìĦ¸ìļĶ": 1535,
      "Ġëĺ": 1536,
      "ãĥ¢": 1537,
      "æĶ¿": 1538,
      "ãģ¨ãģĨ": 1539,
      "ä¸ĸ": 1540,
      "éĥ½": 1541,
      "åı£": 1542,
      "å½ĵ": 1543,
      "éĩį": 1544,
      "æľ¨": 1545,
      "ĠìĬ¤ìĬ¤": 1546,
      "Ġíħ": 1547,
      "Ġë²łìĿ´": 1548,
      "Ġãģĭ": 1549,
      "å¹³": 1550,
      "ìĹĨìĿ´": 1551,
      "èĴ": 1552,
      "ëĬ¥": 1553,
      "Ġë°©": 1554,
      "Ķê°Ģ": 1555,
      "åĲĮ": 1556,
      "åª": 1557,
      "Ġê²½ì°°": 1558,
      "Ġê·¸ê±´": 1559,
      "è´": 1560,
      "ãģĹãĤĩãģĨ": 1561,
      "åĬł": 1562,
      "ä½ĵ": 1563,
      "ĠB": 1564,
      "ĠíĿ": 1565,
      "ëıĻìķĪ": 1566,
      "ĠìŀĪëĬĶì§Ģ": 1567,
      "éı": 1568,
      "çĵ": 1569,
      "è¯Ŀ": 1570,
      "ì§Ī": 1571,
      "Ġë²łìĿ´ì§ķ": 1572,
      "į¼": 1573,
      "łìĿĺ": 1574,
      "ë¡ľìļ´": 1575,
      "ãģŁãģĦ": 1576,
      "ãĥĶ": 1577,
      "ĠëĲĲ": 1578,
      "ï¼ī": 1579,
      "èļ": 1580,
      "ìĺĪìļĶ": 1581,
      "Ġìĸ´ëłµ": 1582,
      "Ġëĭ¹ìĭłìĿĺ": 1583,
      "ĠíĹ": 1584,
      "ìķł": 1585,
      "ĠìĪ": 1586,
      "ĠëĨĴ": 1587,
      "ĠìłģëıĦ": 1588,
      "Ġìĺ¤ëŀ": 1589,
      "èĭ±": 1590,
      "è°": 1591,
      "ĠëĴ": 1592,
      "ë¶ĢíĦ°": 1593,
      "ëŁ¼íĶĦ": 1594,
      "ĠëĦ¤ê°Ģ": 1595,
      "ãģģ": 1596,
      "ì¤ĳ": 1597,
      "ëģ": 1598,
      "ä¸»": 1599,
      "ĠíĮĮ": 1600,
      "é£Ł": 1601,
      "çľŁ": 1602,
      "çĶµè¯Ŀ": 1603,
      "é®": 1604,
      "ãĤ»": 1605,
      "ĠëĤĺìĿ´íĬ¸": 1606,
      "88": 1607,
      "ç«ĭ": 1608,
      "es": 1609,
      "ĠëıĦëĳĳìĿĦ": 1610,
      "Ġì½": 1611,
      "Ġìŀł": 1612,
      "ĠìĬ¤ìĬ¤ë¡ľê°Ģ": 1613,
      "íķĺë©´": 1614,
      "¹ìĿĢ": 1615,
      "ãĥį": 1616,
      "Ġìķł": 1617,
      "íĳ": 1618,
      "ìĹĶ": 1619,
      "Ġë´¤": 1620,
      "Ġìĭľê°Ħ": 1621,
      "ìĺ¨": 1622,
      "ãģĹãģĭ": 1623,
      "ĺëŁ¬": 1624,
      "UN": 1625,
      "ãĤ®": 1626,
      "å¯¾": 1627,
      "ĠìĤ¬ëŀĮìĿ´": 1628,
      "åļ": 1629,
      "íķĺê²Į": 1630,
      "åĮĹ": 1631,
      "ç¬¬": 1632,
      "ëĬĺ": 1633,
      "ëĲĲ": 1634,
      "ãĥĥãĤ¯": 1635,
      "Ġê¼": 1636,
      "ê¹Įì§Ģ": 1637,
      "íķ´ìļĶ": 1638,
      "ìļĶìĿ¼": 1639,
      "ĠìŀĲê¸°": 1640,
      "ĠíĬ¸ëŁ¼íĶĦ": 1641,
      "ĠëĨį": 1642,
      "ãĥ»ãĥ»ãĥ»": 1643,
      "Ġê²ĥìĿĦ": 1644,
      "ãĥ¼ãĥ«": 1645,
      "åħī": 1646,
      "ìĭľìĺ¤": 1647,
      "ãĤ¶": 1648,
      "´ìĿ´": 1649,
      "çĦ¶": 1650,
      "«ëıĻìķĪ": 1651,
      "ç¥ŀ": 1652,
      "Ġê°ĻìĿ´": 1653,
      "å®ī": 1654,
      "Ġìĺ¤ëŀ«ëıĻìķĪ": 1655,
      "Ġíķ¨": 1656,
      "ì¯": 1657,
      "ĠìĿ¸": 1658,
      "çķª": 1659,
      "ì²Ń": 1660,
      "ê±°ëĤĺ": 1661,
      "Ġíĺģ": 1662,
      "ëĭĺ": 1663,
      "Ġê·¸ëĵ¤ìĿĺ": 1664,
      "ëħ¸": 1665,
      "ëĥ¥": 1666,
      "ê°ľë¯¸": 1667,
      "éģİ": 1668,
      "Ġíĺģëªħ": 1669,
      "ìķĦìļĶ": 1670,
      "Ġê±¸ê¹Į": 1671,
      "ĠìĻķê°ľë¯¸": 1672,
      "æĽ¸": 1673,
      "Ġìļ°ë¦¬ìĿĺ": 1674,
      "ĠìĿ¼ìĸ´ëĤ¬": 1675,
      "ãĤ¡": 1676,
      "ìĹĪìĸ´": 1677,
      "éģĵ": 1678,
      "å¾Ĺ": 1679,
      "ï¼Ī": 1680,
      "è¨ĺ": 1681,
      "ä¿Ŀ": 1682,
      "ëĶ": 1683,
      "ìĿ´ê³ł": 1684,
      "äºĶ": 1685,
      "ĠìĥĪë¡ľìļ´": 1686,
      "éµ": 1687,
      "ãģ®ãģĭ": 1688,
      "å®Ł": 1689,
      "ë§ĪìĽĮ": 1690,
      "íĿ": 1691,
      "åįĹ": 1692,
      "18": 1693,
      "ê±°ëĵłìļĶ": 1694,
      "Ġë§Īìĺ¤": 1695,
      "é´": 1696,
      "éŀ": 1697,
      "Ġê°ĸ": 1698,
      "ĠìĹĨìĸ´": 1699,
      "ĠíķĺìŀĲ": 1700,
      "Ġê·¸ê°Ģ": 1701,
      "éĸĭ": 1702,
      "ì¡Įëĭ¤": 1703,
      "Ġë°Ľ": 1704,
      "Ġê³łë§ĪìĽĮ": 1705,
      "ãģĬãģĬ": 1706,
      "ìº": 1707,
      "ĠìĦ¸": 1708,
      "ĠëĦĮ": 1709,
      "çŃī": 1710,
      "ìĿ¸ê°Ģ": 1711,
      "on": 1712,
      "é±": 1713,
      "ê²¼": 1714,
      "Ġíķ´ë´Ĳ": 1715,
      "Ġì«": 1716,
      "ãģĤãģĤ": 1717,
      "ãĥ¼ãĥ¼": 1718,
      "ãģ¼": 1719,
      "Ġë²Ħ": 1720,
      "Ġì¹ľêµ¬": 1721,
      "Ġìĭł": 1722,
      "å°±": 1723,
      "ï½¥ï½¥ï½¥ï½¥": 1724,
      "ãĥİ": 1725,
      "Ġì°¨": 1726,
      "ë²Ħëł¸ëĭ¤": 1727,
      "ĠìĦł": 1728,
      "ãĤĤãģĨ": 1729,
      "ĶĢ": 1730,
      "ë¡ł": 1731,
      "25": 1732,
      "ãģľ": 1733,
      "Ġë¬´ìĬ¨": 1734,
      "ãģ¾ãģ§": 1735,
      "æ¬¡": 1736,
      "ì»": 1737,
      "ĠíĨµ": 1738,
      "Ġt": 1739,
      "ãĥ¼ãĥĪ": 1740,
      "åıĸ": 1741,
      "Ġíĥľìĸĳ": 1742,
      "ãģĦãģ¤": 1743,
      "Ġì°¾": 1744,
      "ĠD": 1745,
      "Ġíĺ¼": 1746,
      "ĠìĶ¨": 1747,
      "Ġìĭ¸": 1748,
      "ĠëĪĦêµ¬": 1749,
      "ëŁ°": 1750,
      "ĠëĨĴìĿ´": 1751,
      "ĠëıĻìķĪ": 1752,
      "Ġê³³": 1753,
      "Ġê·¸ëłĩê²Į": 1754,
      "ãĥĽ": 1755,
      "ëĳĺëŁ¬": 1756,
      "ëŀ¬": 1757,
      "ãģ±": 1758,
      "æ§ĺ": 1759,
      "ì©": 1760,
      "ĠìĦľëĳĺëŁ¬": 1761,
      "Ġíķ´ë°©": 1762,
      "Ġìĺ¬ë¦´": 1763,
      "ë¦ĦìĹĲ": 1764,
      "ãĤĤãģ®": 1765,
      "ĠëŃĺ": 1766,
      "æĪĳåĢĳ": 1767,
      "æ©Ł": 1768,
      "ĵê³ł": 1769,
      "èªª": 1770,
      "ê²¨": 1771,
      "ãĤĦãģ¾": 1772,
      "Ġë¹¨": 1773,
      "ì¡±": 1774,
      "íĨµ": 1775,
      "ĠíĺģëªħìĿĺ": 1776,
      "ê·": 1777,
      "æ«": 1778,
      "ĠìĹ¬ë¦ĦìĹĲ": 1779,
      "Ġìĸĺê¸°": 1780,
      "é¸": 1781,
      "åµ": 1782,
      "å¤ª": 1783,
      "êµ°ìļĶ": 1784,
      "ãģ§ãģį": 1785,
      "è»į": 1786,
      "Ġìĸĳ": 1787,
      "ãģĮãĤı": 1788,
      "ì¦": 1789,
      "Ġíı¬": 1790,
      "ĠãģĤ": 1791,
      "æľŁ": 1792,
      "åħĥ": 1793,
      "ìļ¸": 1794,
      "ì¤Ģ": 1795,
      "ìľĦ": 1796,
      "Ġìı": 1797,
      "ĠìĤ´ìķĦ": 1798,
      "æľĥ": 1799,
      "ic": 1800,
      "ä½¿": 1801,
      "ëĩ": 1802,
      "ãģĳãģ©": 1803,
      "é¯": 1804,
      "Ġê°Ģìŀ¥": 1805,
      "Ġìĸ¸": 1806,
      "è±¡": 1807,
      "íĽ": 1808,
      "Ġëĭ¬": 1809,
      "Ġìĵ": 1810,
      "ë§Ŀ": 1811,
      "Ġëķ": 1812,
      "ĢìĿĦ": 1813,
      "ĠìĦ¤": 1814,
      "as": 1815,
      "çŁ³": 1816,
      "Ġëª°": 1817,
      "æĪ°": 1818,
      "Ġì±": 1819,
      "Ġë¶Ģëª¨": 1820,
      "âĢķ": 1821,
      "ĠíĪ¬": 1822,
      "éĢ£": 1823,
      "ĠìľĦíķ´": 1824,
      "ĠëĶ": 1825,
      "ë¦¬ê°Ģ": 1826,
      "ĠìķĦë¬´": 1827,
      "ãģ¾ãģŁ": 1828,
      "ĠY": 1829,
      "ĠìĦ±": 1830,
      "Ġê¸°ëĭ¤": 1831,
      "íģ¼": 1832,
      "å°ĳ": 1833,
      "Ġë°°": 1834,
      "ëĪ": 1835,
      "ìłģìĿ¸": 1836,
      "ĠëĿ": 1837,
      "ëł¥": 1838,
      "çī¹": 1839,
      "ĠìłĪëĮĢ": 1840,
      "åħ¶": 1841,
      "íĹĺ": 1842,
      "ëħķ": 1843,
      "ĠìķĮìķĦ": 1844,
      "ç¡": 1845,
      "æĮģ": 1846,
      "å±ĭ": 1847,
      "íĭ°": 1848,
      "ãĥ¼ãĥī": 1849,
      "ãĢĢ": 1850,
      "96": 1851,
      "ĠF": 1852,
      "Ġëĵľ": 1853,
      "ãģ®ãģ¯": 1854,
      "Ġëĭ¤ìĭľ": 1855,
      "Ġì£½ìĹĪê±°ëĤĺ": 1856,
      "åĽĽ": 1857,
      "11": 1858,
      "íķĺëł¤ê³ł": 1859,
      "Ġë¨¹": 1860,
      "ì¿": 1861,
      "æĥħ": 1862,
      "è·¯": 1863,
      "Ġìĸ¼": 1864,
      "ãģªãģı": 1865,
      "Ġëª¨ëĵł": 1866,
      "ĠìĻĢ": 1867,
      "EN": 1868,
      "ê³³": 1869,
      "ãĤĵãģ§": 1870,
      "Ġì½Ķ": 1871,
      "ä¿¡": 1872,
      "Ġì«ĵ": 1873,
      "åı¤": 1874,
      "30": 1875,
      "ãģĤãģ®": 1876,
      "Ġì²«": 1877,
      "ĠëĤ¨ìĿĮ": 1878,
      "ĠãģĹ": 1879,
      "ê°Ī": 1880,
      "æĢ§": 1881,
      "ĠëģĿ": 1882,
      "Ġëľ": 1883,
      "Ġìļ°ë¦°": 1884,
      "at": 1885,
      "ĠëĭĪ": 1886,
      "Ġë§İìĿĢ": 1887,
      "ìĦ¤": 1888,
      "Ġìĭľìŀĳ": 1889,
      "çĽ¸": 1890,
      "ìļ©": 1891,
      "Ġëĭ¨": 1892,
      "Ġì´Ŀ": 1893,
      "Ġë¿": 1894,
      "ãģĺãĤĥãģªãģĦ": 1895,
      "ĠH": 1896,
      "ĠëĴ¤": 1897,
      "ĠìķĪëħķ": 1898,
      "ãģ¾ãģĹãģŁ": 1899,
      "ING": 1900,
      "Ġíķ¨ê»ĺ": 1901,
      "Ġìŀ¥": 1902,
      "çķĮ": 1903,
      "ST": 1904,
      "è°·": 1905,
      "çĶ±": 1906,
      "ê¸°ëıĦ": 1907,
      "ĠëıĮìķĦ": 1908,
      "ê¸¸": 1909,
      "ìĿ¸ëį°": 1910,
      "ĠìĤ¬ëŀĮëĵ¤ìĿĢ": 1911,
      "ì¡°": 1912,
      "ìłģìľ¼ë¡ľ": 1913,
      "ê¾": 1914,
      "ĠìĿ´ìķ¼ê¸°ëĬĶ": 1915,
      "çĻº": 1916,
      "ãĥĻ": 1917,
      "ë´": 1918,
      "çµĲ": 1919,
      "Ġê°Ģì§Ģ": 1920,
      "ìķ½": 1921,
      "âĻ¡": 1922,
      "åķĨ": 1923,
      "íļį": 1924,
      "ãģ¡ãĤĩ": 1925,
      "è¡¨": 1926,
      "ĠP": 1927,
      "Ġë¶Ħ": 1928,
      "nt": 1929,
      "Ġë¶Ļ": 1930,
      "éĥİ": 1931,
      "âĶĢ": 1932,
      "ĠTHE": 1933,
      "ìª": 1934,
      "å³¶": 1935,
      "ĠìŀĪìĸ´ìļĶ": 1936,
      "ãĤ¹ãĥĪ": 1937,
      "ìľ¼ëĭĪ": 1938,
      "åĵ¡": 1939,
      "Ġê°ĸê³ł": 1940,
      "ar": 1941,
      "ãģªãĤī": 1942,
      "Ġê³Ħíļį": 1943,
      "ãĥ¤": 1944,
      "Ġìĺ¤ëĬĺ": 1945,
      "Ġê¹¨": 1946,
      "íĸĪëįĺ": 1947,
      "é³": 1948,
      "000": 1949,
      "ãģĿãĤĵãģª": 1950,
      "æ¶Ī": 1951,
      "ãĥ¼ãĥ³": 1952,
      "èĬ±": 1953,
      "ë°ľ": 1954,
      "ĲëŁ¬": 1955,
      "ãģĽãģĦ": 1956,
      "ãģįãģŁ": 1957,
      "ëľ": 1958,
      "Ġ20": 1959,
      "ãģĭãģĦ": 1960,
      "ĠìĤ¬ëŀĳ": 1961,
      "ãĤ½": 1962,
      "ãģĹãĤĩ": 1963,
      "Ġê°Ĳ": 1964,
      "ĠìĤ¬ì§Ħ": 1965,
      "å¸¸": 1966,
      "åĮº": 1967,
      "ìĨ¡": 1968,
      "ĠìĤ¶": 1969,
      "åħĪçĶŁ": 1970,
      "Ġíķ©": 1971,
      "Ġì¢ĭê²ł": 1972,
      "Ġìĸ¸ìłľ": 1973,
      "åĪĩ": 1974,
      "ìĥĪ": 1975,
      "æĥ³": 1976,
      "Ġëĵ¤ìĸ´ìĻĶ": 1977,
      "å¦Ĥ": 1978,
      "17": 1979,
      "ãģĭãģª": 1980,
      "ĠL": 1981,
      "é°": 1982,
      "Ġë¯": 1983,
      "ê²°": 1984,
      "Ġìĭ¬": 1985,
      "º¼": 1986,
      "Ġë§ĲìĿ´": 1987,
      "çķ¶": 1988,
      "Ġìħ": 1989,
      "éĽ»": 1990,
      "å½¢": 1991,
      "ê´Ģ": 1992,
      "ë§Įíģ¼": 1993,
      "ãģªãĤĵãģł": 1994,
      "ê¶": 1995,
      "ĠëĨĢ": 1996,
      "Ġë¨¼": 1997,
      "Ġìĭ¸ìĽ": 1998,
      "ëĭ¤ë©´": 1999,
      "íį¼": 2000,
      "å°į": 2001,
      "åĥı": 2002,
      "íĶ¼": 2003,
      "ãģĺãĤĩãģĨ": 2004,
      "ëĿ¼ëĬĶ": 2005,
      "ĠëĤĺëıĦ": 2006,
      "íĤ¨": 2007,
      "Ġìĸ´ëĶĶ": 2008,
      "Ġê·¸ê²Į": 2009,
      "ĠìľłìĿ¼": 2010,
      "ĠìĿ´ë¦ĦìĿĢ": 2011,
      "ãģ£ãģ¦ãĤĭ": 2012,
      "åŁİ": 2013,
      "ĠëĤ´ìĿ¼": 2014,
      "è¿ĳ": 2015,
      "ê³¤": 2016,
      "Ġêµ°ìĿ¸": 2017,
      "ĠíŀĲëŁ¬": 2018,
      "ãĤĪãģĹ": 2019,
      "æĹı": 2020,
      "æĸĻ": 2021,
      "OR": 2022,
      "Ġê·¸ìĿĺ": 2023,
      "Ġì§ĢëĤľ": 2024,
      "LL": 2025,
      "ç©º": 2026,
      "èµ·": 2027,
      "ìĹĲëıĦ": 2028,
      "çĤ¹": 2029,
      "Ġ8": 2030,
      "éĻĲ": 2031,
      "UNK": 2032,
      "or": 2033,
      "Ġëħ¸": 2034,
      "åħ«": 2035,
      "ĠëĬĲ": 2036,
      "69": 2037,
      "ê¹Ĳ": 2038,
      "ë°°": 2039,
      "æ²»": 2040,
      "ä¿º": 2041,
      "ëŃ": 2042,
      "ãĥĴ": 2043,
      "ĠëĨĪ": 2044,
      "Ġìĸ´ëĸ¤": 2045,
      "¸ìĿĦ": 2046,
      "ãĥ³ãĥĪ": 2047,
      "Ġë§ī": 2048,
      "ì£Ħ": 2049,
      "ì±": 2050,
      "Ġíıī": 2051,
      "è»Ĭ": 2052,
      "ĠíĶ¼": 2053,
      "ì¨": 2054,
      "å¤«": 2055,
      "ĠìĪĺê°Ģ": 2056,
      "ëŁ½": 2057,
      "åĨĨ": 2058,
      "åįĥ": 2059,
      "ĠëıĦìĽ": 2060,
      "ĠìĿ´ìĥģ": 2061,
      "ëĸ": 2062,
      "ãģĭãĤı": 2063,
      "åĻ¨": 2064,
      "ĠëĤĺìģ": 2065,
      "ãģĦãģ¾ãģĻ": 2066,
      "åĳ³": 2067,
      "ç»": 2068,
      "æĹ¥æľ¬": 2069,
      "19": 2070,
      "IT": 2071,
      "ãģĵãģĵ": 2072,
      "Ġìĥģìĥģ": 2073,
      "ë²Ķ": 2074,
      "æŃ»": 2075,
      "Ġëĭ¹ìĭłìĿ´": 2076,
      "ãģĦãĤĦ": 2077,
      "ë¦°ëĭ¤": 2078,
      "Ġê·Ģ": 2079,
      "ê°Ģìĺ¤": 2080,
      "Ġë¹¨ë¦¬": 2081,
      "Ġê³łë§ĪìĽĮìļĶ": 2082,
      "íķĺê¸°": 2083,
      "çĻ½": 2084,
      "ì´": 2085,
      "íĪ¬": 2086,
      "éģĶ": 2087,
      "íĤ¤": 2088,
      "Ġì£Ħ": 2089,
      "ì¸": 2090,
      "ãĢħ": 2091,
      "ĠãģĦ": 2092,
      "Ġì¤Ģ": 2093,
      "Ġë¶Īê°Ģ": 2094,
      "é¢¨": 2095,
      "ìĶ¨": 2096,
      "ç¦ı": 2097,
      "æķ°": 2098,
      "ĠìĹĦì²Ń": 2099,
      "èĤ²": 2100,
      "ĠìŀĳìĿĢ": 2101,
      "Ġìĸĳê°Ģìĺ¤": 2102,
      "ãģıãģł": 2103,
      "ĠíķĦ": 2104,
      "èī¯": 2105,
      "Ġê°Ģì¡±": 2106,
      "Ġë¡": 2107,
      "ĠìĻĶ": 2108,
      "ëĭĮ": 2109,
      "å¼·": 2110,
      "ĠìŀĳëıĻ": 2111,
      "ĠíĻķìĭ¤": 2112,
      "ï¼ļ": 2113,
      "çĻ¾": 2114,
      "ĠìŀĪê³ł": 2115,
      "çĶ»": 2116,
      "ï¼Ľ": 2117,
      "ì§Ģë§ī": 2118,
      "éĽĨ": 2119,
      "æŃ¤": 2120,
      "ìľ¼ëĭĪê¹Į": 2121,
      "å¤ī": 2122,
      "ìłķíķľ": 2123,
      "Ġë¯¸ëŀĢ": 2124,
      "ãģ¾ãģĽãĤĵ": 2125,
      "ä»¶": 2126,
      "å¼ı": 2127,
      "Ġê¸°ëĭ¤ëł¤": 2128,
      "ĠíħĮ": 2129,
      "äº¬": 2130,
      "ãģ¨ãģĦãģĨ": 2131,
      "ë°Ķ": 2132,
      "ĠíĨł": 2133,
      "Ġìŀłê¹Ĳ": 2134,
      "ê²½": 2135,
      "ãĥļ": 2136,
      "Ġë¶Īê°ĢëĬ¥": 2137,
      "ou": 2138,
      "ig": 2139,
      "he": 2140,
      "ĠG": 2141,
      "Ġê°Ī": 2142,
      "ĠìĶ»": 2143,
      "Ġê·¹": 2144,
      "æľį": 2145,
      "¤ìĿ´": 2146,
      "ë¦¬ìķĦ": 2147,
      "ĠìĺĪ": 2148,
      "ìŀĦ": 2149,
      "Ġê¿": 2150,
      "æ±º": 2151,
      "åľŁ": 2152,
      "íĬ": 2153,
      "Ġì¢ĭìĿĢ": 2154,
      "ê°Ļ": 2155,
      "ĠíĻį": 2156,
      "å¼ķ": 2157,
      "é§ħ": 2158,
      "æĬķ": 2159,
      "ë£¨": 2160,
      "Ġìŀ¬": 2161,
      "ìłĳ": 2162,
      "ĠYOU": 2163,
      "ä¹ħ": 2164,
      "ì¹¨": 2165,
      "ä»ĺ": 2166,
      "ĠìŀĪì£ł": 2167,
      "ĠíĻķìĭ¤íŀĪ": 2168,
      "ëĲĺëĬĶ": 2169,
      "ĠëĿ¼": 2170,
      "ãĤĪãĤĬ": 2171,
      "ķëıĦ": 2172,
      "Ġìĭ«": 2173,
      "Ġì²ĺ": 2174,
      "ĠãģŁ": 2175,
      "ĠìķĦëĬĶ": 2176,
      "Ġëª©": 2177,
      "Ġìļķ": 2178,
      "ĠìłĦíķ´": 2179,
      "ê°Ķ": 2180,
      "é¦Ļ": 2181,
      "ĠìľłìĿ¼íķľ": 2182,
      "Ġì¶©": 2183,
      "16": 2184,
      "ãģ¬": 2185,
      "åĪ¥": 2186,
      "ëĤĺì§Ģ": 2187,
      "Ġê²ĥìĿ´ëĭ¤": 2188,
      "èĩªåĪĨ": 2189,
      "åĳ½": 2190,
      "ĠìĹ´": 2191,
      "ãģłãģ£ãģŁ": 2192,
      "æ©ĭ": 2193,
      "ì§ľ": 2194,
      "ĠëĤĺìĺ¤": 2195,
      "AR": 2196,
      "ãģĪãģ¦": 2197,
      "æĻĤéĸĵ": 2198,
      "Ġë¯¿": 2199,
      "çĶ·": 2200,
      "Ġê¹¨ëĭ": 2201,
      "ä½Ĩ": 2202,
      "å¾ħ": 2203,
      "å¯¦": 2204,
      "ĠìĻľëĥĲ": 2205,
      "ãģ¯ãģĦ": 2206,
      "åıĹ": 2207,
      "ìĽĲìĿ´": 2208,
      "ãģĭãĤĬ": 2209,
      "ç´Ħ": 2210,
      "Ġãģ¿": 2211,
      "ãģłãģĭãĤī": 2212,
      "ĠëıĦìĽĢìĿ´": 2213,
      "æ²¢": 2214,
      "Ġë²Ķ": 2215,
      "æŀľ": 2216,
      "ĠëĲľ": 2217,
      "Ġê·¸ë¦¼": 2218,
      "ĠìĭľìĦł": 2219,
      "ĠTO": 2220,
      "ĠëĬĺ": 2221,
      "ĠìĹĨê³ł": 2222,
      "ãĤĮãģ°": 2223,
      "ħìĿ´": 2224,
      "æĦŁ": 2225,
      "Ġì½Ķëĵľ": 2226,
      "íĨ±": 2227,
      "ãģŁãģĹ": 2228,
      "Ġê¸Ī": 2229,
      "Ġì°į": 2230,
      "è²»": 2231,
      "ĠìłĦì²´": 2232,
      "ĠìĹĨëĭ¤": 2233,
      "ìĿ´ëĬĶ": 2234,
      "ä¸Ńåľĭ": 2235,
      "æĹ©": 2236,
      "ĠìľĦíķ´ìĦľ": 2237,
      "ãģªãģ®": 2238,
      "ë³Ħ": 2239,
      "æµģ": 2240,
      "ãĤ©": 2241,
      "Ġë§Ĳê³ł": 2242,
      "Ġì£¼ìĿ¸": 2243,
      "æł¡": 2244,
      "Ġë§¤": 2245,
      "Ġì§ģìłĳ": 2246,
      "ëĵ¤ìĹĲê²Į": 2247,
      "ĠìĿĺìĭ¬": 2248,
      "åĪĿ": 2249,
      "OM": 2250,
      "ê³Ħë¥¼": 2251,
      "Ġë¯¼ì£¼": 2252,
      "Ġë¨¼ìłĢ": 2253,
      "Ġë°ľ": 2254,
      "çı¾åľ¨": 2255,
      "ê¿": 2256,
      "Ġíĸ¥": 2257,
      "éŁ³": 2258,
      "ìłľë¥¼": 2259,
      "ì·": 2260,
      "é¾": 2261,
      "ëĬĶëĭ¤": 2262,
      "ĠëŃĲëĿ¼": 2263,
      "íĳľ": 2264,
      "Ġë§ĪìĿĦ": 2265,
      "ov": 2266,
      "è§£": 2267,
      "ĠìłĦë¬¸": 2268,
      "ĠìķĬìĿĢ": 2269,
      "ãĥ³ãĤ°": 2270,
      "ĠìŀĪìĹĪìĸ´ìļĶ": 2271,
      "åį°": 2272,
      "åİ»": 2273,
      "æĦĽ": 2274,
      "èº«": 2275,
      "ë§İ": 2276,
      "Ġ...": 2277,
      "âĻ¥": 2278,
      "ìĿ¸ê°ĢìļĶ": 2279,
      "ìĿ´ë©°": 2280,
      "ãĤ·ãĥ§": 2281,
      "åĲĽ": 2282,
      "Ġê½": 2283,
      "íķĺëĬĶëį°": 2284,
      "ĠìĨĲíĨ±": 2285,
      "ì¤Ħ": 2286,
      "è¬Ľ": 2287,
      "ë¡±": 2288,
      "Ġì¤Ģë¹Ħ": 2289,
      "Ġë°ĸ": 2290,
      "ç¶ĵ": 2291,
      "äº¤": 2292,
      "åı²": 2293,
      "Ġ7": 2294,
      "Ġì£ĦìĨ¡": 2295,
      "ĠìļĶ": 2296,
      "å£«": 2297,
      "ãģĵãĤĵãģª": 2298,
      "¸ë¦¬": 2299,
      "äºķ": 2300,
      "æĿĳ": 2301,
      "ëĩ¨": 2302,
      "ãĥ©ãĥ³": 2303,
      "Ġì§Ħìłķ": 2304,
      "ĠN": 2305,
      "ĠìķĬìķĺìĬµëĭĪëĭ¤": 2306,
      "ìĪľ": 2307,
      "ãģĪãĤĭ": 2308,
      "ãģ¥": 2309,
      "Ġìłķë§Ĳ": 2310,
      "ìĩĦ": 2311,
      "ãĤ¿ãĥ¼": 2312,
      "ë§İìĿĢ": 2313,
      "ëħģ": 2314,
      "ĠëĤĺë¥¼": 2315,
      "åı¸": 2316,
      "IS": 2317,
      "ëł¹": 2318,
      "åĽł": 2319,
      "ê»ı": 2320,
      "Ġë¯¸êµŃìĿĦ": 2321,
      "ĠO": 2322,
      "èªį": 2323,
      "å¿ħ": 2324,
      "ĠêµĲ": 2325,
      "ç§ĳ": 2326,
      "ĠëĮĢíķ´": 2327,
      "Ġë³´ëĤ´": 2328,
      "ĠìķĪëħķíķĺ": 2329,
      "Ġ50": 2330,
      "åĭĿ": 2331,
      "íĭ": 2332,
      "Ġëľ»": 2333,
      "is": 2334,
      "Ġë§ĲíĸĪìŀĸìķĦ": 2335,
      "Ġë§Įëĵ¤": 2336,
      "......": 2337,
      "çĻ»": 2338,
      "ĠìĪĺìĹħ": 2339,
      "Ġìĺ¤ì§ģ": 2340,
      "ãĥģãĥ£": 2341,
      "Ġë´ĲìļĶ": 2342,
      "Ġê±°ìĹĲìļĶ": 2343,
      "éĤĦ": 2344,
      "ìĬ¬": 2345,
      "ĠìłĢëħģ": 2346,
      "íĿ¬": 2347,
      "è¾¼": 2348,
      "Ġíĭ°": 2349,
      "ìĹħê³¼": 2350,
      "it": 2351,
      "Ġãģ²": 2352,
      "Ġìłľê°Ģ": 2353,
      "æĬĬ": 2354,
      "50": 2355,
      "ãģĤãģ£": 2356,
      "ĠíĻķìĭł": 2357,
      "Ġë§ĲìĿ´ìķ¼": 2358,
      "ìĺģ": 2359,
      "ë²łìĿ´": 2360,
      "Ġë¦¬ë§īìĿĢ": 2361,
      "Ġë§¹": 2362,
      "åĲĳ": 2363,
      "Ġíŀĺ": 2364,
      "ë²¨": 2365,
      "Ġëª¨ë¥´ê²łìĸ´ìļĶ": 2366,
      "ëĴ": 2367,
      "ĠíıĲ": 2368,
      "ãģ¾ãģķ": 2369,
      "Ġì§ĳìĿ´": 2370,
      "Ġë¬¸íĻĶ": 2371,
      "ĠìŀĪìĿĦ": 2372,
      "ãģłãģĦ": 2373,
      "Ġìļ°ë¦´": 2374,
      "ë³´ë¥¼": 2375,
      "ëĮ": 2376,
      "ãģ«ãĤĤ": 2377,
      "è¶³": 2378,
      "åł±": 2379,
      "ìª½": 2380,
      "ãģĭãĤĵ": 2381,
      "ĠíĽĪ": 2382,
      "ĠìĬ¹ë¦¬": 2383,
      "Ġãģį": 2384,
      "Ġë²Ķì£Ħ": 2385,
      "ĠëĲĺìĸ´": 2386,
      "å¯¾è±¡": 2387,
      "Ġë°¤": 2388,
      "Ġì«ĵìķĦ": 2389,
      "Ġë°ĳ": 2390,
      "Ġì§ĳìĿĦ": 2391,
      "Ġì§ĳì¤ĳ": 2392,
      "ãģ¨æĢĿ": 2393,
      "çķªåı·": 2394,
      "éĻ¢": 2395,
      "å»º": 2396,
      "ãĤ·ãĥ£": 2397,
      "ìĨįëĲĺëĬĶ": 2398,
      "Ġìŀ¡ê¸°": 2399,
      "ĠëĺĲ": 2400,
      "ê½": 2401,
      "åĪ¶": 2402,
      "Ġê·¸ëĵ¤ìĿĦ": 2403,
      "ãģªãĤĵãģ¦": 2404,
      "Ġê´Ģ": 2405,
      "ãĤģãģ¦": 2406,
      "ì½©": 2407,
      "ĠìķĪëħķíķĺìĭľìĺ¤": 2408,
      "Ġìķ¼": 2409,
      "ìŀ¬": 2410,
      "çĽ´": 2411,
      "ë»": 2412,
      "Ġë§ĲìĿ´ì£ł": 2413,
      "ëĲĺì§Ģ": 2414,
      "ĠìķĦë²Ħì§Ģê°Ģ": 2415,
      "ĠìĹĨìĬµëĭĪëĭ¤": 2416,
      "éĢ²": 2417,
      "ëĲĺê³ł": 2418,
      "ĠíķĺëĬĶ": 2419,
      "ãģıãĤī": 2420,
      "Ġë§Īì§Ģë§ī": 2421,
      "ĠíĽĪëł¨": 2422,
      "14": 2423,
      "çģ«": 2424,
      "Ġíİ¸": 2425,
      "ĠìŀĲìľł": 2426,
      "íķĺì§Ģë§Į": 2427,
      "éĨ«": 2428,
      "ëĵ¤ê³¼": 2429,
      "Ġìļ°ìĦł": 2430,
      "ëĤĺëĬĶ": 2431,
      "ëĬĦ": 2432,
      "íĴį": 2433,
      "åı¯ä»¥": 2434,
      "Ġê°ĢëĬĶ": 2435,
      "LE": 2436,
      "é¡Į": 2437,
      "èģŀ": 2438,
      "ĠëĤĺìģĺ": 2439,
      "ãģłãĤĪ": 2440,
      "ãģ«ãģĹ": 2441,
      "Ġì¼ĢìĿ´": 2442,
      "ãģ§ãģĻãģĭ": 2443,
      "ĠTH": 2444,
      "ĠíķĦìļĶ": 2445,
      "éĿĴ": 2446,
      "22": 2447,
      "ãģ¾ãģĪ": 2448,
      "ä¹Ŀ": 2449,
      "ĠíĺĦìŀ¥": 2450,
      "Ġíķ©ë²ķ": 2451,
      "ëĦĪ": 2452,
      "Ġíķĺì§Ģë§Į": 2453,
      "è£ħ": 2454,
      "Ġíıīë²Ķ": 2455,
      "æĺ¯ä¸Ģ": 2456,
      "Ġë¬¼ë¡ł": 2457,
      "ëĵ¤ì²ĺëŁ¼": 2458,
      "ï¼ģï¼Ł": 2459,
      "çĻ¼": 2460,
      "æĽ´": 2461,
      "ãģŁãģ¡": 2462,
      "ĠìĹĲ": 2463,
      "ì§ĢëıĦ": 2464,
      "ãģŁãĤģ": 2465,
      "ìĦ±ìĿĦ": 2466,
      "èªŀ": 2467,
      "Ġëĥ": 2468,
      "ĠíĶĦë¡ľê·¸ëŀ¨ìĿĦ": 2469,
      "èĩ³": 2470,
      "ãĤŃãĥ£": 2471,
      "ìİ": 2472,
      "Ġê·¸ê³³": 2473,
      "ĠìķĦë²Ħì§ĢëĬĶ": 2474,
      "ĠìĤ¶ìĿĦ": 2475,
      "Ġìº": 2476,
      "ĠëĸłëĤĺì§Ģ": 2477,
      "è¨Ń": 2478,
      "ĠëĵľëŁ¬": 2479,
      "Ġìĵ°": 2480,
      "Ġìĸ´ìļ¸": 2481,
      "Ġê±°ìĿĺ": 2482,
      "Ġëªĩ": 2483,
      "ìľĦìĹĲ": 2484,
      "ŁìķĦ": 2485,
      "ä½į": 2486,
      "Ġëķħ": 2487,
      "ĠìŀĪìĹĪìĿĦ": 2488,
      "ĠíıĲìĩĦ": 2489,
      "ĠìŀĪìľ¼ëĭĪ": 2490,
      "ìĹĲê²ĮëıĦ": 2491,
      "ä¸ļ": 2492,
      "íĻĶê°Ģ": 2493,
      "ê°Ĳ": 2494,
      "ìĹĪê³ł": 2495,
      "ĠìłĦìĦ¤": 2496,
      "íĶ": 2497,
      "ìĺĢëĭ¤": 2498,
      "ëŀĲ": 2499,
      "ĠìĨĲìĥģ": 2500,
      "ĠìĿ´ìŀĲ": 2501,
      "ìĭľíĤ¨": 2502,
      "Ġì¶Ķê°Ģ": 2503,
      "æ´»": 2504,
      "Ġê±°ìĺĪìļĶ": 2505,
      "ĠìĹĨê¸°": 2506,
      "ä»ĬæĹ¥": 2507,
      "ì°®": 2508,
      "ëĶĶìĺ¤": 2509,
      "Ġíĺ¼ëŀĢ": 2510,
      "ĠìĪĺì¹ĺ": 2511,
      "ä¸ĥ": 2512,
      "ĠëĤ¨ê²¼": 2513,
      "èī²": 2514,
      "ìī": 2515,
      "ĠìķĮìķĺìĸ´": 2516,
      "Ġíıīë²Ķíķľ": 2517,
      "ãģ¾ãģ¡": 2518,
      "ĠìķĬëıĦë¡Ŀ": 2519,
      "íĸĪëĬĶì§Ģ": 2520,
      "ĠëķĮë¬¸ìŀħëĭĪëĭ¤": 2521,
      "æĤª": 2522,
      "ĠìĿ´ë¯¸": 2523,
      "ãģĳãģ¦": 2524,
      "ãģ¨ãģĹãģ¦": 2525,
      "è½¦": 2526,
      "ãģıãģłãģķãģĦ": 2527,
      "ê¼": 2528,
      "åľĴ": 2529,
      "ĠìĹĨëĦ¤ìļĶ": 2530,
      "Ġê¹¨ëĭ«": 2531,
      "Ġê·¸ëĤł": 2532,
      "Ġíı¬ë¥´": 2533,
      "ĠìĿ´ìŀĲë²¨": 2534,
      "ĠìĦľë²Ħ": 2535,
      "ĠìĶ¨ìĻĢ": 2536,
      "Ġìĸĺê¸°íķł": 2537,
      "ĠìĭľìĬ¤íħľìĿ´": 2538,
      "ì§¸": 2539,
      "ĠìķĦëĩ¨": 2540,
      "ëĲĲìĿĦ": 2541,
      "ĠíĻįì½©": 2542,
      "Ġì¼ĢìĿ´ìĬ¤": 2543,
      "ãģĹãģı": 2544,
      "æ¥½": 2545,
      "å£²": 2546,
      "Ġ4": 2547,
      "ì¯¤ìĿ´": 2548,
      "Ġì£ĦìĨ¡íķ©ëĭĪëĭ¤": 2549,
      "Ġì¡°ë¡±": 2550,
      "ĠíĪ¬ìŀħ": 2551,
      "Ġìĸ´ëĸ»ê²Įëĵł": 2552,
      "ĠìĿ¼ìĸ´ëĤĺ": 2553,
      "Ġë¦¬ë§īê³¼": 2554,
      "Ġì¢ĭê²łëĦ¤ìļĶ": 2555,
      "ĠëĤ¨ê¸´": 2556,
      "è£¡": 2557,
      "Ġê±¸ê¹ĮìļĶ": 2558,
      "éª": 2559,
      "Ġë¯¼ê°Ħ": 2560,
      "Ġìĭ¤ìłľ": 2561,
      "Ġì½Ķëĵľë¥¼": 2562,
      "ç¨ĭ": 2563,
      "ãģªãģĭ": 2564,
      "íĥĢëĬĦ": 2565,
      "éĸĢ": 2566,
      "Ġìŀ¡íŀĮ": 2567,
      "íķ´ìķ¼ë§Į": 2568,
      "Ġì§ĳì¤ĳíķ´ìķ¼": 2569,
      "Ġë¥": 2570,
      "ë²Į": 2571,
      "æ¸ħ": 2572,
      "ëĤĺìĿ´íĬ¸": 2573,
      "ĠìķĬìĿĢëį°": 2574,
      "ĠìľĦíķ´ìĦľëĬĶ": 2575,
      "Ġíĺ¹ìĿĢ": 2576,
      "Ġë¶ĻìĿ¸": 2577,
      "íĪ¬ê°Ī": 2578,
      "ãģĹãĤĵ": 2579,
      "íĸĪìĿĮ": 2580,
      "Ġíķ´ìłľ": 2581,
      "Ġë§ŀìķĺìĬµëĭĪëĭ¤": 2582,
      "åĬ©": 2583,
      "ĠíļĮë¡ľ": 2584,
      "Ġíĭ°íĥĢëĬĦ": 2585,
      "ĠìŀĲìĭł": 2586,
      "ĠìłĪìĭ¤": 2587,
      "ĠìĻķìĦ±": 2588,
      "Ġê±°ëĿ¼ê³ł": 2589,
      "ĠìĭľìĬ¤íħľìĿĺ": 2590,
      "ì¤ĢìĹĲ": 2591,
      "Ġì°įíŀĮ": 2592,
      "Ġìļ°ìĦłìĪľ": 2593,
      "Ġíı¬ë¥´íĪ¬ê°Ī": 2594,
      "êµĲ": 2595,
      "Ġëª¨ë°©": 2596,
      "Ġê·¸ëłĩìĬµëĭĪëĭ¤": 2597,
      "ëĲĺìĸ´ìķ¼": 2598,
      "ĠãģĬ": 2599,
      "ì¡´ìĿ´": 2600,
      "ĠìĥĿê°ģê³¼": 2601,
      "åĥķ": 2602,
      "ĠëĤĺìģĺì§ĢëĬĶ": 2603,
      "æł¼": 2604,
      "éħĴ": 2605,
      "Ġ1988": 2606,
      "Ġ1996": 2607,
      "ëĭ¨ê³Ħë¥¼": 2608,
      "ĠìĦ¤ìłķíķľ": 2609,
      "Ġë¶Īê°ĢëĬ¥íķ©ëĭĪëĭ¤": 2610,
      "Ġì§ģìĹħê³¼": 2611,
      "ĠìŀĳëıĻëĲĺê³ł": 2612,
      "Ġë²Ķì£Ħëĵ¤ìĿĢ": 2613,
      "íĸĪìĿĮìĹĲëıĦ": 2614,
      "Ġìļ°ìĦłìĪľìľĦìĹĲ": 2615,
      "ĠìŀĲìĽĲìĿ´": 2616,
      "ìĦłìĭľíĤ¨": 2617,
      "éħį": 2618,
      "Ġê²½ë³´ë¥¼": 2619,
      "Ġë°Ķìļ°ëĵľê°Ģ": 2620,
      "ĠìĹ°ìĨįëĲĺëĬĶ": 2621,
      "ĠíļĮë¡ľê°Ģ": 2622,
      "Ġëĭ¨ìĦłìĭľíĤ¨": 2623,
      "Ġê°Ģì§ĢëıĦë¡Ŀ": 2624,
      "Ġëĵ¤ìĸ´ìĻĶëĬĶì§Ģ": 2625,
      "Ġê·¹ëıĦ": 2626,
      "ĠìĨĲìĥģëĲĲìĿĦ": 2627,
      "Ġíĺ¼ëŀĢëĲĺì§Ģ": 2628,
      "ĠìĪĺì¹ĺìĿ´ë©°": 2629,
      "ì¯¤ìĿ´ìļĶ": 2630,
      "Ġíķ´ìłľíĸĪëĬĶì§Ģ": 2631,
      "ĠìłĪìĭ¤íķ©ëĭĪëĭ¤": 2632,
      "ĠìĻķìĦ±íŀĪ": 2633,
      "ĠìĤ¬ìĿ¸ê°ĢìļĶ": 2634,
      "ĠíĻľëıĻíĸĪìĿĮìĹĲëıĦ": 2635,
      "ĠíĪ¬ìŀħëĲĺìĸ´ìķ¼": 2636,
      "ĠíĪ¬ìŀħëĲĺìĸ´ìķ¼íķĺê³ł": 2637,
      "Ġë§ŀìķĺê±°ëĵłìļĶ": 2638,
      "ĠíĽĪëł¨íķ´ìķ¼ë§Į": 2639,
      "IC": 2640,
      "ê²©": 2641,
      "ä¿®": 2642,
      "Ġì¡°ë¡±íķĺëł¤ê³ł": 2643,
      "Ġìĸ´ëłµìĬµëĭĪëĭ¤": 2644,
      "Ġë§¹ìĦ¸": 2645,
      "ĠëĸłëĤľ": 2646,
      "Ġìĺ¨": 2647,
      "Ġê¼¬": 2648,
      "ĠìıŁìķĦ": 2649,
      "Ġì°¬": 2650,
      "ĠíĻįì½©ìĹĲìĦľ": 2651,
      "80": 2652,
      "ê·¸ëŀĺ": 2653,
      "Ġs": 2654,
      "ĠìĿĺìĭ¬íķł": 2655,
      "âĢ»": 2656,
      "ç¢º": 2657,
      "ĠìĭľìĦłìĿĦ": 2658,
      "Ġì§Ħìłķìłľë¥¼": 2659,
      "Ġíķ©ë²ķìłģìĿ¸": 2660,
      "è¢«": 2661,
      "ãĤ²": 2662,
      "Ġì¹´": 2663,
      "Ġê·¸ëĥ¥": 2664,
      "ãĥ¼ãĤ¹": 2665,
      "ê¸°ë¡ľ": 2666,
      "íķ´ìĺ¨": 2667,
      "ĠìŀĲìĿ´ì£ł": 2668,
      "Ġë°Ŀ": 2669,
      "om": 2670,
      "ìŃ": 2671,
      "ê²łì£ł": 2672,
      "ä¸ĸçķĮ": 2673,
      "ĠìĹ¬ì§Ģ": 2674,
      "éłĺ": 2675,
      "ĠíĻľëıĻíķ´ìĺ¨": 2676,
      "ëĭ¤ê°Ģ": 2677,
      "Ġìĸ´ëĳ": 2678,
      "Ġê²°": 2679,
      "Ġë§ĮìĿ´": 2680,
      "ãģ®ãģĬ": 2681,
      "Ġê²½ì°°ìĹĲê²ĮëıĦ": 2682,
      "ĠìĿ¼ìĸ´ëĤ¬ëįĺ": 2683,
      "Ġê±": 2684,
      "ê²łëĭ¤": 2685,
      "íĤĪ": 2686,
      "ľì°®": 2687,
      "ë³´ì¡´ìĿ´": 2688,
      "ĠíĺĦìŀ¥ë³´ì¡´ìĿ´": 2689,
      "èĢĥ": 2690,
      "ãĤ·ãĥ¥": 2691,
      "æĪ¦": 2692,
      "ĠìĹ¬ì§ĢìĹĨìĿ´": 2693,
      "ĠëĳĲìĸ´ìķ¼": 2694,
      "é¡ĺ": 2695,
      "ä¾¿": 2696,
      "èĳĹ": 2697,
      "26": 2698,
      "å¥½ãģį": 2699,
      "Ġë¿ĲìĿ´": 2700,
      "ãĤĤãģ¨": 2701,
      "Ġì¤ĳêµŃ": 2702,
      "ãģ£ãģ±": 2703,
      "ç·ļ": 2704,
      "ãĥ¼ãĥł": 2705,
      "ãģªãģŁ": 2706,
      "ãģĨãĤĵ": 2707,
      "ĠíĶĦë¡ľê·¸ëŀ¨íķĺëĬĶëį°": 2708,
      "ï½¥ï½¥ï½¥": 2709,
      "ass": 2710,
      "ĠëŃĲëĿ¼êµ¬": 2711,
      "ëĮĢëĬĶ": 2712,
      "ë²Ħë¦´": 2713,
      "ëĤ´ê°Ģ": 2714,
      "ĠìĺģìĽ": 2715,
      "ãģĹãĤĥ": 2716,
      "ĠìĹ¬ê¸°ìĦľ": 2717,
      "éŃĶ": 2718,
      "ãĤ¸ãĥ£": 2719,
      "ìį": 2720,
      "ĠìŀĪìľ¼ë©´": 2721,
      "ãģ¡ãĤĩãģ£ãģ¨": 2722,
      "ìĬ¤íģ¬": 2723,
      "Ġëª¸ìĿĦ": 2724,
      "ĠíķĺëĤĺê°Ģ": 2725,
      "ĠìĪĺì¤ĢìĹĲ": 2726,
      "éģĭ": 2727,
      "ìºĶ": 2728,
      "Ġê°Ģì¡±ìĿ´": 2729,
      "èĭ¥": 2730,
      "ì¥": 2731,
      "Ġë¶ĢëŁ¬": 2732,
      "ĠëĵľëŁ¬ëĤ´": 2733,
      "Ġë¶Ģëª¨ê°Ģ": 2734,
      "ies": 2735,
      "é¡į": 2736,
      "ìŀ¥ìĿĢ": 2737,
      "ìŀĪ": 2738,
      "ì¹´": 2739,
      "ĠìłĦìŁģìĹĲìĦľ": 2740,
      "ì¢ħ": 2741,
      "EL": 2742,
      "ãĥ¼ãģ£": 2743,
      "ĠìŀĪìĹĪëĭ¤": 2744,
      "ĠìĹĦë§Ī": 2745,
      "ãģ®ãģ§": 2746,
      "Ġì¤ĺ": 2747,
      "ê²ĥìĿ´ëĭ¤": 2748,
      "ĠìĨĮëł¨": 2749,
      "íİĺìĿ´": 2750,
      "ë§ĿìĿĦ": 2751,
      "Ġë²ł": 2752,
      "è²·": 2753,
      "æ±Ł": 2754,
      "Ġì§Ģë¶": 2755,
      "åħ±": 2756,
      "ãĢİ": 2757,
      "ë³¸": 2758,
      "èª°": 2759,
      "Ġìĭľìŀĳíķľëĭ¤": 2760,
      "ĠìĨįìĹĲìĦľ": 2761,
      "Ġë³´ìŀĲ": 2762,
      "ì¾": 2763,
      "Ġíĳ": 2764,
      "ìĸ¸": 2765,
      "Ġì»": 2766,
      "ãģ¨ãģĭ": 2767,
      "Ġë¯¸ìķĪ": 2768,
      "Ġêº¼": 2769,
      "ãĥ©ãĤ¤": 2770,
      "Ġê¸¸": 2771,
      "íı¬": 2772,
      "ìĨįìĹĲìĦľ": 2773,
      "ãģªãĤĭ": 2774,
      "Ġë§¨": 2775,
      "éĸ¢": 2776,
      "ê²łì§Ģ": 2777,
      "»ìĿĦ": 2778,
      "æĮĩ": 2779,
      "Ġìŀ¡ê¸°ëĬĶ": 2780,
      "ëĨĵê³ł": 2781,
      "ĠëĲĺë²Ħëł¸ëĭ¤": 2782,
      "åħŃ": 2783,
      "ãĥĥãĥĹ": 2784,
      "ĠëĲĲëĭ¤": 2785,
      "ìĿ´ìĹĲìļĶ": 2786,
      "åıĭ": 2787,
      "23": 2788,
      "ëĢ": 2789,
      "äºĽ": 2790,
      "Ġë¡ľ": 2791,
      "ĠìĹĲìĿ´": 2792,
      "ãģ¨ãģĵ": 2793,
      "ĠìĤ´ê¸°ëıĦ": 2794,
      "ëł¤ë©´": 2795,
      "ãģĤãĤĵ": 2796,
      "ãģ¾ãģł": 2797,
      "å®¹": 2798,
      "æŃ¦": 2799,
      "æīĵ": 2800,
      "Ġëĭ¤ìĿĮ": 2801,
      "ĠìĬ¤íĥĢ": 2802,
      "Ġíģ´ëŁ½": 2803,
      "ë¯": 2804,
      "ìĿ´ìĹĲ": 2805,
      "ìĿ´ìĹĪëįĺ": 2806,
      "Ġãģķ": 2807,
      "ê¹Ģ": 2808,
      "ìķĦìĿ´": 2809,
      "ĠìĿ¼ìĸ´ëĤľ": 2810,
      "Ġê°ĻìĬµëĭĪëĭ¤": 2811,
      "é¦¬": 2812,
      "ì»¤": 2813,
      "al": 2814,
      "èĳī": 2815,
      "ĠìŀĲëĦ¤": 2816,
      "Ġë°Ķë¡ľ": 2817,
      "ãĤ¤ãĥ³ãĥĪ": 2818,
      "ĠíĻĶìļĶìĿ¼": 2819,
      "Ġì§Ģë¶ķ": 2820,
      "Ġë¹ĦëĶĶìĺ¤": 2821,
      "ì½Ķ": 2822,
      "Ġë¦´": 2823,
      "Ġê³Ħìĭł": 2824,
      "Ġê´ľì°®": 2825,
      "Ġíĸ¥íĸĪ": 2826,
      "lass": 2827,
      "Ġê°Ģë°©": 2828,
      "ë¨¹ìĿĢ": 2829,
      "çĽľ": 2830,
      "ëĮĢíļĮ": 2831,
      "ãģĦãģ¡": 2832,
      "ĠëĤłëł¤": 2833,
      "éĩĮ": 2834,
      "ç®¡": 2835,
      "Ġì²ĺìĿĮ": 2836,
      "åıª": 2837,
      "Ġì¦": 2838,
      "ç²¾": 2839,
      "ìĥĿìĿĺ": 2840,
      "Ġìļ¸": 2841,
      "Ġíķłê²Į": 2842,
      "ë¸Į": 2843,
      "íĮĮ": 2844,
      "ëłĢ": 2845,
      "ĠìĤ¬ëŀĳìĿĦ": 2846,
      "ìĵ": 2847,
      "ë§Ľ": 2848,
      "åīĩ": 2849,
      "ëĵ¤ìķĦ": 2850,
      "ĠíĨµìłľ": 2851,
      "ĠëĤ¨ìŀĲ": 2852,
      "Ġìĸ´ëĳłìĿĺ": 2853,
      "ĠìĿ¼íķĺê³ł": 2854,
      "ĠìķĦìĿ´ëĵ¤": 2855,
      "Ġë°ĸìĹĲìĦľ": 2856,
      "ãģ»ãģĨ": 2857,
      "Ġì¤ĦìĬ¤": 2858,
      "ĠìĿ´ìĬ¬": 2859,
      "ĠìĺģìĽħìĿ´": 2860,
      "ĠëıĦëĳĳìĿĢ": 2861,
      "å®¤": 2862,
      "ë¡ľìĽĮ": 2863,
      "æ²³": 2864,
      "ĠìķĦìĿ´ëĵ¤ìĿĦ": 2865,
      "ëŀ¬ëĭ¤": 2866,
      "ĠëĤłê°ľ": 2867,
      "Ġë¶ĢëŁ¬ìĽĮ": 2868,
      "ëł¸ê³ł": 2869,
      "ãĥĿãĤ¤ãĥ³ãĥĪ": 2870,
      "ë¹ĦìĹĲ": 2871,
      "ëķ": 2872,
      "ãģ¯ãģ¯": 2873,
      "ĠìĿĮ": 2874,
      "ëłĽ": 2875,
      "åºľ": 2876,
      "å®¢": 2877,
      "ãģ¨ãģ¯": 2878,
      "çİĭ": 2879,
      "æł¹": 2880,
      "êµ°ìĿĺ": 2881,
      "Ġë²ĦíĦ°": 2882,
      "ãģ¨ãĤĤ": 2883,
      "ĠíıŃíĴį": 2884,
      "ĠíĻķìĭłíķĺ": 2885,
      "ĠëĤ´ê¸°": 2886,
      "ĠíĥĢ": 2887,
      "ëĬĶì§ĢëıĦ": 2888,
      "Ġê°Ģë°©ìĿĦ": 2889,
      "ãĥ¼ãĤ¸": 2890,
      "Ġëª¨ë¥´ê²łëĭ¤": 2891,
      "ĠìĶ»ê²¨": 2892,
      "Ġíı¬ë¥´íĪ¬ê°ĪìĹĲìĦľ": 2893,
      "ĠëĪĪìĿĢ": 2894,
      "Ġìĭľê°ĦìĹĲ": 2895,
      "ëĭ¤ìĺ¤": 2896,
      "Ġíģ´ëŀĺ": 2897,
      "ĠìıŁìķĦì§Ģ": 2898,
      "ëĭµ": 2899,
      "ë°¤": 2900,
      "åħ·": 2901,
      "ä»ķ": 2902,
      "Ġì¤ĳìĿĺ": 2903,
      "ãģŁãģĭ": 2904,
      "Ġë³ĢíĻĶê°Ģ": 2905,
      "Ġë§īê¸°": 2906,
      "åĲī": 2907,
      "77": 2908,
      "Class": 2909,
      "Ġìĭ¬ìŀ¥ìĿĢ": 2910,
      "ĪìĿ´": 2911,
      "ê¹ĮìļĶ": 2912,
      "Ġêµ¬ë³Ħ": 2913,
      "Ġìĭ¸ìĽĢìĿĦ": 2914,
      "Big": 2915,
      "Ġíĸī": 2916,
      "ãģªãģ©": 2917,
      "ìģĳ": 2918,
      "ĠìłĦìŁģìĿ´": 2919,
      "ìĮ": 2920,
      "èĹ¤": 2921,
      "ìºĶëĶĶ": 2922,
      "ĠëĤłëł¤ë²Ħë¦´": 2923,
      "ãģªãģĮ": 2924,
      "ĠAnt": 2925,
      "Ġíİ¸ì§Ģê°Ģ": 2926,
      "ĠìķķëıĦ": 2927,
      "ãģªãĤĬ": 2928,
      "ĠìľĦíĹĺ": 2929,
      "ëŀĢíķľ": 2930,
      "Ġì¶©ìĦ±ìĿĦ": 2931,
      "Ġìĸ´ìļ¸ë¦°ëĭ¤": 2932,
      "ãĢľãĢľ": 2933,
      "Ġë°Ŀìķĺ": 2934,
      "Ġëĭ»ìĿĦ": 2935,
      "ĠëĤłëĵ¤": 2936,
      "Ġìī": 2937,
      "íĸĪìĹĪëĭ¤": 2938,
      "Ġë¬¼ê²°": 2939,
      "Ġíĸĩë¹ĽìĹĲ": 2940,
      "ĠMov": 2941,
      "Ġìĸ´ëłµëĭ¤ëĬĶ": 2942,
      "íķĺê¸°ê°Ģ": 2943,
      "ê¹ĢìĹĨìĿ´": 2944,
      "Ġíģ´ëŀĺìĭĿ": 2945,
      "en": 2946,
      "ä¸¦": 2947,
      "Ġê°Ģì°¨": 2948,
      "ìĽĮë²Ħëł¸ëĭ¤": 2949,
      "Ġë¬´ë¹Ħ": 2950,
      "Ġìĺ¬ëł¸ê³ł": 2951,
      "ĠíĥľìĸĳìĿĦ": 2952,
      "ĠìĦ±ëĤľ": 2953,
      "ĠìĥģìĥģíĸĪëįĺ": 2954,
      "Ġìļķë§ĿìĿĦ": 2955,
      "ëĮĢì²´": 2956,
      "Ġ1969": 2957,
      "Ġê¹¨ëĭ«ëĬĶëĭ¤": 2958,
      "ë¡ľìĽĮì¡Įëĭ¤": 2959,
      "Ġì£¼ë¨¹ìĿĢ": 2960,
      "ãģ²ãĤį": 2961,
      "ĠìĥĿê°ģëĵ¤ìĿĢ": 2962,
      "ìĹĨìĹĪê³ł": 2963,
      "ĠëĲłê²ĥìĿ´ëĭ¤": 2964,
      "Ġë²łìĿ´ì§ķìĹĲ": 2965,
      "ĠíĮĮë²Į": 2966,
      "ĠëĨįëħ¸": 2967,
      "ĠìłĦìĦ¤ë¡ľ": 2968,
      "Ġë§¹ìĦ¸íķĺê³ł": 2969,
      "ĠìĿ¼ìĸ´ëĤľëĭ¤": 2970,
      "ĠíĻķìĭłíķĺê±´": 2971,
      "ĠMovies": 2972,
      "40": 2973,
      "ãģĨãģ¡": 2974,
      "ĠëĤĺìĺĢëĭ¤": 2975,
      "Ġìĸ´ê¹ĢìĹĨìĿ´": 2976,
      "ì£¼ìĦ±": 2977,
      "Ġë°Ķëŀ¬ëĭ¤": 2978,
      "ĠìĨĮë¹ĦìĹĲ": 2979,
      "Ġì²łìĿĺ": 2980,
      "Ġëªħìŀĳ": 2981,
      "íĺ¸ë¦¼": 2982,
      "ìľĦëĵ¤ìķĦ": 2983,
      "Ġê·Ģì£¼ìĦ±": 2984,
      "ĠìłĦíķ´ëĭ¤ìĺ¤": 2985,
      "ĠìĬ¹ë¦¬íķĺê³ł": 2986,
      "Ġë°ĳìĹĲëĬĶ": 2987,
      "ĠìĨĮëł¨ê³¼": 2988,
      "Ġíĸ¥íĸĪëĦ¤": 2989,
      "ĠìĿ´ìĬ¬ê³¼": 2990,
      "Ġë¶ĢëŁ¬ìĽĮíĸĪìĹĪëĭ¤": 2991,
      "Ġë²ĦíĦ°ë§Ľ": 2992,
      "ĠìĶ»ê²¨ì§Ī": 2993,
      "ĠìıŁìķĦì§Ģëįĺ": 2994,
      "Classic": 2995,
      "Ġë°Ŀìķĺê¸°": 2996,
      "Ġê°Ģì°¨ìĹĨìĹĪê³ł": 2997,
      "ĠëĨįëħ¸ëĵ¤ìĿĺ": 2998,
      "ĠìĨĮë¹ĦìĹĲíĬ¸": 2999,
      "Ġì£¼ìĦĿìĹĲê²Į": 3000,
      "Ġíķ´ë°©ëĲľ": 3001,
      "Ġíĸĩë¹ĽìĿĢ": 3002,
      "Ġìķ¼ìĥĿìĿĺ": 3003,
      "ĠëĤĺìĺ¤ê³ł": 3004,
      "áĦ": 3005,
      "èĢģ": 3006,
      "ãģ¾ãĤĬ": 3007,
      "æ°ĳæĹı": 3008,
      "Ġì°¬ëŀĢíķľ": 3009,
      "ES": 3010,
      "ìĿ¸ë¯¼": 3011,
      "è¨±": 3012,
      "èıľ": 3013,
      "ĠíĥľìĸĳìĿĢ": 3014,
      "ãĥªãĥ¼": 3015,
      "ĠëĬĲëĤ": 3016,
      "ĠíĨµìłľíķĺê¸°ê°Ģ": 3017,
      "ĠëĵľëŁ¬ëĤ´ëĨĵê³ł": 3018,
      "ĠìĿ¼ëĵ¤ìĿĦ": 3019,
      "ĠìĿ¼ìĸ´ëĤ¬ëĬĶì§ĢëıĦ": 3020,
      "Ġëį°ëł¤": 3021,
      "ëĮĢë¡ľ": 3022,
      "ĠëĤ¨ê²Į": 3023,
      "è«ĸ": 3024,
      "ãģ½": 3025,
      "Ġë¹Ħíĸī": 3026,
      "ĠëŃĲëĵł": 3027,
      "ĠìķĦìĿ´ìĬ¤": 3028,
      "Ġíķ´ë°©êµ°ìĿĺ": 3029,
      "Ġê·¹ëıĦë¡ľ": 3030,
      "ë¿": 3031,
      "ĠìĹ¬ìŀĲë¥¼": 3032,
      "OT": 3033,
      "íĺ¸ë¦¼ìķĦ": 3034,
      "ĠìķĦëĭĮ": 3035,
      "Ġê°Ģìł¸": 3036,
      "Ġê±°ìľĦëĵ¤ìķĦ": 3037,
      "ing": 3038,
      "ä½ı": 3039,
      "ëļ": 3040,
      "ĠìķĪìĹĲ": 3041,
      "ãģĽãģ¦": 3042,
      "Ġê·Ģì£¼ìĦ±ìľ¼ë¡ľ": 3043,
      "ED": 3044,
      "ãģĳãĤĭ": 3045,
      "éĽ£": 3046,
      "å·ŀ": 3047,
      "ĠìĦľëĳĺëŁ¬ëĿ¼": 3048,
      "æķµ": 3049,
      "ĠìĹŃ": 3050,
      "ãĥĨãĤ£": 3051,
      "ĠìĻľëĥĲíķĺë©´": 3052,
      "ĠìķĦìĿ´ìĬ¤ìºĶëĶĶ": 3053,
      "äºĪ": 3054,
      "âĶĢâĶĢ": 3055,
      "åıĬ": 3056,
      "99": 3057,
      "ìŀĲëĵ¤ìĿĦ": 3058,
      "AS": 3059,
      "æŀĹ": 3060,
      "Ġë¬¼ê²°ìĨįìĹĲìĦľ": 3061,
      "Ġìļ°ë¦¬ìĻĢ": 3062,
      "Ġìĸ´ì©": 3063,
      "Ġëĭ¹ëĮĢíļĮ": 3064,
      "æĺŁ": 3065,
      "Ġë§İìĿ´": 3066,
      "ìĥ¤": 3067,
      "Ġëª»íķľëĭ¤": 3068,
      "ëķĮ": 3069,
      "ìĹŃ": 3070,
      "å·²": 3071,
      "éĢł": 3072,
      "ë±": 3073,
      "Ġï¼": 3074,
      "Ġì§Ģë¶ķë§Įíģ¼": 3075,
      "âĢĶ": 3076,
      "ĠìłĦë³´ëĭ¤": 3077,
      "ĠíıŃìĬ¤ë¥¼": 3078,
      "****": 3079,
      "ä»»": 3080,
      "ãģĤãģªãģŁ": 3081,
      "ä¸ĩ": 3082,
      "å¸°": 3083,
      "Ġê°Ħ": 3084,
      "ĠìŀĪëĬĶíĤĪ": 3085,
      "ĠëĮĢëĭĪ": 3086,
      "ãģªãģĭãģ£ãģŁ": 3087,
      "ĠëıĦëĮĢì²´": 3088,
      "ãģŁãģł": 3089,
      "åıĳ": 3090,
      "ĠìłĦìĹĲ": 3091,
      "Ġìļ°ë¦¬ëĵ¤ìĹĲê²Į": 3092,
      "Ġãģ¯": 3093,
      "ãģĤãģį": 3094,
      "ëĿ½": 3095,
      "ê³µ": 3096,
      "ĠëŃĲëĿ¼ê³ł": 3097,
      "ãģıãĤĵ": 3098,
      "Ġëª¨ë°©ìŀĲëĵ¤ìĿĦ": 3099,
      "ëĹ": 3100,
      "ĠëĶ°": 3101,
      "éĩı": 3102,
      "åŁº": 3103,
      "å¯º": 3104,
      "Ġëº": 3105,
      "è¡£": 3106,
      "æ·±": 3107,
      "ãģŃãĥ¼": 3108,
      "å¼µ": 3109,
      "ãģªãģ¿": 3110,
      "æĪ¸": 3111,
      "Ġêµ°ìĿ¸ìĿ´ìĹĪëįĺ": 3112,
      "éłŃ": 3113,
      "å®®": 3114,
      "ĠìĤ¬ë§Ī": 3115,
      "ãģĩ": 3116,
      "å¤ľ": 3117,
      "å½¼": 3118,
      "Ġì·": 3119,
      "âĢ¦ï¼Ł": 3120,
      "æĺ¯åħ¥": 3121,
      "æľº": 3122,
      "éĢģ": 3123,
      "íĺĢ": 3124,
      "ãĢı": 3125,
      "íĨµëł¹": 3126,
      "éĴ": 3127,
      "çİĩ": 3128,
      "èĲ½": 3129,
      "å´İ": 3130,
      "ĠëĤ´ìĿ¼ì¯¤ìĿ´ìļĶ": 3131,
      "åı°": 3132,
      "Ġê±°ì£ł": 3133,
      "ĢíĬ¸": 3134,
      "æŃ¢": 3135,
      "æ´¥": 3136,
      "ì¤ĺ": 3137,
      "Ġë¯¼ê°ĦìĿ¸": 3138,
      "Ġë¬¸ìłľ": 3139,
      "êµ¬ëĤĺ": 3140,
      "ë³µ": 3141,
      "å¿ľ": 3142,
      "ãģ¯ãģ£": 3143,
      "ĪìĿĦ": 3144,
      "æķĻèĤ²": 3145,
      "éĶ": 3146,
      "Ġë³ĢíĸĪëĭ¤": 3147,
      "Ġìŀħ": 3148,
      "ãģłãģ£ãģ¦": 3149,
      "ãģĬåīį": 3150,
      "ë°ĺ": 3151,
      "éģł": 3152,
      "æĿ¾": 3153,
      "éĮ²": 3154,
      "çĿĢ": 3155,
      "ìķĺìĸ´": 3156,
      "ï½ŀï½ŀ": 3157,
      "å½±": 3158,
      "Ġê°Ķ": 3159,
      "Ġë³Ħ": 3160,
      "èĮ¶": 3161,
      "re": 3162,
      "ä¸ĢåĢĭ": 3163,
      "åĨį": 3164,
      "24": 3165,
      "le": 3166,
      "ĠêµŃ": 3167,
      "æ¯Ķ": 3168,
      "ãģĳãĤĵ": 3169,
      "ãĤªãĤª": 3170,
      "Ġê¸°ìĸµìĿĦ": 3171,
      "åħ©": 3172,
      "éģ¸": 3173,
      "ãĤĨãģĨ": 3174,
      "ìĬ¤íį¼": 3175,
      "ëģ¼": 3176,
      "ãģĤãĤĮ": 3177,
      "åķı": 3178,
      "ç³»": 3179,
      "Ġëª°ëŀĲ": 3180,
      "èª¿": 3181,
      "27": 3182,
      "Ġìķŀ": 3183,
      "è¡ĵ": 3184,
      "ãģĬãģĭ": 3185,
      "ì£¼ìĿĺ": 3186,
      "èĤī": 3187,
      "ãĦ": 3188,
      "Ġë³¸": 3189,
      "ĠìĪĺë§İìĿĢ": 3190,
      "æĪĸ": 3191,
      "çµĤ": 3192,
      "ĠëĤ¨ê²¼ì§Ģë§Į": 3193,
      "ĠíĦ": 3194,
      "æ®µ": 3195,
      "AM": 3196,
      "Ġë¯¼ì£¼ëĭ¹": 3197,
      "Ġìĭ¤ìłľë¡ľ": 3198,
      "AL": 3199,
      "ëłĩê²Į": 3200,
      "Ġì§Ģê¸Īë³´ëĭ¤": 3201,
      "ë¤": 3202,
      "ĠE": 3203,
      "Ġì§ĢìĽĮë²Ħëł¸ëĭ¤": 3204,
      "Ġê°ľìĬ¤íį¼": 3205,
      "Ġìŀłê¹Ĳë§Į": 3206,
      "ìħ¨": 3207,
      "60": 3208,
      "ãģ£ãģ¡": 3209,
      "100": 3210,
      "ĠK": 3211,
      "éģķ": 3212,
      "ĠìŁ": 3213,
      "Ġm": 3214,
      "Ġë§ĲìĿĢ": 3215,
      "Ġê²ĥìĿ´ëĿ¼": 3216,
      "ãĤĤãģĹ": 3217,
      "ãĤĮãģªãģĦ": 3218,
      "ê²łìĸ´ìļĶ": 3219,
      "æıĲ": 3220,
      "ìĩł": 3221,
      "ĠëĭĪê°Ģ": 3222,
      "è»½": 3223,
      "Ġë²Ī": 3224,
      "åıį": 3225,
      "âĹ": 3226,
      "ãģ®ãģ«": 3227,
      "æľĽ": 3228,
      "Ġì¹ĺ": 3229,
      "èĭ±åľĭ": 3230,
      "ĠìĿ´ê±°": 3231,
      "áĨ": 3232,
      "ãĤĤãĤĬ": 3233,
      "2025": 3234,
      "å¤±": 3235,
      "Ġê³łìłĦ": 3236,
      "ãģĪãģį": 3237,
      "ç½®": 3238,
      "ê±": 3239,
      "ãģĦãģĹ": 3240,
      "Ġê²ĥìĿ´ëĿ¼ê³¤": 3241,
      "ë·": 3242,
      "Ġb": 3243,
      "Ġêµ¬ë³Ħíķĺì§Ģ": 3244,
      "AY": 3245,
      "ĠìķĦì¹¨": 3246,
      "ĠíŀĲëŁ¬ë¦¬": 3247,
      "ìĭľê°Ģ": 3248,
      "è¦ª": 3249,
      "ç´°": 3250,
      "Ġë¬¼ìĸ´": 3251,
      "ëī": 3252,
      "íĺ¼": 3253,
      "ĠìĬ¹ë§Ī": 3254,
      "æĶ¯": 3255,
      "ä¸Ķ": 3256,
      "å®Į": 3257,
      "Ġì¸": 3258,
      "ĠíĤ": 3259,
      "åħ§": 3260,
      "ĠìĤ¬ìĭ¤": 3261,
      "ä»ĸåĢĳ": 3262,
      "åĪ©çĶ¨": 3263,
      "å¾¡": 3264,
      "å¿µ": 3265,
      "åĭĻ": 3266,
      "å§ĭ": 3267,
      "ãĥĩãĤ£": 3268,
      "âĢķâĢķ": 3269,
      "Ġc": 3270,
      "Ġì¶ľ": 3271,
      "çµĦ": 3272,
      "ìĹ°": 3273,
      "íĸĪìĸ´": 3274,
      "ç§ģãģ¯": 3275,
      "ëĭ¬": 3276,
      "å¸Į": 3277,
      "ãģĬãĤĬ": 3278,
      "åĳĬ": 3279,
      "ĠíĸĪê³ł": 3280,
      "ĠìĽĲíķĺëĬĶ": 3281,
      "ì¶Ķ": 3282,
      "ãĥīãĤŃ": 3283,
      "ĠíĴ": 3284,
      "çľĭ": 3285,
      "ĠëĤĺê°Ģ": 3286,
      "ãĤ³ãĥ³": 3287,
      "åĲĦ": 3288,
      "ìĸŃ": 3289,
      "å±ħ": 3290,
      "Ġë¯¼ê°ĦìĿ¸ëĵ¤ì²ĺëŁ¼": 3291,
      "Ġê·¸ëŀ¬": 3292,
      "ãĤ¹ãĤ¿": 3293,
      "VE": 3294,
      "Ġë²Į": 3295,
      "ãĤĤãĤĵ": 3296,
      "ãĤ¤ãĥĪ": 3297,
      "æ¸Ľ": 3298,
      "èįī": 3299,
      "å¾ŀ": 3300,
      "Ġëĭ¹ìĭłìĹĲê²Į": 3301,
      "å¾·": 3302,
      "æĶ¾": 3303,
      "æ¯ı": 3304,
      "CH": 3305,
      "æ¶Īè²»": 3306,
      "ìĥ¤ìĺ¤": 3307,
      "éĺ¿": 3308,
      "ìĿ´ëĤĺ": 3309,
      "æĮģãģ¡": 3310,
      "Ġë§Ĳíķ´": 3311,
      "ë²łìĿ´íİĺìĿ´": 3312,
      "åŃĺ": 3313,
      "Ġê³¼": 3314,
      "ç·Ĵ": 3315,
      "åĤĻ": 3316,
      "ãģ«ãģªãĤĭ": 3317,
      "Ġê·¸ê³³ìĿĢ": 3318,
      "ĠìĿ´ê±´": 3319,
      "æ¯į": 3320,
      "éĹ¨": 3321,
      "è¿Ķ": 3322,
      "ãģ¦ãĤĭ": 3323,
      "ãģ©ãģĵ": 3324,
      "Ġê·¼": 3325,
      "ãģ®ãģĵãģ¨": 3326,
      "ç¤º": 3327,
      "Ġíķĺê³ł": 3328,
      "ìĿ´íĶĦ": 3329,
      "ìĿ¸ì§Ģ": 3330,
      "íĢ": 3331,
      "åıĪ": 3332,
      "ĠìĿ¼ìĿ´": 3333,
      "ìŀĸìķĦìļĶ": 3334,
      "ãģªãģ«": 3335,
      "ë¡Ģ": 3336,
      "Ġë¶ĪëłĢ": 3337,
      "ãĥķãĤ¡": 3338,
      "Ġì§Ģê¸Īê»ı": 3339,
      "ì³Ĳ": 3340,
      "ëº": 3341,
      "ëİ": 3342,
      "><": 3343,
      "ì§ĳ": 3344,
      "è³ĩ": 3345,
      "Ġì§ĵ": 3346,
      "ãģķãĤı": 3347,
      "ë¨¸": 3348,
      "ĠìĿ¼ìĸ´ëĤĺê¸°ë¥¼": 3349,
      "æľĿ": 3350,
      "ãĤĦãģĻ": 3351,
      "OW": 3352,
      "Ġê·¸ê±°": 3353,
      "å·±": 3354,
      "é£Ľ": 3355,
      "ãĤĪãģı": 3356,
      "åľĭå®¶": 3357,
      "ãģŃãģĪ": 3358,
      "Ġ(": 3359,
      "90": 3360,
      "Ġë¶Ħëªħ": 3361,
      "ì°©": 3362,
      "ĠíĻķìĭłíķĺê±´ëį°": 3363,
      "XX": 3364,
      "Ġw": 3365,
      "Ġãģ¨": 3366,
      "åķĨåĵģ": 3367,
      "ĠR": 3368,
      "éĿŀ": 3369,
      "ãĤªãĥ¬": 3370,
      "ãģĹãģĭãģĹ": 3371,
      "ìĬ¤íĬ¸": 3372,
      "ä¼Ŀ": 3373,
      "ĠìĿ¼ëĵ¤ê³¼": 3374,
      "èı¯": 3375,
      "ĠëĿ¼ìĿ´": 3376,
      "ĠìĤ¬ëŀĮëĵ¤ìĿ´": 3377,
      "Ġíľ": 3378,
      "Ġìį": 3379,
      "æİ¥": 3380,
      "Ġê°Īê±°ìķ¼": 3381,
      "ëį°ìļĶ": 3382,
      "êµ´": 3383,
      "æħĭ": 3384,
      "ë½": 3385,
      "ĠëĮĢíĨµëł¹": 3386,
      "ìłģìĿ´ìĹĪ": 3387,
      "èĲ¬": 3388,
      "ĠìĹ¬ìŀĲìķł": 3389,
      "Ġìĭ¶ìĬµëĭĪëĭ¤": 3390,
      "åĬ¡": 3391,
      "ãģĤãĤĬãģĮ": 3392,
      "åĸľ": 3393,
      "åĦª": 3394,
      "ĠìĬ¤íĥĢëłĽ": 3395,
      "Ġì§Ħì§ľ": 3396,
      "ëĶĶìĬ¤íģ¬": 3397,
      "ãģĳãģĦ": 3398,
      "Ġê±°ë¦¬": 3399,
      "No": 3400,
      "åĲĪè¨Ī": 3401,
      "ĠìķķëıĦìłģìľ¼ë¡ľ": 3402,
      "íĦ´": 3403,
      "ãģ£ãģ¡ãĤĥ": 3404,
      "æīį": 3405,
      "éĢĻç¨®": 3406,
      "çłĶ": 3407,
      "ê²ĥëıĦ": 3408,
      "ãģĭãģı": 3409,
      "ĠìĪľ": 3410,
      "ET": 3411,
      "ì¼ľ": 3412,
      "70": 3413,
      "ĠëĦĺ": 3414,
      "ãģĬãģĦ": 3415,
      "Ġ10": 3416,
      "åł´åĲĪ": 3417,
      "Ġëĵ¤ìĹĪ": 3418,
      "åıİ": 3419,
      "ĠëĲĺëĬĶ": 3420,
      "Ġë¸": 3421,
      "ä¸Ī": 3422,
      "æĢ¥": 3423,
      "ëĭ¹ìĭł": 3424,
      "Ġãģµ": 3425,
      "33": 3426,
      "ĠìĻĦ": 3427,
      "ìĽĶ": 3428,
      "ĠíĸĪìĸ´": 3429,
      "ID": 3430,
      "ãģĿãģĹãģ¦": 3431,
      "ãĤ¼": 3432,
      "Ġìķ½": 3433,
      "ãģĮãģĤãĤĭ": 3434,
      "ë²½": 3435,
      "èĭ¦": 3436,
      "æķ´": 3437,
      "è¡Ĺ": 3438,
      "æ£®": 3439,
      "æĪ¿": 3440,
      "ìĿ´ëĿ¼ëĬĶ": 3441,
      "OO": 3442,
      "å°±æĺ¯": 3443,
      "ed": 3444,
      "é¤¨": 3445,
      "Â·": 3446,
      "ãĤ¯ãĥª": 3447,
      "Ġêµ°ëĮĢëĬĶ": 3448,
      "Ġëĵ£": 3449,
      "å¥Ī": 3450,
      "Ġê·¸ë§Į": 3451,
      "ãģ§ãģĻãĤĪ": 3452,
      "ãĤĵãģłãĤĪ": 3453,
      "å¨ģ": 3454,
      "Ġë´¤ìĸ´": 3455,
      "21": 3456,
      "Ġãģĵ": 3457,
      "ãģıãĤĭ": 3458,
      "ĠíıŃíĸī": 3459,
      "ë£Į": 3460,
      "ë¦¬ë¥¼": 3461,
      "æ³ģ": 3462,
      "ãģĸãĤı": 3463,
      "ĠíĺĦìģĳ": 3464,
      "ĠìŀĲìľłë¡ľìĽĮì¡Įëĭ¤": 3465,
      "ĠíĺĦìģĳìłģ": 3466,
      "ãĥ¼ãĤĵ": 3467,
      "åģ¥": 3468,
      "åº·": 3469,
      "Ġê³ĦìĨį": 3470,
      "ãĤĨãģį": 3471,
      "Ġìĭľì²´": 3472,
      "Ġê±°ê¸°": 3473,
      "ĠìķĦëĭĪìķ¼": 3474,
      "ëĿ¼ëıĦ": 3475,
      "ë°±": 3476,
      "ä¿Ĥ": 3477,
      "Ġê³ĦíļįìĿ´ìķ¼": 3478,
      "ãĥ³ãĥĹ": 3479,
      "ãģĺãĤħ": 3480,
      "Ġìħ°": 3481,
      "ãĤīãģªãģĦ": 3482,
      "ĠìķĦëĭĪëĿ¼": 3483,
      "Ġë§ĲìĿĦ": 3484,
      "Ġë§Ĳíķĺì§Ģ": 3485,
      "ãĤĦãģ£ãģ¦": 3486,
      "íĵ": 3487,
      "ĠìĹ¿": 3488,
      "ĠìŀĳìĹħ": 3489,
      "ãĤ·ãĥ§ãĥ³": 3490,
      "ê°ĢìĦľ": 3491,
      "æ°£": 3492,
      "ĠìĤ¬ë§ĪëĿ¼": 3493,
      "55": 3494,
      "å¿Ĺ": 3495,
      "Ġìĸĳê°Ģìĺ¤ëĬĶ": 3496,
      "æ¶Īè²»ç¨İ": 3497,
      "ĠíıŃíĸīëĭ¹": 3498,
      "Ġìĸĳê°Ģìĺ¤ê°Ģ": 3499,
      "æĿĲ": 3500,
      "æľ¬å½ĵ": 3501,
      "Ġìĸ¼ë§Ī": 3502,
      "ä¾Ľ": 3503,
      "ê°ĻìĿĢ": 3504,
      "ĠìķĦë§Ī": 3505,
      "çķĻ": 3506,
      "Ġë³µ": 3507,
      "ãģ²ãģ¨": 3508,
      "è²ł": 3509,
      "éĺ²": 3510,
      "ãģĪãĤĵ": 3511,
      "å¾Ī": 3512,
      "AK": 3513,
      "ãģĮãģĹ": 3514,
      "æ±ł": 3515,
      "íķĻ": 3516,
      "é¹": 3517,
      "ä¹ĥ": 3518,
      "æıı": 3519,
      "å±ķ": 3520,
      "28": 3521,
      "å®Ī": 3522,
      "ãģªãĤĵãģĭ": 3523,
      "æĿ¡": 3524,
      "Ġë³´ëĤ´ì¡Įëĭ¤": 3525,
      "ĠìĿ´ëŁ°": 3526,
      "ãģ¿ãģŁãģĦ": 3527,
      "ĠOF": 3528,
      "ãģĺãĤĥãģĤ": 3529,
      "ä½Ĳ": 3530,
      "íī": 3531,
      "ãģ»ãĤĵ": 3532,
      "ç±³": 3533,
      "ĠíĬ": 3534,
      "Ġê¸¸ìĹĲ": 3535,
      "ëĺ": 3536,
      "æī¿": 3537,
      "ãģįãĤĥ": 3538,
      "AD": 3539,
      "è²´": 3540,
      "éļĽ": 3541,
      "ĠíĹĪ": 3542,
      "ëĭ´": 3543,
      "ĠIN": 3544,
      "Ġì³": 3545,
      "çīĽ": 3546,
      "ãĤĪãģĨãģ«": 3547,
      "ä½Ĩæĺ¯": 3548,
      "ĠAN": 3549,
      "Ġë©Ģ": 3550,
      "Ġì¤ĺìķ¼": 3551,
      "çĪ¶": 3552,
      "Ġãģ¾": 3553,
      "Ġë¬¼ê²°ìĨįìĹĲìĦľë§Į": 3554,
      "ç¾©": 3555,
      "ãģĹãģ¦ãĤĭ": 3556,
      "Ġì§Ħìĭ¤": 3557,
      "Ġê¸Īë°©": 3558,
      "éĵ": 3559,
      "Ġìļ´": 3560,
      "il": 3561,
      "ĠíĻĺ": 3562,
      "å¹¸": 3563,
      "éļĬ": 3564,
      "ãģ¯ãģĤ": 3565,
      "ãĤ¢ãĤ¤": 3566,
      "ì³¤": 3567,
      "çĢ¬": 3568,
      "ìĳ": 3569,
      "ãģ®ãĤĬ": 3570,
      "ĠìĺģíĻĶ": 3571,
      "æ¥µ": 3572,
      "æ®ĭ": 3573,
      "å¹¿": 3574,
      "èŃĺ": 3575,
      "ãģķãģ¾": 3576,
      "ĠìĹ¬ëŁ¬": 3577,
      "éĹľ": 3578,
      "å®ĥ": 3579,
      "ìĤ¬ë¥¼": 3580,
      "æ±Ĥ": 3581,
      "åħ¬åı¸": 3582,
      "ãģ£ãģ¦ãģĦãĤĭ": 3583,
      "å°¾": 3584,
      "ãģ§ãģĻãģĮ": 3585,
      "è¿İ": 3586,
      "ĠìłĦë¶Ģ": 3587,
      "íĥĦ": 3588,
      "ĠíĶ": 3589,
      "ãĥªãĥ³": 3590,
      "èģ²": 3591,
      "ĠìĸĺëĬĶ": 3592,
      "Ġíĳľ": 3593,
      "ãģĤãĤī": 3594,
      "Ġê¸°ë¶Ħ": 3595,
      "Ġíĺ¼ìŀĲ": 3596,
      "ãģĦãģ®": 3597,
      "ä¸Ĭæµ·": 3598,
      "GH": 3599,
      "ê°Ģì§Ģ": 3600,
      "æµ¦": 3601,
      "çĶ¦": 3602,
      "ä»¥ä¸Ĭ": 3603,
      "ëĮĢìļĶ": 3604,
      "çħ§": 3605,
      "ãģ§ãģįãĤĭ": 3606,
      "Ġå¤§": 3607,
      "ìłĲ": 3608,
      "ĠëĦĲ": 3609,
      "ãģĶãģĸ": 3610,
      "ĠëĤ¨ëĬĶ": 3611,
      "29": 3612,
      "ãģ®ä¸Ń": 3613,
      "å¸ĥ": 3614,
      "å§Ķ": 3615,
      "ç©¶": 3616,
      "ç¼": 3617,
      "ĠJ": 3618,
      "ãģ·": 3619,
      "Ġë³´ê³ł": 3620,
      "ì¨Į": 3621,
      "âĸ": 3622,
      "ãģłãģª": 3623,
      "ĠìĪĺëıĦ": 3624,
      "Ġì§Ģì§Ģ": 3625,
      "Ġì¤Ħë¦¬ìķĦ": 3626,
      "ĠìłĦíĻĶ": 3627,
      "âĺ": 3628,
      "ãģĿãģĵ": 3629,
      "ĠHE": 3630,
      "æĺ¥": 3631,
      "ãģĮãģĦ": 3632,
      "ãĤ¢ãĥ³": 3633,
      "ìķĮ": 3634,
      "ä¸įèĥ½": 3635,
      "Ġë¹¼": 3636,
      "èª²": 3637,
      "ëįĶêµ°ìļĶ": 3638,
      "æºĲ": 3639,
      "çĻ»éĮ²": 3640,
      "ĠëĪĪìĿĦ": 3641,
      "äººãģ®": 3642,
      "æĭī": 3643,
      "åĭ¢": 3644,
      "íĨł": 3645,
      "íĽĦ": 3646,
      "ãģĻãģĳ": 3647,
      "ç´ł": 3648,
      "åį³": 3649,
      "Ġì±Ħ": 3650,
      "Ġë¦´ë¦¬": 3651,
      "å¾©": 3652,
      "é¡ŀ": 3653,
      "çĹĽ": 3654,
      "æ°¸": 3655,
      "ãģįãĤĩãģĨ": 3656,
      "ãģķãĤĮãģ¦": 3657,
      "ãģ¡ãĤħ": 3658,
      "ĠíĬ¸ëŁ¼íĶĦê°Ģ": 3659,
      "ãĤĴè¦ĭ": 3660,
      "ë¹ł": 3661,
      "èĲ¥": 3662,
      "ìĤ´": 3663,
      "ç¶ļ": 3664,
      "ãģĵãĤĮãģ¯": 3665,
      "Ġëį°ìĿ´": 3666,
      "ĠBE": 3667,
      "ãģ«ãģ¤": 3668,
      "ãģıãĤĮ": 3669,
      "ä¸ĵ": 3670,
      "ëĥĲê³ł": 3671,
      "åŀĭ": 3672,
      "Ġthe": 3673,
      "åĪ»": 3674,
      "Ġì²´": 3675,
      "ĠìĿ´ìķ¼ê¸°": 3676,
      "Ġë§Įìķ½": 3677,
      "èŃ°": 3678,
      "ay": 3679,
      "æĬĢ": 3680,
      "è³ª": 3681,
      "Ġë£": 3682,
      "Ġ13": 3683,
      "Ġë°Ľìķĺ": 3684,
      "ĠìĮ": 3685,
      "ê²łìĸ´": 3686,
      "Ġì°¾ìķĦ": 3687,
      "íĸĪì£ł": 3688,
      "ãĥĪãĥ³": 3689,
      "ĠìĹ¬ìŀĲê°Ģ": 3690,
      "ãģĤãģ£ãģŁ": 3691,
      "ìĭľëĭ¤": 3692,
      "ë°Ľ": 3693,
      "!!!": 3694,
      "íĥľ": 3695,
      "èĻķ": 3696,
      "æĶ¿åºľ": 3697,
      "ãĥ¶": 3698,
      "ĠìĿ´ê±¸": 3699,
      "ë©Ķ": 3700,
      "ãĤ«ãĥ¼ãĥī": 3701,
      "ë´¤": 3702,
      "Ġh": 3703,
      "ãģ£ãģ¦ãĤĤ": 3704,
      "çĬ¶": 3705,
      "ãģ¨ãģĵãĤį": 3706,
      "éĤ£": 3707,
      "Ġëı¼ìļĶ": 3708,
      "ãģ«ãģĬ": 3709,
      "ìĹĪì§Ģ": 3710,
      "ì£¼ì§Ģ": 3711,
      "Ġíķ´ìļĶ": 3712,
      "åĳ¨": 3713,
      "Ġìķłëĵ¤ìĿ´": 3714,
      "Ġíķĺì§Ģ": 3715,
      "45": 3716,
      "ĠìĻ¸": 3717,
      "ä¼ļç¤¾": 3718,
      "æ´Ĺ": 3719,
      "ãĤĪãģĨãģª": 3720,
      "ë¡Ń": 3721,
      "æ³¢": 3722,
      "å°įæĸ¼": 3723,
      "ä¸Īå¤«": 3724,
      "ëįĶêµ°": 3725,
      "íķĺëĭ¤": 3726,
      "ç¯Ģ": 3727,
      "æ³¨": 3728,
      "Ġë¶Ģë¥´": 3729,
      "ĠãģĨ": 3730,
      "ĠëĤĺëĿ¼": 3731,
      "Ġë³´ëĬĶ": 3732,
      "æ²¹": 3733,
      "ãģĶãĤģ": 3734,
      "Ġê²ĥëıĦ": 3735,
      "íķľëĭ¤ë©´": 3736,
      "ëµ": 3737,
      "Ġê²ĥìĿ´": 3738,
      "çīĩ": 3739,
      "Ġëł": 3740,
      "ãģıãĤĬ": 3741,
      "ìı": 3742,
      "ãģĹãģ¾ãģĻ": 3743,
      "Ġëĵ¤ìĸ´ëıĦ": 3744,
      "Ġãħ": 3745,
      "íĺķ": 3746,
      "ĠìŀĬ": 3747,
      "è¨¼": 3748,
      "èµ°": 3749,
      "å¸«": 3750,
      "ì°¬": 3751,
      "ë¸Ķ": 3752,
      "å¤®": 3753,
      "å®ĩ": 3754,
      "çĤºçĤº": 3755,
      "ãģŁãģı": 3756,
      "ç§ģãģ®": 3757,
      "è¶ħ": 3758,
      "Ġë½": 3759,
      "ãĤıãĤĬ": 3760,
      "ç¾½": 3761,
      "Ġìľłë²łìĿ´íİĺìĿ´": 3762,
      "Ġíĭ": 3763,
      "æĹħ": 3764,
      "å±Ģ": 3765,
      "ê·¼": 3766,
      "íľ": 3767,
      "Ġë²łìĿ´ì§ķìĿĢ": 3768,
      "ĠíħĮìĿ´íĶĦ": 3769,
      "ãĥĺ": 3770,
      "ä¸Ńå¿ĥ": 3771,
      "ä¼Ĭ": 3772,
      "ãģĤãģŁãģĹ": 3773,
      "TH": 3774,
      "ãĥ¬ãĤ¸": 3775,
      "Ġë³¼": 3776,
      "íĴĪ": 3777,
      "ãģ¦ãĤĤ": 3778,
      "Ġë¨¸ë¦¬": 3779,
      "Ġíģ°": 3780,
      "ãģĦãģ£": 3781,
      "Ġê·¸ëŁ´": 3782,
      "ãģªãĤĵãģ§": 3783,
      "ëĵľëĬĶ": 3784,
      "çķ°": 3785,
      "è»¢": 3786,
      "èµ¤": 3787,
      "ãģ®ãĤĪ": 3788,
      "ãĥ¼ãĤ¯": 3789,
      "æŃ©": 3790,
      "ãģķãĤĮãģŁ": 3791,
      "ë©´ìĦľ": 3792,
      "çĽĽ": 3793,
      "us": 3794,
      "ĠìķĬìķĦ": 3795,
      "ä¼ĳ": 3796,
      "çµ±": 3797,
      "Ġê°ķ": 3798,
      "ĠìĿ¼ìĿĦ": 3799,
      "ĠëŃĶê°Ģ": 3800,
      "Ġêµ°ìĿ¸ëĵ¤ìĿĺ": 3801,
      "ĦìĥĪ": 3802,
      "é£Łãģ¹": 3803,
      "Ġê±°ì£¼": 3804,
      "Ġê¼¬ìĭľ": 3805,
      "ãģĪãģ£": 3806,
      "Ġë³´ìĹ¬": 3807,
      "å¯Į": 3808,
      "ĠIT": 3809,
      "ìĤ°": 3810,
      "Ġa": 3811,
      "æķ£": 3812,
      "ãĥįãĥ«": 3813,
      "ãģŁãĤī": 3814,
      "ãģĤãģĴ": 3815,
      "ãĤĦãĤĭ": 3816,
      "éĿ©": 3817,
      "æ´ĭ": 3818,
      "ä¾¡": 3819,
      "åº§": 3820,
      "ĠìĿ¼ìĿĢ": 3821,
      "çİī": 3822,
      "ç¸½": 3823,
      "å²¡": 3824,
      "èªŃ": 3825,
      "é¡Ķ": 3826,
      "íķĺì£ł": 3827,
      "ãĤģãĤĭ": 3828,
      "ãĤĵãģĺãĤĥ": 3829,
      "ãĤıãģĳ": 3830,
      "Ġê·¸ê±¸": 3831,
      "ĠìĹ¬ëŁ¬ë¶Ħ": 3832,
      "¨ìĸ´": 3833,
      "Ġê¾": 3834,
      "åĳ¼": 3835,
      "æĿ±äº¬": 3836,
      "ëįĺê±°ìķ¼": 3837,
      "Ġì¡´": 3838,
      "ãģĭãģ¿": 3839,
      "ĠìĤ¬ëĿ¼": 3840,
      "éĽĦ": 3841,
      "Ġëĭ¹ìĭłìĿĢ": 3842,
      "å¤§ä¸Īå¤«": 3843,
      "ãģķãģį": 3844,
      "çĹħ": 3845,
      "ĠìķĬìĿĦ": 3846,
      "ĠëĥĦìĥĪ": 3847,
      "Ġë§ĪìĿĮ": 3848,
      "ãģ¨ãģį": 3849,
      "è©¦": 3850,
      "Ġë§ĮëĤĺ": 3851,
      "æ®º": 3852,
      "ãģĿãĤĮãģ¯": 3853,
      "å¤¢": 3854,
      "ìĸ´ê°Ģ": 3855,
      "ì¹Ń": 3856,
      "æķ¸": 3857,
      "ë¦½": 3858,
      "Ġë³´ìĿ´": 3859,
      "è®ĵ": 3860,
      "ìĽł": 3861,
      "66": 3862,
      "ãģĬãģ¾ãģĪ": 3863,
      "Ġìħ°ìĿ¸": 3864,
      "Ġf": 3865,
      "çµĮ": 3866,
      "ç¥¨": 3867,
      "¸ìĿ´": 3868,
      "åĢĻ": 3869,
      "ìķĦìĿ´ëĶĶìĬ¤íģ¬": 3870,
      "ãģ«ãģĹãģ¦": 3871,
      "Ġê°ĢìĦľ": 3872,
      "Ġìłľë°ľ": 3873,
      "ãģĹãĤħ": 3874,
      "ĠìĹĨëĬĶ": 3875,
      "ĠIS": 3876,
      "Ġëĺĳ": 3877,
      "ê¾¸": 3878,
      "ìĬ¤íĦ°": 3879,
      "ëĥĪ": 3880,
      "Ġë»": 3881,
      "ìĸ´ì£¼": 3882,
      "ä¸ŃåĽ½": 3883,
      "ãĥ¥ãĥ¼": 3884,
      "íĺĦ": 3885,
      "ãĥ³ãĥī": 3886,
      "è«ĩ": 3887,
      "æĻ®": 3888,
      "ê·¸ë¦¬ê³ł": 3889,
      "ì¦Ŀ": 3890,
      "Ġì¦Ŀ": 3891,
      "SE": 3892,
      "æĻĤä»£": 3893,
      "çłĶç©¶": 3894,
      "ãĥ¨": 3895,
      "ãģĬãģĨ": 3896,
      "éĽ¢": 3897,
      "ãĥ´": 3898,
      "ĠëıĦìĭľê°Ģ": 3899,
      "ãģĴãĤĵ": 3900,
      "åģļ": 3901,
      "ĠìĥĿê°ģíķ´": 3902,
      "ãģ¤ãģĭ": 3903,
      "èĢ³": 3904,
      "å®Ŀ": 3905,
      "Ġê·¸ëłĩì§Ģ": 3906,
      "Ġìĭ¤ì¢ħ": 3907,
      "éĢŁ": 3908,
      "°ìĸ´": 3909,
      "ë³¼": 3910,
      "et": 3911,
      "ĠìķĦëĭĪë©´": 3912,
      "ãĤıãģĭ": 3913,
      "å¤§åŃ¸": 3914,
      "ãģĵãģ¨ãģĮ": 3915,
      "Ġë§Īì¹ĺ": 3916,
      "æĥħåł±": 3917,
      "Ġìĸ¼êµ´": 3918,
      "ĠìĭĿ": 3919,
      "è§Ĵ": 3920,
      "IR": 3921,
      "ãĤ¹ãĥĨ": 3922,
      "ìĺĢìĸ´": 3923,
      "Ġìĸ´ëł¤": 3924,
      "è·¡": 3925,
      "ĠìŁ¤": 3926,
      "ãģ¯ãĤī": 3927,
      "æ¢Ŀ": 3928,
      "ion": 3929,
      "éĢ±": 3930,
      "ot": 3931,
      "ä»ĭ": 3932,
      "Ġëŀ": 3933,
      "åĵª": 3934,
      "Ġë¦¬ë§īìĿ¸ëį°": 3935,
      "Ġë°©ë²ķ": 3936,
      "ĠìĦ¸ìĥģ": 3937,
      "ãģĪãģ°": 3938,
      "äºĮåįģ": 3939,
      "æŃ¥": 3940,
      "ãģ£ãģŁãĤī": 3941,
      "æķħ": 3942,
      "æ²Ļ": 3943,
      "ãĤĢãĤī": 3944,
      "ĠíĦ°": 3945,
      "ĠV": 3946,
      "Ġì§ĳìĹĲ": 3947,
      "åįĬ": 3948,
      "æľīéĻĲ": 3949,
      "Ġë°¤ìĹĲ": 3950,
      "03": 3951,
      "Ġê·¸ëŀĺìļĶ": 3952,
      "ãģłãĤį": 3953,
      "ãĥķãĤ£": 3954,
      "0000": 3955,
      "é»Ĵ": 3956,
      "ëĤ¼": 3957,
      "åħĦ": 3958,
      "ä½ł": 3959,
      "Ġê²¨": 3960,
      "ĠìĹĨëĭ¤ê³ł": 3961,
      "ãģĻãģİ": 3962,
      "ìĭľê°Ħ": 3963,
      "å²©": 3964,
      "æ¡Ī": 3965,
      "ì¶ľ": 3966,
      "ì¨Įëĵł": 3967,
      "ìļ°ë¦¬": 3968,
      "æĿ¿": 3969,
      "Ġì¶Ķ": 3970,
      "æ¼«": 3971,
      "æĸĩåĮĸ": 3972,
      "ìĿĦê±°": 3973,
      "íĸĪëĬĶëį°": 3974,
      "æĬĹ": 3975,
      "ìħĺ": 3976,
      "å©ļ": 3977,
      "ì¹ľ": 3978,
      "è¿½": 3979,
      "ãĥĹãĥŃ": 3980,
      "ĠìķĦëĥĲ": 3981,
      "æİĻ": 3982,
      "æ¨£": 3983,
      "ëĶķ": 3984,
      "ì¦Ī": 3985,
      "åįļ": 3986,
      "æ¨¹": 3987,
      "ëįĶëĿ¼ê³ł": 3988,
      "UT": 3989,
      "ĠãģĵãģĨ": 3990,
      "æīĢä»¥": 3991,
      "íĭĢ": 3992,
      "el": 3993,
      "íĸĪìĸ´ìļĶ": 3994,
      "åĬ¨": 3995,
      "Ġìķī": 3996,
      "ĠìķĦë¬´ëıĦ": 3997,
      "ãģ®ãģĨ": 3998,
      "ì¤¬": 3999,
      "å®³": 4000,
      "åłĤ": 4001,
      "è¶Ĭ": 4002,
      "æ¨Ļ": 4003,
      "ç¿Ĵ": 4004,
      "AC": 4005,
      "ION": 4006,
      "ĠìĿ´ëłĩê²Į": 4007,
      "ĠìŀĪëĭ¤ê³ł": 4008,
      "ìŀĲê°Ģ": 4009,
      "ëĲł": 4010,
      "ãģĦãģı": 4011,
      "íĪ": 4012,
      "ãģ¨ãģĹ": 4013,
      "ë°Į": 4014,
      "Ġê·¸ëŀĺëıĦ": 4015,
      "ãģ»ãģ©": 4016,
      "am": 4017,
      "ãģªãģĦãģ§": 4018,
      "Ġìŀłê¹Ĳë§ĮìļĶ": 4019,
      "ìĺ¬": 4020,
      "ç§»": 4021,
      "å½©": 4022,
      "ãģĤãĤĬãģĮãģ¨ãģĨ": 4023,
      "æĸ¯": 4024,
      "èĩªå·±": 4025,
      "Ġìĸĺê¸°ë¥¼": 4026,
      "ĠëĮ": 4027,
      "ç´Ģ": 4028,
      "éłĪ": 4029,
      "è¦ĸ": 4030,
      "éĻ¤": 4031,
      "ĠáĨ": 4032,
      "å®¿": 4033,
      "Ġy": 4034,
      "æĺł": 4035,
      "Ġê°ľìĿ¸": 4036,
      "Ġì°¸": 4037,
      "åĸĢ": 4038,
      "ĠëĬĲëĤĮ": 4039,
      "æľ«": 4040,
      "ç©į": 4041,
      "38": 4042,
      "ãģ¡ãĤī": 4043,
      "åĬŁ": 4044,
      "èĪ¹": 4045,
      "æ¯Ľ": 4046,
      "ĠìŀĪì§Ģ": 4047,
      "Ġë¥ĺ": 4048,
      "ëĤĺìļĶ": 4049,
      "Ġëĭ¤ëĭĪ": 4050,
      "Ġì¼¸": 4051,
      "Ġì¥": 4052,
      "ĠìĿ´ë¦¬": 4053,
      "éļª": 4054,
      "æģ¯": 4055,
      "ĠìĿ´íķ´": 4056,
      "ĠìĤ¬ìĿ´ìĹĲ": 4057,
      "ĠíĻĢíĬ¸": 4058,
      "ãģĽãĤĭ": 4059,
      "ĠìłĢê¸°": 4060,
      "SH": 4061,
      "åºĥ": 4062,
      "ãģ¾ãĤĭ": 4063,
      "ë¦¬ìĹĲ": 4064,
      "ãĥŀãĥ³": 4065,
      "ãģķãģ£": 4066,
      "ãĥ»ãĥ»ãĥ»ãĥ»ãĥ»ãĥ»ãĥ»ãĥ»": 4067,
      "Ġë§ĲìĶ": 4068,
      "ĠST": 4069,
      "ĠìłĦíĺĢ": 4070,
      "æŃ·": 4071,
      "Ġê³³ìĿ´ìķ¼": 4072,
      "Ġãģı": 4073,
      "ãģĻãģĶ": 4074,
      "æľįåĬ¡": 4075,
      "of": 4076,
      "âĳ": 4077,
      "ãĤĦãģ£ãģ±": 4078,
      "Ġê·¸ëħĢëĬĶ": 4079,
      "ë¢": 4080,
      "éĸĵé¡Į": 4081,
      "æµľ": 4082,
      "è£½": 4083,
      "ĠíĪ¬íĳľ": 4084,
      "ĠìĿĮìĭĿ": 4085,
      "é¦Ĩ": 4086,
      "Ġê·¸ëŁ¬ëĭĪ": 4087,
      "é³¥": 4088,
      "Ġìŀ¬ë°Į": 4089,
      "ĠíĶĮ": 4090,
      "ì«": 4091,
      "ëĭ¤ëĭĪ": 4092,
      "é»ŀ": 4093,
      "èŃ·": 4094,
      "éĤĬ": 4095,
      "ìłĦíŀĪ": 4096,
      "Ġê¶": 4097,
      "ë°ķ": 4098,
      "æīķ": 4099,
      "å¤ı": 4100,
      "çĶ£": 4101,
      "ëĦĲ": 4102,
      "ãģĤãĤĬãģ¾ãģĻ": 4103,
      "Ġê¸°ìĸµëĤĺëĬĶ": 4104,
      "åĮ»": 4105,
      "ä¹Ĺ": 4106,
      "Ġíģ¬": 4107,
      "ãģĪãģĪ": 4108,
      "å¹¾": 4109,
      "ëĵ¤íķľíħĮ": 4110,
      "è¡Ľ": 4111,
      "æ³ī": 4112,
      "ê°ĢìļĶ": 4113,
      "35": 4114,
      "ent": 4115,
      "ë¼": 4116,
      "ãģ®ãģĮ": 4117,
      "ãĤ¢ãĤ¢": 4118,
      "Ġd": 4119,
      "ĠU": 4120,
      "ìĦ°": 4121,
      "äººéĸĵ": 4122,
      "Ġì§ĳìľ¼ë¡ľ": 4123,
      "39": 4124,
      "ch": 4125,
      "ãĤīãģĦ": 4126,
      "ë©ĺ": 4127,
      "éĽ¨": 4128,
      "ëĦ¤ëĶķ": 4129,
      "ä½ķãģĭ": 4130,
      "ëĦ¤ëĶķíĬ¸": 4131,
      "æ¯İ": 4132,
      "ãģ¶ãĤĵ": 4133,
      "ê¶Į": 4134,
      "ãģ«ãĤĪ": 4135,
      "ëĵ¤ëıĦ": 4136,
      "çł´": 4137,
      "ĠìĿ´ë¯¸ì§Ģ": 4138,
      "Ġëī": 4139,
      "ê°ĦìĿ´": 4140,
      "ëĤ¬ìĸ´": 4141,
      "ãģ£ãģĭ": 4142,
      "é£²": 4143,
      "ãĤĤãģ£ãģ¨": 4144,
      "ëĭĪê¹ĮìļĶ": 4145,
      "AP": 4146,
      "ãģ«åħ¥": 4147,
      "ĠíħĲ": 4148,
      "ìį¨": 4149,
      "íĸĪê³ł": 4150,
      "ì°į": 4151,
      "Ġì£¼ì§Ģ": 4152,
      "ä¾ĭ": 4153,
      "Ġë¶ĦëªħíŀĪ": 4154,
      "åĿĤ": 4155,
      "ç®Ĺ": 4156,
      "Ġê¼Ń": 4157,
      "Ġëĭ´": 4158,
      "ëı¼": 4159,
      "åŃ¦æł¡": 4160,
      "ĠìĹ¬ë³´": 4161,
      "è¨ĢãģĨ": 4162,
      "ëĪĦ": 4163,
      "å®Ĺ": 4164,
      "éģ©": 4165,
      "Ġì§Ģê¸ĪìĿĢ": 4166,
      "ç´Ļ": 4167,
      "ç¬ĳ": 4168,
      "åı¯èĥ½": 4169,
      "and": 4170,
      "Ġê²½ì°°ìĿ´": 4171,
      "ãģ«è¡Į": 4172,
      "å¥´": 4173,
      "çĲĥ": 4174,
      "ãģķãĤĵãģ®": 4175,
      "Ġìĭ«ìĸ´": 4176,
      "êº¼": 4177,
      "ĠëĦĪíĿ¬": 4178,
      "è³Ģ": 4179,
      "å¸¶": 4180,
      "Ġê·¸ëħĢë¥¼": 4181,
      "Ġë¬¸ìłľê°Ģ": 4182,
      "ãģ¤ãģį": 4183,
      "å¢ĥ": 4184,
      "å°ļ": 4185,
      "ãĥ©ãĥ¼": 4186,
      "ë¬¼ìĩł": 4187,
      "ç¹Ķ": 4188,
      "éŁ¿": 4189,
      "ãģ°ãģĹ": 4190,
      "ãģĦãĤı": 4191,
      "ç¦ģ": 4192,
      "ç¨İçİĩ": 4193,
      "ĠëĪĦêµ¬ìķ¼": 4194,
      "Ġìłķì¹ĺ": 4195,
      "ë²Īì§¸": 4196,
      "ë§¤": 4197,
      "èĪĪ": 4198,
      "ĠìŀĪìĹĪìĸ´": 4199,
      "ãĥĹãĥ¬": 4200,
      "ãģŁãĤĬ": 4201,
      "ĠëĤĺìĿĺ": 4202,
      "å¿ĺ": 4203,
      "âĢ¦ï¼ģ": 4204,
      "ãĤ»ãĥ³": 4205,
      "ONE": 4206,
      "Ġìĭłë¶Ģ": 4207,
      "ìķħ": 4208,
      "ê²¬": 4209,
      "æĺŃ": 4210,
      "ç«¯": 4211,
      "âĢĿ": 4212,
      "åĪĹ": 4213,
      "ë²ł": 4214,
      "ãģŀãģĨ": 4215,
      "ä»ĬåĽŀ": 4216,
      "Ġë©Ģë¦¬": 4217,
      "Ġ[": 4218,
      "éº»": 4219,
      "è«ĭ": 4220,
      "éģĬ": 4221,
      "æ²Ĵ": 4222,
      "Ġë´": 4223,
      "ãģĻãģ¿": 4224,
      "éĢĻäºĽ": 4225,
      "ĠëģĿëĤĺ": 4226,
      "ol": 4227,
      "ãĤ¯ãĥĥ": 4228,
      "ĠíĤ¤": 4229,
      "ä¸Ģç·Ĵ": 4230,
      "ĠìĽĲíķľëĭ¤ë©´": 4231,
      "ĠìľĮ": 4232,
      "Ġì¼¸ìĺ¤": 4233,
      "ãģĦãģĳ": 4234,
      "æ°ı": 4235,
      "Ġì±ħ": 4236,
      "êº": 4237,
      "æľĹ": 4238,
      "å½¹": 4239,
      "íĩ": 4240,
      "Ġì¿": 4241,
      "åįĶ": 4242,
      "åĨ·": 4243,
      "Ġp": 4244,
      "ìĸĳìĿ´": 4245,
      "Ġë´¤ìĸ´ìļĶ": 4246,
      "Ġê·¸ë¥¼": 4247,
      "ãģ§ãģĻãģŃ": 4248,
      "ä»¥å¾Į": 4249,
      "ĠìĿ´ìķ¼ê¸°ë¥¼": 4250,
      "æ§ĭ": 4251,
      "Ġëª¨ëĳĲê°Ģ": 4252,
      "ãĤ¢ãĥ«": 4253,
      "ãĤ¿ãĥ³": 4254,
      "è¨Ģãģ£ãģ¦": 4255,
      "¥ìĿĦ": 4256,
      "è¦ļ": 4257,
      "åĢĴ": 4258,
      "éŃļ": 4259,
      "Ġëªħì¹Ń": 4260,
      "Ġê·¸ëħĢìĿĺ": 4261,
      "ìĴ": 4262,
      "ä½³": 4263,
      "ìĭŃ": 4264,
      "åħµ": 4265,
      "ìľ¼ëł¤ê³ł": 4266,
      "æºĸ": 4267,
      "ãģĹãģ¦ãģĦãĤĭ": 4268,
      "ä»ķäºĭ": 4269,
      "âĹı": 4270,
      "THE": 4271,
      "çľĮ": 4272,
      "ĠëĽ": 4273,
      "ãģ¾ãģĤ": 4274,
      "ãĥ¬ãĥ³": 4275,
      "çľģ": 4276,
      "æī¹": 4277,
      "æ¼Ķ": 4278,
      "íİ¸": 4279,
      "ĠíĥľìĽĮ": 4280,
      "ãĥ¯ãĥ¼": 4281,
      "ĠìĦ¸ê³Ħ": 4282,
      "ãĥ¦": 4283,
      "çļ®": 4284,
      "ĠíĻĺìĺģ": 4285,
      "ĠRE": 4286,
      "íķĺëĭ¤ê³ł": 4287,
      "Ġìĥģê´Ģ": 4288,
      "Ġto": 4289,
      "Ġìĸ¼ë§ĪëĤĺ": 4290,
      "ìĭľì§Ģ": 4291,
      "æ¸¡": 4292,
      "åĬ¹": 4293,
      "ãĥıãĥı": 4294,
      "å¿«": 4295,
      "ãĥĳãĥ³": 4296,
      "æľīéĻĲåħ¬åı¸": 4297,
      "?!": 4298,
      "ìĹĲìĦľëĬĶ": 4299,
      "åĭŁ": 4300,
      "Ġê·¸ëĵ¤ìĿĢ": 4301,
      "ä»²": 4302,
      "ãĥĥãĥģ": 4303,
      "ë¥ĺ": 4304,
      "ĠìĨĮë¦¬": 4305,
      "çµĲæŀľ": 4306,
      "UM": 4307,
      "ä¸įåı¯": 4308,
      "ìĶ¨ëĬĶ": 4309,
      "Ġìĭłê²½": 4310,
      "ê±°ì§Ģ": 4311,
      "ãĤ¤ãĥ«": 4312,
      "Ġê±´ì§Ģ": 4313,
      "UR": 4314,
      "ãģ®æĸ¹": 4315,
      "å®ĺ": 4316,
      "å®ĥåĢĳ": 4317,
      "âĨ": 4318,
      "Ġëºı": 4319,
      "íĥģ": 4320,
      "ãĥ»ãĥ»ãĥ»ãĥ»ãĥ»ãĥ»": 4321,
      "ãģĤãĤĵãģŁ": 4322,
      "æİ¨": 4323,
      "ĠíĻ©": 4324,
      "èĩªçĦ¶": 4325,
      "ìŀĲë¡ľ": 4326,
      "ĠìŀĲë¬¼ìĩł": 4327,
      "ç¾ħ": 4328,
      "ç¬¬ä¸Ģ": 4329,
      "ãĤıãģŁãģĹ": 4330,
      "ãĥĲãĤ«": 4331,
      "åĢī": 4332,
      "Ġyou": 4333,
      "48": 4334,
      "ëĤ¨": 4335,
      "é«Ķ": 4336,
      "ãģľãĤĵ": 4337,
      "Ġå°ı": 4338,
      "ì§Ģë©´": 4339,
      "ãģ¾ãģ¾": 4340,
      "æŃĮ": 4341,
      "çº¿": 4342,
      "ĠíĨłë¦¬": 4343,
      "TEL": 4344,
      "çĶ³": 4345,
      "ä»ģ": 4346,
      "36": 4347,
      "Ġê°Ģì¹ĺ": 4348,
      "ãģ¿ãĤĵãģª": 4349,
      "çĨ±": 4350,
      "åıĤ": 4351,
      "å®£": 4352,
      "æĸ¹éĿ¢": 4353,
      "ë£²": 4354,
      "Ġì³Ĳ": 4355,
      "IM": 4356,
      "LD": 4357,
      "Ġíļ": 4358,
      "Ġì°½": 4359,
      "Ġë¬´ë¦": 4360,
      "Ġë§Ĳíķĺ": 4361,
      "å°ĳãģĹ": 4362,
      "ãģ¦ãĤĵ": 4363,
      "åį±": 4364,
      "ĠìľĦëĮĢ": 4365,
      "ĠìķĦìĿ´ë¥¼": 4366,
      "ĠíĸĪìĸ´ìļĶ": 4367,
      "çĻ»éĮ²çķªåı·": 4368,
      "ë®": 4369,
      "ĠãģĬãģĬ": 4370,
      "ĠëĤĺìĦ°": 4371,
      "æĽ¾": 4372,
      "é¨ĵ": 4373,
      "ì§ĵ": 4374,
      "ĠìĿ´ìľł": 4375,
      "ãģĪãģĦ": 4376,
      "éĽª": 4377,
      "ìħĶ": 4378,
      "Ġë©Ķ": 4379,
      "ĠëĤļ": 4380,
      "ê¸ī": 4381,
      "ëĿ¼ë©´": 4382,
      "æºĢ": 4383,
      "åī²": 4384,
      "ãģĹãĤį": 4385,
      "ĠëĤĺê°Ħ": 4386,
      "Ġíŀĺëĵ¤": 4387,
      "ãģ¨ãĤĬ": 4388,
      "Ġìĭ¶ìĸ´": 4389,
      "ãģĭãģĹ": 4390,
      "ãģĻãģĲ": 4391,
      "Ġì¢ħ": 4392,
      "ëĳ¬": 4393,
      "ĠìĤ¬ëŀĮìĿĢ": 4394,
      "âĢ¦?": 4395,
      "åįĺ": 4396,
      "å·¦": 4397,
      "çļĨ": 4398,
      "è¼ī": 4399,
      "ëĬĲ": 4400,
      "ìŀ¡": 4401,
      "ìĤ¬ëŀĮ": 4402,
      "íĥĢëĬĶ": 4403,
      "ìĪł": 4404,
      "Ġì§ĢìĹŃ": 4405,
      "äººãģĮ": 4406,
      "ï¼ĳ": 4407,
      "ãģĤãģĦ": 4408,
      "è®Ģ": 4409,
      "Ķì°į": 4410,
      "ãģªãģĬ": 4411,
      "ëħĢìĿĺ": 4412,
      "ãĤĬãĤĩãģĨ": 4413,
      "ãĥķãĤ©": 4414,
      "ĠìĥĪëģ¼": 4415,
      "ĠìĹĨìĸ´ìļĶ": 4416,
      "ì¹ł": 4417,
      "íİĺ": 4418,
      "ãģįãģ¦": 4419,
      "íĻ©": 4420,
      "éł¼": 4421,
      "ãĥĲãĥĥ": 4422,
      "æģµ": 4423,
      "éĢĥ": 4424,
      "åģľ": 4425,
      "æ¹ĸ": 4426,
      "ãĤĪãģŃ": 4427,
      "æ¼«çĶ»": 4428,
      "ãĤĵãģ£": 4429,
      "æ¨ª": 4430,
      "37": 4431,
      "éĻ½": 4432,
      "ãģ¤ãģĳ": 4433,
      "ãģĹãģŁãĤī": 4434,
      "Ġë¶Ģëª¨ëĬĶ": 4435,
      "un": 4436,
      "ãĥķãĤ§": 4437,
      "ĠëĿ¼ìĿ´ì»¤": 4438,
      "OP": 4439,
      "ãģłãĤįãģĨ": 4440,
      "çīĮ": 4441,
      "ãģĶãģĨ": 4442,
      "ĠíĽĮ": 4443,
      "ç§Ģ": 4444,
      "ĠëģĶì°į": 4445,
      "æłª": 4446,
      "ç«¹": 4447,
      "ë£»": 4448,
      "ãģ´": 4449,
      "ãģĭãģ«": 4450,
      "ì²ľ": 4451,
      "éĽĸ": 4452,
      "å«Į": 4453,
      "è¦³": 4454,
      "ãĥ¼ãĥĹ": 4455,
      "æĵļ": 4456,
      "ĠëĨĢëĿ¼": 4457,
      "å¿ħè¦ģ": 4458,
      "ãģķãĤĮ": 4459,
      "ãģ«ãģªãģ£ãģ¦": 4460,
      "ëıĮ": 4461,
      "æĸŃ": 4462,
      "ĠME": 4463,
      "ãĤĤãģ¡": 4464,
      "æĻ¯": 4465,
      "ê·¸ëŁ°": 4466,
      "ãĥĲãĥ¼": 4467,
      "Ġìĭľì²´ë¥¼": 4468,
      "ãģĮãģı": 4469,
      "ëª»": 4470,
      "Ġíĺķ": 4471,
      "ãĤ«ãĥĥ": 4472,
      "¨ìĿĦ": 4473,
      "èģ·": 4474,
      "Ġë¯¸ìķĪíķ´": 4475,
      "ĠíĴĢ": 4476,
      "æĸ½": 4477,
      "ç§ĭ": 4478,
      "ĠëĨĵê³ł": 4479,
      "ãĥĹãĥª": 4480,
      "ãģĶãģĸãģĦãģ¾ãģĻ": 4481,
      "Ġê²¨ìļ°": 4482,
      "ìĲ": 4483,
      "èĩªåĪĨãģ®": 4484,
      "CE": 4485,
      "ãģĵãģ¨ãģ¯": 4486,
      "ë©ĺíĬ¸": 4487,
      "çµ¶": 4488,
      "ä¸¸": 4489,
      "ä»¤": 4490,
      "çµ¦": 4491,
      "íķĺëĬĶê±´": 4492,
      "ê¹Ķ": 4493,
      "è¦º": 4494,
      "Ġìºł": 4495,
      "AG": 4496,
      "å°Ī": 4497,
      "è¼©": 4498,
      "ĠíŀĲëŁ¬ë¦¬ëĬĶ": 4499,
      "Ġì»¤": 4500,
      "ìĹĪìĸ´ìļĶ": 4501,
      "çīĪ": 4502,
      "æĮ¯": 4503,
      "Ġê·¸ëŁ°ëį°": 4504,
      "ä»ĸæĺ¯": 4505,
      "ĠíĭĢ": 4506,
      "ãģ®ãģ¶": 4507,
      "æĭĽ": 4508,
      "ì¶ķ": 4509,
      "58": 4510,
      "ä¸ľ": 4511,
      "Ġëĭ¹ìŀ¥": 4512,
      "åĨĻ": 4513,
      "å£°": 4514,
      "é¤Ĳ": 4515,
      "éĿ©åĳ½": 4516,
      "ĠëĤĺìĺ¨": 4517,
      "ĺìĿ´ì¿": 4518,
      "ãģ®åŃĲ": 4519,
      "ç´ļ": 4520,
      "çĥŃ": 4521,
      "ãĢĩ": 4522,
      "Ġë¥ĺìĿ´ì¿": 4523,
      "Ġìĸ´ìĦľ": 4524,
      "ä¸įæĺ¯": 4525,
      "WH": 4526,
      "ãĤīãĤĮãĤĭ": 4527,
      "Ġìŀĥ": 4528,
      "Ġìĸ»": 4529,
      "Ġëĵ¤ìĸ´ê°Ģ": 4530,
      "æ±½": 4531,
      "Ġì¤ĳìļĶ": 4532,
      "Ġì²´íı¬": 4533,
      "ãģ§ãģĹãĤĩ": 4534,
      "Ġë±": 4535,
      "ìĬ¤ê°Ģ": 4536,
      "ç¤¼": 4537,
      "Ġìķ½ìĨį": 4538,
      "44": 4539,
      "è¦ı": 4540,
      "æ¬¢": 4541,
      "åĤ³": 4542,
      "æ°ĹæĮģãģ¡": 4543,
      "ENT": 4544,
      "ĠìĦ¤ëªħ": 4545,
      "Ġìĸ´ëĶĶìĦľ": 4546,
      "ãģĤãģ¨": 4547,
      "Ġãģ¡": 4548,
      "ìłł": 4549,
      "ä¸Ńå¤®": 4550,
      "æĭħ": 4551,
      "ãģĿãĥ¼": 4552,
      "å¯«": 4553,
      "åħ¥åı£": 4554,
      "ĠìķĦìĿ´ê°Ģ": 4555,
      "ãĥĢãĥ¡": 4556,
      "ìĭ¬ìĿ´": 4557,
      "ëłĪìĿ´": 4558,
      "ì°¬ê°Ģì§Ģ": 4559,
      "Ġãģ¤": 4560,
      "ĠíķĻ": 4561,
      "59": 4562,
      "åĽ£": 4563,
      "ãĥ©ãĤ¹": 4564,
      "é©Ĺ": 4565,
      "Ġì«ĵìķĦëĤ´": 4566,
      "èĩ´": 4567,
      "íķĺëŁ¬": 4568,
      "ãĤĬãĤĥ": 4569,
      "åĮħ": 4570,
      "ĠíĽĶ": 4571,
      "Ġê³łìĸĳìĿ´": 4572,
      "æĶ¶": 4573,
      "éĩįè¦ģ": 4574,
      "åĲĮãģĺ": 4575,
      "Ġê¿ĩ": 4576,
      "æĻĤåĢĻ": 4577,
      "èĢĮä¸Ķ": 4578,
      "ãģĨãĤı": 4579,
      "Ġê°ĢëĬ¥": 4580,
      "çŃĸ": 4581,
      "å»£": 4582,
      "èĹı": 4583,
      "å¯¿": 4584,
      "ãģ¾ãģĦ": 4585,
      "è¡Ģ": 4586,
      "åĲĪãĤı": 4587,
      "Ġë¬´ë¦İ": 4588,
      "ìĺ¥": 4589,
      "ĠìĹĨì§Ģë§Į": 4590,
      "ì¹ľêµ¬": 4591,
      "æĬĺ": 4592,
      "éłĲ": 4593,
      "åĸ¶": 4594,
      "ë£»ë°¤": 4595,
      "Ġìį¼": 4596,
      "ãģıãģ£": 4597,
      "æ¥¼": 4598,
      "ãĤ«ãĥ¼": 4599,
      "Ġëª¨ë¥´ì§Ģë§Į": 4600,
      "ãĤµãĥ¼ãĥ": 4601,
      "æľĢè¿ĳ": 4602,
      "æıĽ": 4603,
      "å§¿": 4604,
      "Ġë²Įìį¨": 4605,
      "ãģĪãģŁ": 4606,
      "Ġl": 4607,
      "Ġë¹ł": 4608,
      "èĶµ": 4609,
      "ur": 4610,
      "ëŁŃ": 4611,
      "ëıĦìļĶ": 4612,
      "çĶŁæ´»": 4613,
      "ãĤ¿ãĤ¤": 4614,
      "ãĥŃãĥ¼": 4615,
      "ìĥ¤ìĺ¤ì¤Ģ": 4616,
      "Ġä¸Ĭ": 4617,
      "Ġë²ķ": 4618,
      "æ´¾": 4619,
      "æ¸©": 4620,
      "ê¸Ģ": 4621,
      "Ġìĺ·": 4622,
      "ht": 4623,
      "ä¸İ": 4624,
      "ãĥ«ãĥķ": 4625,
      "çŁ¥çĽľ": 4626,
      "ç°¡": 4627,
      "ãģªãģıãģ¦": 4628,
      "ãĢĳ": 4629,
      "ëŀį": 4630,
      "ãĤĤãĤī": 4631,
      "åį»": 4632,
      "èĪŀ": 4633,
      "é¦ĸ": 4634,
      "íİķ": 4635,
      "ëĤ¬ìĸ´ìļĶ": 4636,
      "EE": 4637,
      "Ġê²ĥìĿĢ": 4638,
      "Ġê·¼ëį°": 4639,
      "âĢ¦!!": 4640,
      "ãģıãģª": 4641,
      "ä¿Ħ": 4642,
      "å¨ĺ": 4643,
      "ĠìķīìķĦ": 4644,
      "Ġìĸ´ì¨Įëĵł": 4645,
      "ãģĵãģ¨ãĤĴ": 4646,
      "ê°ķ": 4647,
      "å¤§ãģį": 4648,
      "æ¶Īè²»ç¨İçŃī": 4649,
      "ãģŁãģĳ": 4650,
      "åħį": 4651,
      "æ²Ĵæľī": 4652,
      "çĶ²": 4653,
      "ç·¨": 4654,
      "ì¬": 4655,
      "åıĸãĤĬ": 4656,
      "Ġìŀ¥ëĤľ": 4657,
      "łëĭ¤": 4658,
      "ãģ¾ãģ¤": 4659,
      "Ġë°Ķë³´": 4660,
      "æĬľ": 4661,
      "åħħ": 4662,
      "èĩªçĶ±": 4663,
      "ì¤ĳìĹĲ": 4664,
      "ak": 4665,
      "ë¦¬ìķĪ": 4666,
      "æĺĵ": 4667,
      "æİ¢": 4668,
      "49": 4669,
      "ìµ": 4670,
      "å¹²": 4671,
      "ç§ģãģĮ": 4672,
      "Ġìĺģíĺ¼": 4673,
      "ãģĦãģ¤ãĤĤ": 4674,
      "å¥¥": 4675,
      "ãĤīãĤĮãģŁ": 4676,
      "Ġê°Ģìķ¼": 4677,
      "çĽŁ": 4678,
      "Ġë¶ĪíĥĢëĬĶ": 4679,
      "Ġëħ¸ëŀĺ": 4680,
      "ĠìłĦìĹĶ": 4681,
      "Ġê°ĻìķĦ": 4682,
      "47": 4683,
      "ãģĦãĤį": 4684,
      "ãĤĵãģ®": 4685,
      "Ġë°ĽìĿĢ": 4686,
      "è»½æ¸Ľ": 4687,
      "ãģ¯ãĤĭ": 4688,
      "ì²Ļ": 4689,
      "ĠìĺģíĻĶëĬĶ": 4690,
      "ìķĦë¥¼": 4691,
      "âĻª": 4692,
      "ãģłãģĳãģ©": 4693,
      "ĠíĿĶ": 4694,
      "ë¡ľëĬĶ": 4695,
      "ê·¸ëŁ¬": 4696,
      "ĠìĦłê±°": 4697,
      "ãĤĵãģ§ãģĻ": 4698,
      "ãģłãģĮ": 4699,
      "ê±°ëĿ¼": 4700,
      "Ġë¬»": 4701,
      "Ġì£½ê¸°": 4702,
      "Ġë¯¼ì£¼ì£¼ìĿĺ": 4703,
      "Ġë§Ŀ": 4704,
      "Ġìĸ´ëķ": 4705,
      "Ġë§Īì°¬ê°Ģì§Ģ": 4706,
      "éłĺåıİ": 4707,
      "Ġë§ĲìĶĢ": 4708,
      "¹ìĭľ": 4709,
      "ìĸ´ë´Ĳ": 4710,
      "æĶ¹": 4711,
      "ĠëĦĪëıĦ": 4712,
      "æĶ¿æ²»": 4713,
      "Ġë§Ĳíķł": 4714,
      "ì¹´ìĿ´": 4715,
      "ï¼ļãĢĮ": 4716,
      "Ġë¸Į": 4717,
      "ëĦĲëĵľ": 4718,
      "Ġï½": 4719,
      "æĻº": 4720,
      "ë¥´ëĬĶ": 4721,
      "çľ¼": 4722,
      "ìĭ¤ìĹĲ": 4723,
      "ç«ł": 4724,
      "ë¦°íĦ´": 4725,
      "ĠTHAT": 4726,
      "Ġê·¸ê²ĥ": 4727,
      "éīĦ": 4728,
      "Ġìĸ´ëķł": 4729,
      "Ġë§ĺ": 4730,
      "íķľê±°ìķ¼": 4731,
      "å¾Ĵ": 4732,
      "èªĮ": 4733,
      "Ġë¬´ìĦľ": 4734,
      "ĠëģĬ": 4735,
      "68": 4736,
      "ãģĦãģĭ": 4737,
      "ë¦¬ìĹ": 4738,
      "åĤ·": 4739,
      "ê°Ķëĭ¤": 4740,
      "Ġë°ķ": 4741,
      "äººãģ¯": 4742,
      "Ġëĵ¤ìĹĪìĸ´": 4743,
      "è¾²": 4744,
      "ãģĹãģ¾ãģĹãģŁ": 4745,
      "ĠìĤ°": 4746,
      "éłĥ": 4747,
      "Ġìĸ´ì©Ķ": 4748,
      "èĸ¬": 4749,
      "Ġth": 4750,
      "ĠìĿ´ìĥģíķľ": 4751,
      "ç®¡çĲĨ": 4752,
      "å§Ķåĵ¡": 4753,
      "VER": 4754,
      "ãĤĬãģ®": 4755,
      "ë§ĮìĿ´": 4756,
      "èĪ¬": 4757,
      "Ġì¹ľêµ¬ìļĶ": 4758,
      "ãĤĪãĥ¼": 4759,
      "ãģĺãĤħãģĨ": 4760,
      "ë³´ê³ł": 4761,
      "æ®¿": 4762,
      "ëł¥ìĿ´": 4763,
      "ëıħ": 4764,
      "ãĢĤãĢį": 4765,
      "Ġì§ĢëĤ´": 4766,
      "Ġìłķì§Ģ": 4767,
      "âĢ¦âĢ¦âĢ¦": 4768,
      "ä»Ģ": 4769,
      "ä¸ģ": 4770,
      "ìĦľëıĦ": 4771,
      "å·®": 4772,
      "ĠìłĢëıĦ": 4773,
      "èģĸ": 4774,
      "å¤ªéĥİ": 4775,
      "ãģĤãĥ¼": 4776,
      "é£¯": 4777,
      "ãģī": 4778,
      "ãģ¾ãģ£ãģŁ": 4779,
      "Ġíķĺë£»ë°¤": 4780,
      "éĽ»è©±": 4781,
      "æŃ·åı²": 4782,
      "IK": 4783,
      "ãģĺãĤĵ": 4784,
      "ä¸įéģİ": 4785,
      "çµµ": 4786,
      "ãĥģãĥ§": 4787,
      "ãģ¯ãģĹ": 4788,
      "ĠëĬĻ": 4789,
      "ç¤¾æľĥ": 4790,
      "ë¨¹": 4791,
      "ãĤ´ãĤ´": 4792,
      "ëł¥ìĿĦ": 4793,
      "ãĥĪãĥ³ãĥįãĥ«": 4794,
      "Ġê·¸ëĵ¤ìĿ´": 4795,
      "Ġë°ĶëĿ¼": 4796,
      "éļİ": 4797,
      "Ġëī´": 4798,
      "ìĿ´ëł¤ê³ł": 4799,
      "ìĨĮë¥¼": 4800,
      "ĠìŃ": 4801,
      "íķĺìĭľ": 4802,
      "ĠëĤĺíķľíħĮ": 4803,
      "éĢĶ": 4804,
      "æ¸¯": 4805,
      "ĠíĢ": 4806,
      "ãģ¾ãģļ": 4807,
      "ãĥªãĤ¢": 4808,
      "ì¢ĭ": 4809,
      "æľ¬å½ĵãģ«": 4810,
      "'s": 4811,
      "200": 4812,
      "è±Ĭ": 4813,
      "æĸ¹æ³ķ": 4814,
      "ĠëĢ": 4815,
      "ãģĮãĤĵ": 4816,
      "å°İ": 4817,
      "Ġê°Ĳìłķ": 4818,
      "ãģ¾ãĤĵ": 4819,
      "ĠíĸĪëĭ¤": 4820,
      "æ¼¢": 4821,
      "ìĿ´ìĹĪìĸ´ìļĶ": 4822,
      "ëĭµëĭĪëĭ¤": 4823,
      "ãģıãģ®": 4824,
      "ìĽĥ": 4825,
      "å¯Ŀ": 4826,
      "Ġê°ĻìķĦìļĶ": 4827,
      "åŁŁ": 4828,
      "æĹ©ãģı": 4829,
      "Ġë¡ľë§Ī": 4830,
      "æ¿Ł": 4831,
      "ä»ĬæĹ¥ãģ¯": 4832,
      "ãĥģãĤ§": 4833,
      "ter": 4834,
      "ãĤīãĤĮ": 4835,
      "æ³°": 4836,
      "ĠíĨłìļĶìĿ¼": 4837,
      "ĠëŁ": 4838,
      "âĢ¼": 4839,
      "ãĥ«ãĥ«": 4840,
      "çŃĶ": 4841,
      "Ġë°Ķê¿": 4842,
      "íķłê±°ìķ¼": 4843,
      "ç¾¤": 4844,
      "ĠëĳĲë²Īì§¸": 4845,
      "ãģĦãģ¾ãģĹãģŁ": 4846,
      "ĠìŀĦ": 4847,
      "é¤Ĭ": 4848,
      "æ¢ħ": 4849,
      "ãģķãĤĮãĤĭ": 4850,
      "ãģªãģĦãģ¨": 4851,
      "å¯Ĩ": 4852,
      "ãĤµãĤ¤": 4853,
      "ìĭ¯": 4854,
      "Ġë°¸ë¦¬": 4855,
      "ãģıãĤĮãĤĭ": 4856,
      "ww": 4857,
      "ä½İ": 4858,
      "ãĤŃãĥ¥": 4859,
      "Ġì¹ľ": 4860,
      "ĠìłķëıĦ": 4861,
      "ĠíĻĶìĥģ": 4862,
      "åħ¸": 4863,
      "Ġíķĺê²Į": 4864,
      "Ġíķ´ìķ¼": 4865,
      "çļĦãģ«": 4866,
      "æİĪ": 4867,
      "ãĥĥãĤ¯ãĤ¹": 4868,
      "ê°ĢëĬĶ": 4869,
      "éĢĢ": 4870,
      "ãģ«ãģªãĤĬ": 4871,
      "íĶĪ": 4872,
      "ãģªãģĮãĤī": 4873,
      "ĠìĤ¬ìĭ¤ìĿ´": 4874,
      "Ġì¬": 4875,
      "ãģĬé¡ĺ": 4876,
      "ĠìĨľ": 4877,
      "æĬ¼": 4878,
      "ì§Ŀ": 4879,
      "ç¥Ń": 4880,
      "ë¦ĺ": 4881,
      "ĠëĤ®": 4882,
      "ĠìĹ¬ê¸´": 4883,
      "ĠìķĦìĿ´ìĿĺ": 4884,
      "åīįãģ«": 4885,
      "ĠëģĿëĤ¬ìĸ´": 4886,
      "Ġìĺ¤ëŀĺ": 4887,
      "æ¤ľ": 4888,
      "ï½¥ï½¥ï½¥ï½¥ï½¥ï½¥ï½¥ï½¥": 4889,
      "Ġë³ĳ": 4890,
      "å°ıè¨Ī": 4891,
      "Ġê³µê°ĦìĿ´": 4892,
      "Ġë°ľê²¬": 4893,
      "Ġãģ«": 4894,
      "ãģĹãĤĤ": 4895,
      "è²¬": 4896,
      "è¨ĢãĤı": 4897,
      "ëĶĽ": 4898,
      "ĠHA": 4899,
      "ìłĪ": 4900,
      "ãģķãģĭ": 4901,
      "è¦ĭãģ¦": 4902,
      "åı³": 4903,
      "ãĤªãĥ³": 4904,
      "æŀĿ": 4905,
      "ãģĦãģª": 4906,
      "ãģ§ãģĹãģŁ": 4907,
      "Ġì§ľ": 4908,
      "ãģŁãĤģãģ«": 4909,
      "IGH": 4910,
      "çłĤ": 4911,
      "ac": 4912,
      "ìĿĦì§ĢëıĦ": 4913,
      "ĠìŀĪê²łì£ł": 4914,
      "ìĿ¸ëĥ¥": 4915,
      "ĠìĿ´ë¯¸ì§Ģëĵ¤": 4916,
      "ĠìķĦê¹Į": 4917,
      "Ġê·¸ëŁ¼ìļĶ": 4918,
      "åĶ®": 4919,
      "Ġë½ĳ": 4920,
      "åı¥": 4921,
      "ãģ£ãģ¦ãģŁ": 4922,
      "ãģ¿ãĤĦ": 4923,
      "ãģķãĤĵãģ¯": 4924,
      "Ġëĳĺ": 4925,
      "èįĴ": 4926,
      "Ġìĭľê°ĦìĿĦ": 4927,
      "Ġêº¼ìł¸": 4928,
      "ãĤ¾": 4929,
      "Ġëĭ«": 4930,
      "ãģĻãģĦ": 4931,
      "ĠëıĦëĦĲëĵľ": 4932,
      "ìľ¼ëĭĪê¹ĮìļĶ": 4933,
      "éª¨": 4934,
      "AND": 4935,
      "ãĤ¸ãĥ£ãĥ³ãĥĹ": 4936,
      "ëª°": 4937,
      "Ġë°ĶëŀĮ": 4938,
      "Ġëļ": 4939,
      "ìĿ´ëŀĢ": 4940,
      "ĠìķĦëĵ¤": 4941,
      "éĢĻåĢĭ": 4942,
      "Ġì¸±": 4943,
      "57": 4944,
      "ãģŃãģĩ": 4945,
      "ĠëĦĪê°Ģ": 4946,
      "é»¨": 4947,
      "íĸ¥": 4948,
      "ĠìĤ¬ìĿ´": 4949,
      "ä¼ģ": 4950,
      "ìķłíĭĢ": 4951,
      "oo": 4952,
      "Ġn": 4953,
      "Ġê»": 4954,
      "å¯Ł": 4955,
      "íĥĿ": 4956,
      "ìĿ´ê³łìļĶ": 4957,
      "Ġì·¨": 4958,
      "ãģĦãģªãģĦ": 4959,
      "éº¼": 4960,
      "Ġêº": 4961,
      "ãģ»ãĤī": 4962,
      "ĠãĤĦ": 4963,
      "Ġíĺ¸": 4964,
      "ãģĦãģį": 4965,
      "Ġì§ĳìĿĢ": 4966,
      "Ġê´´": 4967,
      "áħ": 4968,
      "å°¤": 4969,
      "æģĭ": 4970,
      "ç²ī": 4971,
      "ê¸°ìĹĲëĬĶ": 4972,
      "ìĺ¤ëĬĺ": 4973,
      "ãĥ¬ãĥ¼": 4974,
      "è¾¦": 4975,
      "Ġì´ĿìķĮ": 4976,
      "å¯Ħ": 4977,
      "ç½ĳ": 4978,
      "ê²łì§Ģë§Į": 4979,
      "èª¬": 4980,
      "ëĮĢë¥¼": 4981,
      "ĠëŃĲê°Ģ": 4982,
      "Ġíķłê±¸": 4983,
      "éĻį": 4984,
      "èĥĮ": 4985,
      "ĠTV": 4986,
      "ĠWH": 4987,
      "ë§ģ": 4988,
      "éģº": 4989,
      "éĽħ": 4990,
      "è£ľ": 4991,
      "ĠíĿ¬": 4992,
      "ĠìľĮìĬ¨": 4993,
      "Ġë§Īì°¬ê°Ģì§Ģìķ¼": 4994,
      "LY": 4995,
      "ir": 4996,
      "Ġg": 4997,
      "å·¥ä½ľ": 4998,
      "ìľ¼ë©´ìĦľ": 4999,
      "Ġìį©": 5000,
      "ĠìĨ¡": 5001,
      "TER": 5002,
      "ãģĹãĤħãģĨ": 5003,
      "äºľ": 5004,
      "Ġì§Ī": 5005,
      "ìĭľìĹĲ": 5006,
      "ìĸ¼": 5007,
      "ç«Ļ": 5008,
      "ĠìĻĶìĸ´ìļĶ": 5009,
      "ç§ĳåŃ¸": 5010,
      "ĠìłĢëħģìĿ´": 5011,
      "ãĤĦãģ£ãģ±ãĤĬ": 5012,
      "æ¬¢è¿İ": 5013,
      "ĠãĤ¢": 5014,
      "å·»": 5015,
      "å¡ļ": 5016,
      "ãģ«ãģ¤ãģĦãģ¦": 5017,
      "ow": 5018,
      "ë°Ģ": 5019,
      "íĶĦëĭ¤": 5020,
      "ãĥŀãĤ¹": 5021,
      "åĸĦ": 5022,
      "ãģ©ãģĨãģĹãģŁ": 5023,
      "ëªĩ": 5024,
      "éĽ²": 5025,
      "ä¸ĬãģĴ": 5026,
      "ãģĦãģŁãģł": 5027,
      "Ġì¡°ìĿ´ëĬĶ": 5028,
      "ĠìĪ¨": 5029,
      "ê¾¼": 5030,
      "Ġìļ¸ì§Ģ": 5031,
      "æĹ¶": 5032,
      "ãģĺãģ¾": 5033,
      "ãģ¿ãģ¤": 5034,
      "å¾®": 5035,
      "ĠìłĪë°ĺ": 5036,
      "æ¢°": 5037,
      "Ġë³Ħë¡ľ": 5038,
      "46": 5039,
      "ãģĭãģ¤": 5040,
      "ĠìłĬ": 5041,
      "çĻĤ": 5042,
      "åĽłçĤº": 5043,
      "å¸ĮæľĽ": 5044,
      "çķ¥": 5045,
      "íĲ": 5046,
      "Ġìĺ¤ìħĺ": 5047,
      "æĿ¥ãģŁ": 5048,
      "æĦŁãģĺ": 5049,
      "ãģ²ãģĮãģĹ": 5050,
      "ãĢĲ": 5051,
      "äº¡": 5052,
      "ãĥ¼ãĥŀ": 5053,
      "ãģªãģķãģĦ": 5054,
      "æģĲ": 5055,
      "Ġëĺ¥ìĿĦ": 5056,
      "æłĦ": 5057,
      "ãĤ¶ãĥĥ": 5058,
      "ìª½ìĿĢ": 5059,
      "ĠëĦĺìĸ´ê°Ģ": 5060,
      "Ġë¨¸ë¦¬ë¥¼": 5061,
      "è»½æ¸Ľç¨İçİĩ": 5062,
      "Ġ6": 5063,
      "ãĥ³ãĤ¹": 5064,
      "ãĥīãĥī": 5065,
      "ãĥĸãĥ«": 5066,
      "ì´Ī": 5067,
      "56": 5068,
      "Ġëıħ": 5069,
      "ì£¼ëĬĶ": 5070,
      "çĽ¸æīĭ": 5071,
      "ĠëĲľëĭ¤": 5072,
      "Ġì¶ľìŀħ": 5073,
      "ãģĶãĤģãĤĵ": 5074,
      "êº¼ìĿ´": 5075,
      "Ġê°ģ": 5076,
      "çĶ¢": 5077,
      "ĠìĿ´ê³³": 5078,
      "ãģ©ãĥ¼": 5079,
      "OUT": 5080,
      "Ġëª©ìļĶìĿ¼": 5081,
      "ãģĭãģļ": 5082,
      "éĩ£": 5083,
      "ëıĻìĿĦ": 5084,
      "ĠìłľìĿ¼": 5085,
      "ĠSH": 5086,
      "Ġê´ľì°®ìķĦ": 5087,
      "ãģĦãģ§": 5088,
      "ìķĦëĭĪ": 5089,
      "ãĤīãĤĮãģ¦": 5090,
      "ìĹĪì£ł": 5091,
      "Ġëįľ": 5092,
      "é¤ĺ": 5093,
      "ä¸īåįģ": 5094,
      "ĠëģĮ": 5095,
      "çªĹ": 5096,
      "å½¼å¥³": 5097,
      "ëĿ¼ì§Ī": 5098,
      "åįİ": 5099,
      "å¢ŀ": 5100,
      "çªģ": 5101,
      "Ġíģ´ë¦°íĦ´": 5102,
      "æĺĶ": 5103,
      "ãĤĭãģ¨": 5104,
      "çŁ¢": 5105,
      "ĠìĨĮëħĢìĿĺ": 5106,
      "íĨ¤": 5107,
      "ë¨¼": 5108,
      "åħ¨éĥ¨": 5109,
      "CR": 5110,
      "Ġìļ©": 5111,
      "ãģĬãģ£": 5112,
      "Ġê³¤": 5113,
      "ãģķãĤĵãģĮ": 5114,
      "Ġì¡´ìŀ¬": 5115,
      "ĠìĥĪëģ¼ê°Ģ": 5116,
      "ãĢĬ": 5117,
      "äº¦": 5118,
      "çļĦãģª": 5119,
      "åĿĬ": 5120,
      "æĺ¯äºĭ": 5121,
      "å¸Ń": 5122,
      "æĶ»": 5123,
      "è±Ĩ": 5124,
      "Ġê²½ê³ł": 5125,
      "éĲµ": 5126,
      "ĠìĺĪë¯¼": 5127,
      "ĠëĤļìĭ¯": 5128,
      "ê°Ģë©´": 5129,
      "ê²Ĳ": 5130,
      "ìłĦìĹĲ": 5131,
      "Ġì§Ģë°°": 5132,
      "åºŃ": 5133,
      "ĠìŀĪëĭ¤ë©´": 5134,
      "Ġì¢ĭìķĺìĸ´": 5135,
      "è¨±å¤ļ": 5136,
      "ä¸Ģç·Ĵãģ«": 5137,
      "ìŀĶ": 5138,
      "ëĿ¼ìĿ´": 5139,
      "ãĥ©ãĥĥ": 5140,
      "çĦ¼": 5141,
      "ç·´": 5142,
      "å³°": 5143,
      "éĬĢ": 5144,
      "ä¸Ģäºº": 5145,
      "ãģ«ãģªãģ£ãģŁ": 5146,
      "ç¨İè¾¼": 5147,
      "Ġëª°ëĿ¼": 5148,
      "ãĤīãĤĵ": 5149,
      "æľĢå¾Į": 5150,
      "ëĨĪ": 5151,
      "ãģ¨ãģ®": 5152,
      "Ġìĺ³": 5153,
      "å¤§åŃ¦": 5154,
      "ãĤ«ãĥ³": 5155,
      "å¢Ĺ": 5156,
      "ï¼Ĵ": 5157,
      "ãģĵãģ¡ãĤī": 5158,
      "ìĭľì¼ľ": 5159,
      "å¾ĭ": 5160,
      "Ġëĸ¨ìĸ´": 5161,
      "ìĶ©": 5162,
      "ãĥ¼ãģĦ": 5163,
      "ãģĵãģĿ": 5164,
      "è¨ĵ": 5165,
      "Ġíķľëĭ¤ê³ł": 5166,
      "Ġê³łíĨµ": 5167,
      "ãģĿãģĨãģł": 5168,
      "Ġë§ĲìķĦìļĶ": 5169,
      "ĠìĹĨìĿ´": 5170,
      "ãĤįãĤĵ": 5171,
      "Ġì¹¨": 5172,
      "å·¥æ¥Ń": 5173,
      "ç¬¬äºĮ": 5174,
      "Ġìķ¡": 5175,
      "Ġì§Ģì§Ħ": 5176,
      "ãģĹãĤĪãģĨ": 5177,
      "ãģ§ãģĤãĤĭ": 5178,
      "Ġê°Ģëĳ¬": 5179,
      "ãĥ¼ãĥĨ": 5180,
      "æĤªãģĦ": 5181,
      "Ġíķĺë£»ë°¤ìĿĦ": 5182,
      "¸ëĭĪ": 5183,
      "ãģĭãĤĭ": 5184,
      "ãģĬå®¢": 5185,
      "éĥ·": 5186,
      "ĠìķĬì§Ģ": 5187,
      "Ġìłķìĭł": 5188,
      "ï¿": 5189,
      "ãģĿãģĨãģĦãģĨ": 5190,
      "ĠëıĻìĿĺ": 5191,
      "ç¢ºèªį": 5192,
      "ĠíĦ°íĶĦ": 5193,
      "íķĺìĺ¤": 5194,
      "ĠìķĮì§Ģ": 5195,
      "çŃĨ": 5196,
      "è³¼": 5197,
      "éľĢ": 5198,
      "íģ¬ëĿ¼": 5199,
      "Ġê·¸ëħĢê°Ģ": 5200,
      "os": 5201,
      "tr": 5202,
      "ĠëĶĶ": 5203,
      "íķ´ì£¼": 5204,
      "åŃĲä¾Ľ": 5205,
      "ĠìľĦíķľ": 5206,
      "æ¬²": 5207,
      "è³ŀ": 5208,
      "çĹĩ": 5209,
      "ĠëĭĪëĦ¤": 5210,
      "ĠìĹ¿ê°ĻìĿĢ": 5211,
      "èĪī": 5212,
      "ãĤµãĥ³": 5213,
      "çĿ£": 5214,
      "ç»ı": 5215,
      "ĠìłĪë°ĺìĿĦ": 5216,
      "ãĥ¼ãĤ¿": 5217,
      "ìķĦê°Ģ": 5218,
      "åĪ¸": 5219,
      "íĸĪìĿĦ": 5220,
      "ĠìķĬëĬĶ": 5221,
      "æ¸Ī": 5222,
      "å²¸": 5223,
      "ĠìĥģíĻ©": 5224,
      "íĮ¨": 5225,
      "ĠëĪĪê¹Ķ": 5226,
      "NO": 5227,
      "åģ´": 5228,
      "Ġë¨¹ìĿ´ê³ł": 5229,
      "im": 5230,
      "ìĿ´ì§Ģ": 5231,
      "Ġì¤Ģë¹Ħê°Ģ": 5232,
      "éĿĴå¹´": 5233,
      "Ġê±°ë¦¬ìĹĲìĦľ": 5234,
      "ãģ°ãĤī": 5235,
      "ĠìłĢë¦¬": 5236,
      "ĠíĻĶìŀ¥": 5237,
      "ĠëĺĲíķľ": 5238,
      "Ġëį°ëł¤ëĭ¤": 5239,
      "Ġë®": 5240,
      "æĪ»": 5241,
      "åĽº": 5242,
      "ï½¥ï½¥ï½¥ï½¥ï½¥ï½¥": 5243,
      "ad": 5244,
      "ìĸ´ìĦľ": 5245,
      "ëĤ¸": 5246,
      "ãģķãĤī": 5247,
      "Ġêµ¬íķĺëŁ¬": 5248,
      "Ġë°°ê³ł": 5249,
      "éĥ¡": 5250,
      "ãĤ«ãĥª": 5251,
      "Ġë¶ĪëŁ¬": 5252,
      "ãģ¡ãĤĥãĤĵãģ¨": 5253,
      "Ġë§Ĳëįĺ": 5254,
      "Ġê±°ê³ł": 5255,
      "ìļ°ëĬĶ": 5256,
      "ìŀĳìĹĶ": 5257,
      "ĠëĨĢë¦¬ê³ł": 5258,
      "ĠëĨĪëĵ¤íķľíħĮ": 5259,
      "Ġì§Ģë°°íķĺëĬĶ": 5260,
      "ãĤĦãģ¤": 5261,
      "ĠëĲĺëĬĶê±°ìķ¼": 5262,
      "ĠëĤĺìĦ°ëĭ¤ê°Ģ": 5263,
      "SS": 5264,
      "ãģłãģ¨": 5265,
      "åŃ£": 5266,
      "ĠìĻķìĿ´ê³ł": 5267,
      "ê°Ķìĸ´ìļĶ": 5268,
      "ĠêµĲëıĦ": 5269,
      "ĠíıŃíĸīëĭ¹íĸĪëĭ¤": 5270,
      "ĠíıŃíĸīëĭ¹íķľê±°ìķ¼": 5271,
      "Ġìļ´ê±´": 5272,
      "Ġë¥ĺìĥ¤ìĺ¤": 5273,
      "Ġì§Ģì§ĦìķĦë¥¼": 5274,
      "ALL": 5275,
      "ãĢĭ": 5276,
      "ë§ĮìĿĦ": 5277,
      "Ġê³§": 5278,
      "Ġíĺĳ": 5279,
      "ãĥ¼ãĥĬ": 5280,
      "æĢĿãģĦ": 5281,
      "ĠìļĶìĥĪ": 5282,
      "Ġì§ĢëĤ´ëıĦë¡Ŀ": 5283,
      "æĴĥ": 5284,
      "ĠDO": 5285,
      "Ġê¼¬ìĭľëŁ¬": 5286,
      "87": 5287,
      "ä¼¼": 5288,
      "ĠëĮĢëĭ¨": 5289,
      "å§ī": 5290,
      "æĨ¶": 5291,
      "ãģĦãģ£ãģŁ": 5292,
      "ìĥī": 5293,
      "å¥ĩ": 5294,
      "íĥĪ": 5295,
      "è©ķ": 5296,
      "ãģĲãĤĵ": 5297,
      "ĠAND": 5298,
      "Ġì²´íı¬íķĺì§Ģ": 5299,
      "Ġì¾": 5300,
      "ãģªãģģ": 5301,
      "ĠìĿ´ê¸°": 5302,
      "æĸĩåŃĹ": 5303,
      "ĠìĦĿ": 5304,
      "è§Ģ": 5305,
      "ĠëĦ£": 5306,
      "Ġê¸°êº¼ìĿ´": 5307,
      "Ġë¹Į": 5308,
      "íģ´": 5309,
      "Ġëĭ¬ë¹Ľ": 5310,
      "UST": 5311,
      "id": 5312,
      "íķ©": 5313,
      "ĠìķĻ": 5314,
      "ãģĺãĤĩ": 5315,
      "æĿŁ": 5316,
      "ĠìłĢëĬĶ": 5317,
      "ĠìŀĪìĹĪëįĺê±°ìķ¼": 5318,
      "æ¬Ĭ": 5319,
      "ãģ¼ãģĨ": 5320,
      "ĠíķĦìļĶíķ´ìļĶ": 5321,
      "ĠáĨŃ": 5322,
      "ãĤ¥": 5323,
      "ĠìłĲ": 5324,
      "ãģıãĤĮãģŁ": 5325,
      "ãĤ¦ãĥ³": 5326,
      "ëłĪìĸ´": 5327,
      "Ġëĭ¹ìĭľ": 5328,
      "ë§Īëĭ¤": 5329,
      "ãĤµãĤ¤ãĥĪ": 5330,
      "é¥°": 5331,
      "Ġë¬´ìĦľìĽĮ": 5332,
      "ĠãĤĨ": 5333,
      "ĠìĴ": 5334,
      "åĢ¤": 5335,
      "éĥ¨åĪĨ": 5336,
      "Ġêº¼ì§Ģë©´": 5337,
      "ãģļãģ£ãģ¨": 5338,
      "Ġìĭ«ìĸ´ìļĶ": 5339,
      "ĠìĻĦë²½": 5340,
      "ĠãģĻ": 5341,
      "Ġìłĳ": 5342,
      "ĠìĹĨìĨĮ": 5343,
      "ì£¼ìĭľìĺ¤": 5344,
      "ä¾Ĩ": 5345,
      "ãģĸãģį": 5346,
      "Ġë£¨": 5347,
      "Ġê³¤ëŀĢ": 5348,
      "IF": 5349,
      "SP": 5350,
      "æĺ¯ä¸į": 5351,
      "åĭĩ": 5352,
      "ç¥¥": 5353,
      "ĠíĶĦëłĪ": 5354,
      "ĠëĶ¸ìĿ´": 5355,
      "ĠëĤ¨ìŀĲì¹ľêµ¬": 5356,
      "Ġãģª": 5357,
      "Ġìİ": 5358,
      "çĶĺ": 5359,
      "åĽ³": 5360,
      "éĽ¶": 5361,
      "ĠëĨĵ": 5362,
      "Ġìłķì°©": 5363,
      "íķŃ": 5364,
      "ëĤĺëĭ¤": 5365,
      "æĹ¢": 5366,
      "ãĤĦãĤĬ": 5367,
      "ëª©": 5368,
      "ãĤģãģŁ": 5369,
      "ê¸Īê»ı": 5370,
      "ĠëĦĪëĬĶ": 5371,
      "èŃ¦": 5372,
      "ëł¸ëĭ¤": 5373,
      "ĠãĤĬ": 5374,
      "ä¸ĺ": 5375,
      "çĽĬ": 5376,
      "Ġëª©íĳľ": 5377,
      "ĠìłĢëħģìĿĦ": 5378,
      "ê¾¸ê³ł": 5379,
      "ç¾Ĭ": 5380,
      "ãģĺãĤĥãĤĵ": 5381,
      "éĢļãĤĬ": 5382,
      "ê·¸ëŀĺìĦľ": 5383,
      "é¹¿": 5384,
      "ìŀĲê¸°": 5385,
      "è£ķ": 5386,
      "Ġof": 5387,
      "ä¾Ŀ": 5388,
      "ĠíĸĪëįĺ": 5389,
      "ĠìĨįìĿ´ëł¤ê³ł": 5390,
      "Ġìĥģê´ĢìĿ´ìķ¼": 5391,
      "Ġëºıìľ¼ëł¤ê³ł": 5392,
      "ĠëĵŃ": 5393,
      "ç´Ķ": 5394,
      "ãģ°ãĤĵ": 5395,
      "èģĶ": 5396,
      "éħ¸": 5397,
      "ê²©ìĿ´": 5398,
      "ĠìķĦëĭĮëį°": 5399,
      "éĻ¸": 5400,
      "ãĤ³ãĥŁ": 5401,
      "æŁ»": 5402,
      "ëĭĺìĿĢ": 5403,
      "éĴ¢": 5404,
      "ë«": 5405,
      "ä½¿çĶ¨": 5406,
      "Ħê³ł": 5407,
      "ãĥ¼ãĥĥ": 5408,
      "çĤĴ": 5409,
      "ap": 5410,
      "ëĭ¤ëł¤": 5411,
      "ãģĦãģ¾": 5412,
      "ĠëĤ¬": 5413,
      "Ġê°ĦìĹĲ": 5414,
      "Ġìļ¸íĥĢ": 5415,
      "åĤ¬": 5416,
      "Ġìĩ": 5417,
      "ä½Ļ": 5418,
      "ëģĮ": 5419,
      "Ġë§ĲìĿ´ìĺ¤": 5420,
      "Ġë§¡": 5421,
      "ãģĨãģ£": 5422,
      "ĠìĿ´ë²Ī": 5423,
      "åĪĢ": 5424,
      "ãĥĥãĥī": 5425,
      "ĠìĹĨê±°ëĵłìļĶ": 5426,
      "ĠìĤ¬ëŀĮëĵ¤": 5427,
      "ç«¥": 5428,
      "å§«": 5429,
      "ĠìĹ¬ë³´ìĦ¸ìļĶ": 5430,
      "íĸĪëĭ¤ê³ł": 5431,
      "Ġê²½ì°°ìĦľëıĦ": 5432,
      "Ġê³³ëıĦ": 5433,
      "ĠíħĲëį°ìļĶ": 5434,
      "Ġìķķ": 5435,
      "ëłĮ": 5436,
      "éłĤ": 5437,
      "åĩºãģ¦": 5438,
      "æĪ°æİĻ": 5439,
      "ĠFOR": 5440,
      "Ġëľ»ìĿ´ìķ¼": 5441,
      "ì¾Į": 5442,
      "ä¹³": 5443,
      "íĻĶëĭ¹": 5444,
      "æĵĬ": 5445,
      "æ¹¯": 5446,
      "Ġëĭ«ê³ł": 5447,
      "æĺ¯æĻĤåĢĻ": 5448,
      "ãģłãģĹ": 5449,
      "ĠìĤ¬ë¬´": 5450,
      "åĲ¹": 5451,
      "ãģ¿ãģ¡": 5452,
      "ĠëĲĺê²łëĭ¤": 5453,
      "è¼ª": 5454,
      "ãĤ®ãĥ£": 5455,
      "Ġä¸Ń": 5456,
      "ŃìĿ´": 5457,
      "ĠìĿ´ëĵ¤": 5458,
      "ãĤıãĤĪ": 5459,
      "åħ¥æĺ¯": 5460,
      "ç·ı": 5461,
      "æ°ĹãģĮ": 5462,
      "ë¯¼ëĵ¤ìĿĢ": 5463,
      "ĠWE": 5464,
      "Ġìĳ": 5465,
      "ëŀľ": 5466,
      "Ġê°ĳ": 5467,
      "éĢĨ": 5468,
      "å·¥ç¨ĭ": 5469,
      "Ġì´Ī": 5470,
      "íĺĶ": 5471,
      "Ġê¿ĩìĸ´": 5472,
      "Ġê±°ì§ĵ": 5473,
      "ëĦ¤ê°Ģ": 5474,
      "Ġì³ĲìĦľ": 5475,
      "ÃĹ": 5476,
      "ĠìŀĪëĦ¤": 5477,
      "åĪĬ": 5478,
      "Ġ17": 5479,
      "ìĨĮëıĦ": 5480,
      "è¼ĥ": 5481,
      "Ġê°ľì²Ļ": 5482,
      "åĿĩ": 5483,
      "Ġìĺ¬ëĿ¼": 5484,
      "ë°°ëĤĺ": 5485,
      "åķıé¡Į": 5486,
      "ãģįãĤħãģĨ": 5487,
      "ãģķãģĽãģ¦": 5488,
      "åĪ¤": 5489,
      "Ġê°Ģë³¸": 5490,
      "íķ´ìĦľìļĶ": 5491,
      "ĠìĨ¡ìķĦ": 5492,
      "íģ¬ëĿ¼ë©ĺíĬ¸": 5493,
      "íķĦ": 5494,
      "ãģĦãĤĵ": 5495,
      "Ġìķħ": 5496,
      "ãģŁãģ«": 5497,
      "ãģ¯è»½æ¸Ľç¨İçİĩ": 5498,
      "ĠìķĪìłĦ": 5499,
      "Ġíķ´ëıĦ": 5500,
      "Ġë¶ĢìĿ¸": 5501,
      "åĿĢ": 5502,
      "ãģ©ãģĨãģĹãģ¦": 5503,
      "é¾į": 5504,
      "ŃìłĢ": 5505,
      "ãĥ¼ãģ®": 5506,
      "ĠìĤ¬ê±´": 5507,
      "ï¼ģï¼ģï¼ģ": 5508,
      "èį·": 5509,
      "æ»ħ": 5510,
      "Ġê³µíĻĶëĭ¹": 5511,
      "æĳ©": 5512,
      "ĠëĨįìĤ¬ë¥¼": 5513,
      "ĠëıĮìķĦê°Ģ": 5514,
      "ç»´": 5515,
      "ĠëĽ°ìĸ´": 5516,
      "æĽ¿": 5517,
      "Ġì¤Ģë¹ĦëĲł": 5518,
      "Ġë§ĪìĿĮìĿĦ": 5519,
      "ëĭĺìĿ´": 5520,
      "Ġê°Ģì¶": 5521,
      "ìĻ¸": 5522,
      "Ġê·¸ëŁŃìłĢ": 5523,
      "ãĥ¼ãĥĸ": 5524,
      "ãģĶåĪ©çĶ¨": 5525,
      "ĠìĨĮëĬĶ": 5526,
      "Ġëħ¸ëıĻ": 5527,
      "Ġëľ»ìĿ´ìĹĲìļĶ": 5528,
      "ĠëĤĺê°Ħëĭ¤ëĬĶ": 5529,
      "ĠìĨľìĶ¨ëĬĶ": 5530,
      "Ġê·¸ëŁŃìłĢëŁŃ": 5531,
      "ĠìĿ¼íĴĪ": 5532,
      "Ġê¸°ìģ": 5533,
      "æĢª": 5534,
      "íĻĢ": 5535,
      "ĠìĨĮëĵ¤ìĿ´": 5536,
      "ĠìĦłìĥĿ": 5537,
      "Ġë¹Ħíĸīê¸°": 5538,
      "Ġìĸ´ì©Į": 5539,
      "Ġë³Ħê±°": 5540,
      "åĨĻçľŁ": 5541,
      "ĠìķĻìĥģ": 5542,
      "Ġì§ĵê³ł": 5543,
      "ãģıãģ¦": 5544,
      "Ġëª¨ë¥¸": 5545,
      "éĻº": 5546,
      "ĠìĥĿê²¼": 5547,
      "äºĭæ¥Ń": 5548,
      "ĠëĪĦì¶Ķ": 5549,
      "ĠìĶ»ìĸ´ìļĶ": 5550,
      "Ġìļķìĭ¬ìĿ´": 5551,
      "Ġìĸ´ëķłìĸ´": 5552,
      "Ġë°°ê³łíĶĦëĭ¤": 5553,
      "ĠëĤĺíĥĢ": 5554,
      "å¾³": 5555,
      "ëĵľëĦ¤": 5556,
      "æı´": 5557,
      "åł´æīĢ": 5558,
      "Ġë¬¸ëıĦ": 5559,
      "ĠìķĮìķĺìĨĮ": 5560,
      "ĠìĤ´ìķĦê°Ħ": 5561,
      "Ġê°ĶìĨĮ": 5562,
      "âĺĨ": 5563,
      "Ġëĭ¤ëĭĪì£ł": 5564,
      "Ġì´ĿìķĮëıĦ": 5565,
      "ëĻ": 5566,
      "äº§": 5567,
      "Ġê°Ģê¾¸ê³ł": 5568,
      "ãģĳãģŁ": 5569,
      "ãĤĵãģłãģĳãģ©": 5570,
      "ĠìĨĮëª°": 5571,
      "ãģ¸ãģ®": 5572,
      "ë¬¼ê°Ķìĸ´ìļĶ": 5573,
      "Ġì¡°ìĿ´ìļĶ": 5574,
      "Ġì´ĿìĹĶ": 5575,
      "Ġì´ĿìĿ´ê³łìļĶ": 5576,
      "Ġëĵ¤ìĸ´ìĻĶêµ°": 5577,
      "ĠëķħìĿ´ì£ł": 5578,
      "Ġìķŀìª½ìĿĢ": 5579,
      "Ġê³¼íķ´ìļĶ": 5580,
      "Ġì±ĦìĨĮëıĦ": 5581,
      "Ġê±°ì£¼ë¯¼ëĵ¤ìĿĢ": 5582,
      "Ġìĸ´ëł¤ìļĶ": 5583,
      "Ġìłķì°©íĸĪëĬĶëį°": 5584,
      "ĠìĨ¡ìķĦì§Ģê°Ģ": 5585,
      "Ġê°Ģì¶ķëıĦ": 5586,
      "ĠìĿ¼íĴĪìĿ´ì£ł": 5587,
      "ĠìķĻìĥģíķ´ìĦľ": 5588,
      "ĠëĪĦì¶Ķíķĺì§Ģë§Į": 5589,
      "ĠìĤ´ìķĦê°ĦëĭµëĭĪëĭ¤": 5590,
      "ĠìĨĮëª°ìĿ´ëĬĶ": 5591,
      "Ġì¨": 5592,
      "ä¸¡": 5593,
      "ê²ĮìļĶ": 5594,
      "ĠëıĪìĿĦ": 5595,
      "å°ģ": 5596,
      "Ġë§Īìĥ¤ìĺ¤ì¤Ģ": 5597,
      "Ġê¸°ë¥´ëĬĶ": 5598,
      "ä»£è¡¨": 5599,
      "Ġë¯¸ìķĪíķĺìĺ¤": 5600,
      "ĠëĶ°ë¥´": 5601,
      "ĠìĤ¬ìĭ¤ìĿ´ìŀĸìķĦ": 5602,
      "ĠëĵŃìĭľëĭ¤": 5603,
      "ħëĭĪëĭ¤": 5604,
      "ëį¤": 5605,
      "ãģĿãĤį": 5606,
      "è¬Ĥ": 5607,
      "Ġê´ĢìĿĦ": 5608,
      "Ġíģ´ëłĪìĸ´": 5609,
      "Ġì¢ĭê²łìĸ´": 5610,
      "ë»Ĳ": 5611,
      "ĠTHIS": 5612,
      "Ġê²½ê³łíĸĪëĭ¤": 5613,
      "Ġê°ľì²Ļíķľ": 5614,
      "31": 5615,
      "ãĤĴãģĬ": 5616,
      "ĠìĤ¬ìĭľìĺ¤": 5617,
      "åħ¬åľĴ": 5618,
      "å¥³åŃĲ": 5619,
      "Ġë°©ë²ķìĿĢ": 5620,
      "æłªå¼ı": 5621,
      "ãģĵãģ£ãģ¡": 5622,
      "ãĤ°ãĥ©": 5623,
      "éģĭåĭķ": 5624,
      "ëĭ¤ëĭĮ": 5625,
      "ç§į": 5626,
      "ĠìĬ¬": 5627,
      "ĠON": 5628,
      "ãĤĭãģ®": 5629,
      "ãģłãĤĵ": 5630,
      "ãģįãĤĵ": 5631,
      "ëł¤ëĬĶ": 5632,
      "æĽľ": 5633,
      "å¤ĸåľĭ": 5634,
      "çĻºå£²": 5635,
      "Ġê±°ëĿ¼ë©´": 5636,
      "ìŀħëĤĺëĭ¤": 5637,
      "çĥŁ": 5638,
      "ĠìĬ¤íĥĢëłĽìĿ´ê³ł": 5639,
      "ä»Ģéº¼": 5640,
      "ï¼Ĳ": 5641,
      "ãģįãĤĬ": 5642,
      "ìľ¼ë©°": 5643,
      "é§Ĳ": 5644,
      "ç¯ī": 5645,
      "ë¨¾": 5646,
      "Ġê·¸ëŁ¬ëĭĪê¹Į": 5647,
      "è¬Ľæľª": 5648,
      "com": 5649,
      "ĠìķĦë¹ł": 5650,
      "åĽ°": 5651,
      "Ġë°ĽìķĦ": 5652,
      "ĠìĤ¬ë§ĪëĿ¼ê°Ģ": 5653,
      "æī¹åıĳ": 5654,
      "ãĥ¬ãĤ¹": 5655,
      "Ġìľłëªħ": 5656,
      "ĠìĹĦë§Īë¥¼": 5657,
      "ĠíķĻêµĲ": 5658,
      "ĠìķĶ": 5659,
      "Ġê°ľìĿ¸ìłģìľ¼ë¡ľ": 5660,
      "ĺë¦¬": 5661,
      "ê°Ĺ": 5662,
      "ãĤ¤ãĤ¤": 5663,
      "Ġìŀĺëª»": 5664,
      "ç®±": 5665,
      "æ½®": 5666,
      "ĠíĹĮ": 5667,
      "ĠìĿ´ë¯¸ì§Ģê°Ģ": 5668,
      "æĶ¯æīķ": 5669,
      "ĠìŀĶ": 5670,
      "åħ»": 5671,
      "å¼Ł": 5672,
      "ãĥ¢ãĥ³": 5673,
      "Ġì«ĵê±°ëĿ¼": 5674,
      "ĠíĹĪëĭĪ": 5675,
      "AH": 5676,
      "åįĪ": 5677,
      "ãģĽãģį": 5678,
      "Ġì£¼ìĭľì§Ģ": 5679,
      "ãģ£ãģĵ": 5680,
      "ãĥ¼ãĤº": 5681,
      "ãĤĪãĤį": 5682,
      "ĠíĿĳ": 5683,
      "Ġìħ°ìĿ¸ìŀħëĤĺëĭ¤": 5684,
      "IGHT": 5685,
      "ĠëĪĪê¹ĶìĹĲ": 5686,
      "łìĿĢ": 5687,
      "ãģŁãĤĵ": 5688,
      "ãģıãģ«": 5689,
      "Ġê²ª": 5690,
      "ç´į": 5691,
      "Ġë¢": 5692,
      "èī¦": 5693,
      "Ġë¦¬ë§īìĿ´": 5694,
      "íķĺëĬĶê±°ì§Ģ": 5695,
      "ãģµãģµ": 5696,
      "OME": 5697,
      "éĸ¢ä¿Ĥ": 5698,
      "ĠëĤĺìĻĶ": 5699,
      "ä¹Ĳ": 5700,
      "ä»¥åīį": 5701,
      "ĠìĬ¤ì¹´ìĿ´": 5702,
      "Ġì¢ĭìķĦíķĺëĬĶ": 5703,
      "è¨ĺæĨ¶": 5704,
      "Ġì«ĵìķĦëĭ¤ëĭĮ": 5705,
      "ãģĭãĤĤ": 5706,
      "ãĤŃãĥ¼": 5707,
      "ãģ§ãĤĵ": 5708,
      "ĠìĤ¬ìļ©": 5709,
      "è¾º": 5710,
      "ĠíĶ¼ëħ¸": 5711,
      "500": 5712,
      "ãĤĴãģĹãģ¦": 5713,
      "éģħ": 5714,
      "Ġì«ĵìķĦëĤ¼": 5715,
      "Ġì«ĵìķĦëĤ´ëł¤ë©´": 5716,
      "ëŀĺìļĶ": 5717,
      "æĪĲçĤº": 5718,
      "ĠíĶĦëłĪìŀĦ": 5719,
      "ĠãģĪ": 5720,
      "ĠëĮĢíĻĶ": 5721,
      "åħĪè¼©": 5722,
      "ĠìĿĺë¯¸": 5723,
      "Ġë¨¹ìĿĦê±°": 5724,
      "ìłģìĿ´ìĹĪìĸ´": 5725,
      "Ġè¥¿": 5726,
      "Ġìĸ´ë¦¬ê³ł": 5727,
      "Ġì§ĢëĤĺ": 5728,
      "åĢ«": 5729,
      "å¤§æĺ¯": 5730,
      "Ġë¬´ëł¥ìĿ´": 5731,
      "ãĥĲãĤ¤": 5732,
      "ãĤ¸ãĥ¥": 5733,
      "ãĢįï¼Į": 5734,
      "ĠìĸĺëıĦ": 5735,
      "ãĥıãĤ¤": 5736,
      "íĶ¼ëĶĶ": 5737,
      "íĬ¼": 5738,
      "Ġì¤Ģë¹Ħíķĺëł¤ê³ł": 5739,
      "Ġíŀĺëĵ¤ìĹĪìĸ´": 5740,
      "æłªå¼ıä¼ļç¤¾": 5741,
      "Ġ0": 5742,
      "ìĭ±": 5743,
      "Ġë¯¿ìĸ´ë´Ĳ": 5744,
      "èĭ¥æĺ¯": 5745,
      "Ġë§Ĳíķ´ì¤ĺ": 5746,
      "ĠëĶ¸ìĿ´ëŀĳ": 5747,
      "um": 5748,
      "é²": 5749,
      "è²¡": 5750,
      "Ġì§Ģê¸ĪëıĦ": 5751,
      "ĠìķĬìķĺëĭ¤": 5752,
      "ì¡°ë¥¼": 5753,
      "Ġë§Įëĵ¤ìĸ´ì£¼": 5754,
      "ëĴ¨": 5755,
      "ĠìľĦíĹĺíķĺì§Ģ": 5756,
      "Ġë¦´ë¦¬ëŀĳ": 5757,
      "Ġìŀ¥ëĤľíķĺëĬĶê±°ì§Ģ": 5758,
      "Ġë¨¹ìĿĦê±°ëĿ¼ëĬĶ": 5759,
      "Ġë°Ģ": 5760,
      "ĠëıĪ": 5761,
      "ĠëĮĢíķľ": 5762,
      "æŀļ": 5763,
      "ä¸ĭãģķãģĦ": 5764,
      "ãĥıãĥĥ": 5765,
      "åĪ¥ãģ«": 5766,
      "ĠëĤ¨ìŀĲì¹ľêµ¬ëŀĳ": 5767,
      "å¿ł": 5768,
      "ĠíĥľìĽĮê°Ģë©´": 5769,
      "Ġìķ¡ìŀĲë¡ľ": 5770,
      "ãģĭãģŃ": 5771,
      "ëĭĪìķĦ": 5772,
      "åľº": 5773,
      "ĠìĭľìķłíĭĢ": 5774,
      "Ġëĭ¹ìĭłìĿĦ": 5775,
      "Ġëĵ¤ìĸ´ìļĶ": 5776,
      "Ġê°Ģì§Ģê³ł": 5777,
      "âĸł": 5778,
      "ut": 5779,
      "Ġë¶Ģíĥģ": 5780,
      "ãĤ¸ãĤ§": 5781,
      "Ġë¨¸": 5782,
      "è»įäºĭ": 5783,
      "ĠìĺĪë¯¼íķ´ìĦľìļĶ": 5784,
      "ãģĦãģ«": 5785,
      "ãģķãģ¨": 5786,
      "å¼±": 5787,
      "è©²": 5788,
      "çĴ°": 5789,
      "Ġãģĭãģ¿": 5790,
      "Ġìĭľê°ĦìĿ´": 5791,
      "ãģĬãģĺ": 5792,
      "ãģĪãģªãģĦ": 5793,
      "ë°ĸ": 5794,
      "ë¸Įë¦¬ìĹ": 5795,
      "YOU": 5796,
      "ä¸´": 5797,
      "ĠìĿ´ëģĮ": 5798,
      "ìŀ¥ìĿ´": 5799,
      "íĻĢíĬ¸": 5800,
      "æŀ¶": 5801,
      "è¢ĭ": 5802,
      "é¥Ń": 5803,
      "ãĢģãĢĮ": 5804,
      "Ġê²Ģ": 5805,
      "è²©": 5806,
      "ëªħìĿ´": 5807,
      "æŁĵ": 5808,
      "Ġë§Įëĵ¤ìĸ´ì£¼ëįĶëĿ¼ê³ł": 5809,
      "98": 5810,
      "ãģĹãģį": 5811,
      "ãĤıãĤī": 5812,
      "ãģ¿ãģªãģ¿": 5813,
      "ãĤ¯ãĥŃ": 5814,
      "Ġê³Ħìķ½": 5815,
      "ĠìĿ´ê¸°ìłģìĿ´ìĹĪìĸ´": 5816,
      "ë§¨": 5817,
      "ãģ¨ãģ«": 5818,
      "æ¥½ãģĹ": 5819,
      "Ġëĺĳê°Ļ": 5820,
      "ãģ¯ãģļ": 5821,
      "ĠìĹ¬ë¦Ħ": 5822,
      "Ġï¼Ħ": 5823,
      "ĠëĮĢíĨµëł¹ìĿ´": 5824,
      "ìĿ´ê°Ģ": 5825,
      "ãģĹãģ®": 5826,
      "ãģ¯ãģģ": 5827,
      "Ġì¤ĳìĿ´": 5828,
      "è®Ĭ": 5829,
      "AI": 5830,
      "Ġê±°ë¶Ģ": 5831,
      "æľīä¸Ģ": 5832,
      "ë¯¸ìĬ¤íĦ°": 5833,
      "ĠíĹĽ": 5834,
      "ĠìĤ¬ëŀĳíķĺëĬĶ": 5835,
      "ì§Ģë¥¼": 5836,
      "Ġê·¸ëŁ°ê²Į": 5837,
      "ĠìĿ´ë¦ĦìĿĦ": 5838,
      "ãģĹãģ¾ãģ£ãģŁ": 5839,
      "ĠãģĤãģį": 5840,
      "ILL": 5841,
      "íĸĪì§Ģ": 5842,
      "ê·¸ëĥ¥": 5843,
      "æĿ¥ãģ¦": 5844,
      "âĢĶâĢĶ": 5845,
      "çĥŃçº¿": 5846,
      "Ġì¡°ìĭ¬": 5847,
      "Ġëª»íĸĪëĭ¤": 5848,
      "ĠìķĦëĭĪìĹĲìļĶ": 5849,
      "ãĥĳãĥģ": 5850,
      "CT": 5851,
      "ãĤĦãĤģ": 5852,
      "è¨»": 5853,
      "ĠMY": 5854,
      "èªªæĺ¯": 5855,
      "78": 5856,
      "íĸĪìĬµëĭĪëĭ¤": 5857,
      "Ġëª»íķĺë©´": 5858,
      "éĪ´": 5859,
      "æĭħå½ĵ": 5860,
      "ãĤıãģ£": 5861,
      "æī±": 5862,
      "éłħ": 5863,
      "ĠSO": 5864,
      "æ¢¨": 5865,
      "ãĤĪãģĭãģ£ãģŁ": 5866,
      "ä¸ĢèĪ¬": 5867,
      "Ġìĺ¤ëĬĶ": 5868,
      "ç¨±": 5869,
      "æĽ²": 5870,
      "Ġê±¸ë¡ľ": 5871,
      "è´§": 5872,
      "ë¦¬ìĬ¤": 5873,
      "ĠìŀĪëĤĺ": 5874,
      "Ġë§ĲíĸĪëĭ¤": 5875,
      "Ġê°Ģê²Į": 5876,
      "ç§Ł": 5877,
      "å¾ħãģ£ãģ¦": 5878,
      "ĠëıĦëĳĳëĵ¤": 5879,
      "ĠWIT": 5880,
      "å°ĳå¹´": 5881,
      "åģ¥åº·": 5882,
      "WE": 5883,
      "ĠçĶµè¯Ŀ": 5884,
      "ãģ®äºº": 5885,
      "íķĺìĦ¸ìļĶ": 5886,
      "ĠìķĦëĶĽ": 5887,
      "å²³": 5888,
      "åĶĲ": 5889,
      "ä¸ĵä¸ļ": 5890,
      "34": 5891,
      "ìĢ": 5892,
      "ìĿĦê¹Į": 5893,
      "æĺ¨": 5894,
      "å®ħ": 5895,
      "ãĤ¸ãĥ§": 5896,
      "ãģªãģĤ": 5897,
      "ãģ©ãĤĵãģª": 5898,
      "èĪª": 5899,
      "ãģ¡ãĤĥãģ£ãģŁ": 5900,
      "ãĤĪãģ£": 5901,
      "éģķãģĨ": 5902,
      "Ġä¸ī": 5903,
      "ãģĻãģ£": 5904,
      "ĠëĤ´ê²Į": 5905,
      "Ġì§Ģìľ¼ë©´ìĦľ": 5906,
      "ĠìĤ¬ëŀĮìĿĦ": 5907,
      "Ġì£½ëĬĶ": 5908,
      "Ġì¢ĭìķĦìļĶ": 5909,
      "ëĦĮ": 5910,
      "æ¾¤": 5911,
      "é¬¼": 5912,
      "æķĹ": 5913,
      "ĠìķĬê³ł": 5914,
      "åĩ¦": 5915,
      "èīº": 5916,
      "çĥĪ": 5917,
      "ëĨĵ": 5918,
      "è¤ĩ": 5919,
      "âĺħ": 5920,
      "âĢ¦!": 5921,
      "ìĬ¤íħĮ": 5922,
      "ìĿ¸ìĿ´": 5923,
      "è¨³": 5924,
      "ĠíĽĦë³´": 5925,
      "éģİåİ»": 5926,
      "ãĤĮãģĦ": 5927,
      "æĢĴ": 5928,
      "éļĨ": 5929,
      "ãģĿãĤĮãģĮ": 5930,
      "ãģĤãĤĵãģª": 5931,
      "ãĥĲãĥ³": 5932,
      "ãģĵãĤĮãģĭãĤī": 5933,
      "ĠáĨŃì£¼ì§Ģ": 5934,
      "ãģ§ãģ®": 5935,
      "ë¡Ńê²Į": 5936,
      "Ġë¹¢": 5937,
      "çŁŃ": 5938,
      "ĠíĻķìĿ¸": 5939,
      "ãĥ¬ãĤ¸ãĥĥãĥĪ": 5940,
      "ĠëĥĦìĥĪë¥¼": 5941,
      "åĵ²": 5942,
      "Ġê±°ê¸°ìĦľ": 5943,
      "FF": 5944,
      "ëĵ¤ìĹĲ": 5945,
      "æĸ·": 5946,
      "å¸Ŀ": 5947,
      "Ġì§ĳìĹĲìĦľ": 5948,
      "Ġì¹¼": 5949,
      "éĺ³": 5950,
      "ĠìłĦíķ´ì£¼ìĭľìĺ¤": 5951,
      "ĠìłĦë¬¸ê°Ģ": 5952,
      "ve": 5953,
      "ãģ¯ãģª": 5954,
      "ãģĪãĥ¼": 5955,
      "åºĬ": 5956,
      "åĽŃ": 5957,
      "ãĤ¯ãĥ¬ãĤ¸ãĥĥãĥĪ": 5958,
      "è¡Įãģı": 5959,
      "Ġë¶Īì¾Į": 5960,
      "Ġì¶ķ": 5961,
      "éĢĻæĺ¯": 5962,
      "Ġëħ¼": 5963,
      "èĺŃ": 5964,
      "éĥ½æĺ¯": 5965,
      "éĨ«çķ¶": 5966,
      "05": 5967,
      "éĶĢ": 5968,
      "ãĥĮ": 5969,
      "æĸ¼æĺ¯": 5970,
      "ãĥĢãĤ¤": 5971,
      "ä¹Łæĺ¯": 5972,
      "ãģĤãĤĬãģ¾ãģĽãĤĵ": 5973,
      "ë¦¬ìĻĢ": 5974,
      "Ġê¸ģ": 5975,
      "éļľ": 5976,
      "ìĨįìĹĲ": 5977,
      "ë²ĪìĹĲ": 5978,
      "Ġê°ĲìĤ¬": 5979,
      "èĩ³æĸ¼": 5980,
      "ãģĮãģªãģĦ": 5981,
      "ëŁī": 5982,
      "Ġë§ĲíķĺëĬĶ": 5983,
      "è¿«": 5984,
      "æ´²": 5985,
      "ãģİãĤĩãģĨ": 5986,
      "åĺī": 5987,
      "ĠíĨµíķĺëĬĶ": 5988,
      "ation": 5989,
      "ãģıãĤīãģĦ": 5990,
      "ag": 5991,
      "Ġìª": 5992,
      "íķ¨": 5993,
      "íķĺê²ł": 5994,
      "ãģ¦ãģĦ": 5995,
      "Ġë¬´ëį¤": 5996,
      "ç¥ŀç¤¾": 5997,
      "Ġë¿ĲìĿ´ìĹĪëĭ¤": 5998,
      "all": 5999,
      "ìĬ¤ë¥¼": 6000,
      "Ġê²ĥìŀħëĭĪëĭ¤": 6001,
      "ĠíĻķë¥": 6002,
      "ãĥĸãĥ©": 6003,
      "ãģº": 6004,
      "ìĹĦ": 6005,
      "åĲĥ": 6006,
      "Ġíķľëĭ¤": 6007,
      "ĠìĿ´ìļ©": 6008,
      "åĳĤ": 6009,
      "çĬ¬": 6010,
      "éºĹ": 6011,
      "ãĥĻãĥ«": 6012,
      "Ġë¶Ħìķ¼": 6013,
      "é¾Ļ": 6014,
      "å°Ĩ": 6015,
      "åĭī": 6016,
      "ç¥Ĳ": 6017,
      "ç¥Ŀ": 6018,
      "ĠëĪĦêµ°": 6019,
      "æľŁéĸĵ": 6020,
      "XXXX": 6021,
      "ë¸Ķë¦°": 6022,
      "ĠæĿ±": 6023,
      "ë¦¬ì§Ģ": 6024,
      "ãģłãģ«": 6025,
      "æĹ¥ãģ®": 6026,
      "éĿĻ": 6027,
      "ìŁĮ": 6028,
      "ãģ¹ãģ¦": 6029,
      "ãĤ¹ãĤ¯": 6030,
      "ãĥ¼ãĥĦ": 6031,
      "ãĤ²ãĥ¼ãĥł": 6032,
      "ìĿ´ëĿ¼ê³ł": 6033,
      "ä¸Ģçķª": 6034,
      "íĻķ": 6035,
      "ĠíĥĦ": 6036,
      "è§¦": 6037,
      "ĠìĨĲìĿĦ": 6038,
      "åħ¨åĽ½": 6039,
      "ANT": 6040,
      "Ġëª¨ë¥´ê²łì§Ģë§Į": 6041,
      "Ġë©Ģë¦¬ê¹Įì§Ģ": 6042,
      "ê¸°ê°Ģ": 6043,
      "ãģ¡ãĤħãģĨ": 6044,
      "ëĳ¥": 6045,
      "æĻ´": 6046,
      "ç´¢": 6047,
      "ĠìĤ¼": 6048,
      "ĠìĽĥ": 6049,
      "èī¯ãģĦ": 6050,
      "ãģ¨æĢĿãģĨ": 6051,
      "Ġì»¤íĶ¼": 6052,
      "01": 6053,
      "ĠãĤĪãģĹ": 6054,
      "ãģĹãĤī": 6055,
      "ãģĹãģĴ": 6056,
      "ãģªãģ£ãģ¦": 6057,
      "íķĺëĭĪê¹Į": 6058,
      "ĠìķĦíĶĪ": 6059,
      "Ġì£½ìĿ¸": 6060,
      "Ġ30": 6061,
      "ĠìĹŃìĤ¬": 6062,
      "éĢĥãģĴ": 6063,
      "OK": 6064,
      "Ġä¸ĭ": 6065,
      "å¾Ģ": 6066,
      "ìķĺì£ł": 6067,
      "æĻĤæľŁ": 6068,
      "éĶħ": 6069,
      "ĠìĤ¬ëŀĮìĿĺ": 6070,
      "åĥķãģ¯": 6071,
      "Ġê±Ķ": 6072,
      "ãĦ´": 6073,
      "åĲĪãĤıãģĽ": 6074,
      "ìķ¡": 6075,
      "å®Ļ": 6076,
      "Ġìļ°ë¦¬ë¥¼": 6077,
      "Ġë§Īë¦¬ìķĪ": 6078,
      "æµ´": 6079,
      "Ġë¯¸ì³¤": 6080,
      "çıł": 6081,
      "Ġê·¸ëłĩì§Ģë§Į": 6082,
      "ä»Ĭãģ®": 6083,
      "ĠëĬ¦": 6084,
      "Ġin": 6085,
      "Ġë³´ë©´": 6086,
      "éĺª": 6087,
      "èĢĥãģĪ": 6088,
      "AST": 6089,
      "ë¥Ń": 6090,
      "ä¹ĭéĸĵ": 6091,
      "Ġì°¾ìĿĦ": 6092,
      "æĮģãģ£ãģ¦": 6093,
      "åį°åº¦": 6094,
      "ãģįãģ®": 6095,
      "ë§ĪìŀĲ": 6096,
      "å¼Ģ": 6097,
      "æ³£": 6098,
      "Ġëª¨ë¥´ì§Ģ": 6099,
      "åŃ¸çĶŁ": 6100,
      "ëŁ½ê²Į": 6101,
      "ĠãģŁãģĭ": 6102,
      "ĠíĳľíĺĦ": 6103,
      "ãģĵãģĦãģ¤": 6104,
      "èĢĲ": 6105,
      "æ¯Ĵ": 6106,
      "Ġì²«ì§¸": 6107,
      "ç¶ĵæ¿Ł": 6108,
      "å¥½ãģįãģª": 6109,
      "æĺŃåĴĮ": 6110,
      "īìŀ¥": 6111,
      "ë²Ħëł¤": 6112,
      "ì¹ĺê²Į": 6113,
      "ĠìĦĿíĥĦ": 6114,
      "ãģĨãĤī": 6115,
      "ãģ¯ãĤĵ": 6116,
      "æķ·": 6117,
      "Ġë¬´ìĸ¸": 6118,
      "ĠíĥĢê³ł": 6119,
      "ãģ®ãģł": 6120,
      "ãĤ¢ãĥĹãĥª": 6121,
      "å¼¥": 6122,
      "éłĨ": 6123,
      "ãģłãģĳãģ§": 6124,
      "èĲ½ãģ¡": 6125,
      "400": 6126,
      "ãģĬè²·": 6127,
      "ìŀĲëĬĶ": 6128,
      "æİĽ": 6129,
      "è«¸": 6130,
      "æŁĲ": 6131,
      "Ġëª¨ë¥´ëĬĶ": 6132,
      "éľĬ": 6133,
      "Ġë¦´ë¦¬ëĬĶ": 6134,
      "éĶģ": 6135,
      "ãģªãĥ¼": 6136,
      "å¸¯": 6137,
      "Ġìĸ´ë¨": 6138,
      "åī£": 6139,
      "Ġíķľë¬¼ê°Ķìĸ´ìļĶ": 6140,
      "åĨħå®¹": 6141,
      "æľĢåĪĿ": 6142,
      "ìļķ": 6143,
      "ãģ¿ãģª": 6144,
      "ì¹±": 6145,
      "Ġë¬¸ìĿĦ": 6146,
      "æĿ¥ãĤĭ": 6147,
      "ê°ĻìĿ´": 6148,
      "ĠìĹĲë¸Ķë¦°": 6149,
      "ĠìĿ´ë¦¬ë¡ľ": 6150,
      "ãģĬå®¢æ§ĺ": 6151,
      "ĠíķĺëĬĶì§Ģ": 6152,
      "åĨ¬": 6153,
      "åłĢ": 6154,
      "íıŃ": 6155,
      "å¿ľåĭŁ": 6156,
      "ãģĨãģĨ": 6157,
      "ãģĵãĤĵ": 6158,
      "æģ¥": 6159,
      "é»Ħ": 6160,
      "ĠSU": 6161,
      "è®¾": 6162,
      "Ġëħ¸ëıĻìŀĲ": 6163,
      "éĥ¨å±ĭ": 6164,
      "åįģäºĮ": 6165,
      "ê»ĺìĦľ": 6166,
      "04": 6167,
      "ãģ¯ãģŁ": 6168,
      "ĠìĿ¼íķł": 6169,
      "Ġì¤¬": 6170,
      "Ġë¶Īë²ķ": 6171,
      "ĠëĲĲìĸ´": 6172,
      "ãģ¾ãģķãģĭ": 6173,
      "Ġìĵ°ëłĪ": 6174,
      "ìĿ´ë¥¼": 6175,
      "æŃ³": 6176,
      "Ġêµ´": 6177,
      "è©³": 6178,
      "çĥ¤": 6179,
      "å¼ķãģį": 6180,
      "79": 6181,
      "é³´": 6182,
      "ãģĹãģªãģĦ": 6183,
      "ãĥĢãĥł": 6184,
      "Ġë©Ī": 6185,
      "Ġë©ĭ": 6186,
      "ä¿ºãģ¯": 6187,
      "Ġë²łëĦ¤ëĶķíĬ¸": 6188,
      "ĠíĻ©íĻĢ": 6189,
      "ĠëŁ¬": 6190,
      "Ġëİ": 6191,
      "ĠìĹĨìĹĪìĸ´": 6192,
      "ë³´ì§Ģ": 6193,
      "ĠìĥĿê¸°": 6194,
      "ãģĿãĤĮãģ«": 6195,
      "ĠìĽĲëŀĺ": 6196,
      "Ġìī¬": 6197,
      "Ġëµ": 6198,
      "ãĤĵãģ§ãģĻãģĭ": 6199,
      "Ġëĭ¤ê°Ģ": 6200,
      "åī¯": 6201,
      "åłħ": 6202,
      "ç²¾ç¥ŀ": 6203,
      "Ġë°ĶëĿ¼ëĦ¤": 6204,
      "OL": 6205,
      "ãģ¨ãģı": 6206,
      "ìķĺìĸ´ìļĶ": 6207,
      "å¼ģ": 6208,
      "æ²¼": 6209,
      "ĠìĨĮìĭĿ": 6210,
      "Ġì²ľ": 6211,
      "æ¡ľ": 6212,
      "çĪĨ": 6213,
      "éĩĳé¡į": 6214,
      "Ġì´ĿìĿĦ": 6215,
      "ĠìľĦëĮĢíķľ": 6216,
      "ĠãģĹãĤĩãģĨ": 6217,
      "Ġê³ģ": 6218,
      "âĢ¦âĢ¦âĢ¦âĢ¦": 6219,
      "ĠìķĦëĭĪëĿ¼ìļĶ": 6220,
      "ĠìĹ¬ë¦ĦëĤł": 6221,
      "ĠãģĽãģĦ": 6222,
      "ãģ¿ãģļ": 6223,
      "åº«": 6224,
      "åĢŁ": 6225,
      "ìŀħëĭĪê¹Į": 6226,
      "ãĤ¬ãĥĥ": 6227,
      "ANG": 6228,
      "åıĸå¼ķ": 6229,
      "Ġëª¨ë¥¸ëĭ¤": 6230,
      "08": 6231,
      "ãģĵãģı": 6232,
      "ãģ©ãĤĵ": 6233,
      "ĠìŀĪëĬĶëį°ìļĶ": 6234,
      "æ¨©": 6235,
      "ĠìĿ¼ìĸ´ìĦľ": 6236,
      "æīĭæľº": 6237,
      "ãĤ¦ãĤ§": 6238,
      "ç§ģãĤĤ": 6239,
      "ĠëªħìĿĺ": 6240,
      "ĠíĿĶëĵľëĦ¤": 6241,
      "Ġì¶ľìŀħë¬¸": 6242,
      "Ġëĭ¬ë¹ĽìĿĢ": 6243,
      "ãģ§ãģĹãĤĩãģĨ": 6244,
      "ãĤīãģĹãģĦ": 6245,
      "ë¹Ħë¥¼": 6246,
      "ĠíĮĶ": 6247,
      "ore": 6248,
      "ãģĳãĤĮãģ°": 6249,
      "Ġíķĺë©´": 6250,
      "ãģĻãĤĭãģ¨": 6251,
      "ãĤ´ãĥ«ãĥķ": 6252,
      "ãģĵãĤĮãģ§": 6253,
      "ĠìĿ¸ìłķ": 6254,
      "ãģĵãģĵãģ«": 6255,
      "ĠìļĶì²Ń": 6256,
      "Ġãģªãģĭ": 6257,
      "ê±°ê³ł": 6258,
      "ãĤ·ãĥ¼": 6259,
      "æĪĳåľ¨": 6260,
      "íĮĲ": 6261,
      "Ġë¥ĺìĿ´ì¿ł": 6262,
      "??": 6263,
      "ORE": 6264,
      "op": 6265,
      "ìĸ´ì§Ģ": 6266,
      "ĠìĤ¬ëĬĶ": 6267,
      "å¤§å®¶": 6268,
      "Ġê°Ļì§Ģ": 6269,
      "ãĥĲãĤ¹": 6270,
      "ĠëŃĲìķ¼": 6271,
      "ĠìķĮìķĦë³´": 6272,
      "ĠãģĹãĤĵ": 6273,
      "Ġê°Ĳìĺ¥": 6274,
      "ĠëĤĺìģľ": 6275,
      "ãģĦãģ£ãģ¦": 6276,
      "ĠëĤ´ëł¤": 6277,
      "ĠìķĪëĲľ": 6278,
      "ê·¸ëŁ¼": 6279,
      "ĠëıĦì°©": 6280,
      "éĿł": 6281,
      "ĠìĥĿê°ģíķĺëĬĶê±´": 6282,
      "å³ł": 6283,
      "ct": 6284,
      "ãģĹãģ£": 6285,
      "éģĩ": 6286,
      "äººãģ«": 6287,
      "ãĤģãģĦ": 6288,
      "çľł": 6289,
      "ë¶Ģë¶Ħ": 6290,
      "æĺĮ": 6291,
      "ìŀĲë§ĪìŀĲ": 6292,
      "ìĨĲ": 6293,
      "æķ¬": 6294,
      "æĢĸ": 6295,
      "æİĴ": 6296,
      "ìĿ´ëĿ¼ëıĦ": 6297,
      "ì±¤": 6298,
      "Ġë¬´ìĸ¸ê°Ģ": 6299,
      "ãģķãģı": 6300,
      "ë¶Ī": 6301,
      "ëĮĢìĹĲ": 6302,
      "ãĤ¯ãĥ©": 6303,
      "Ġìĭ¶ìĿĢ": 6304,
      "ãĥļãĥ¼ãĤ¸": 6305,
      "Ġìŀ¬ëĬ¥": 6306,
      "ĠãĤ«": 6307,
      "æĻĤãģ«": 6308,
      "ìłķìĿĦ": 6309,
      "ĠìĽĶ": 6310,
      "åĬĽãĤĴ": 6311,
      "ĠíĮĮíĭ°": 6312,
      "ĠíĻ©íĻĢíķľ": 6313,
      "hi": 6314,
      "Ġé«ĺ": 6315,
      "åįĸ": 6316,
      "åĬĥ": 6317,
      "ĠìłĢíĿ¬": 6318,
      "ĠCAN": 6319,
      "ĠëĪĦêµ¬íķľíħĮ": 6320,
      "ĠìĲ": 6321,
      "å¤į": 6322,
      "ãģĺãĤģ": 6323,
      "Ġì°©": 6324,
      "èĮĤ": 6325,
      "ãĤ¨ãĥ«": 6326,
      "Ġãĥŀ": 6327,
      "ĠìĿ´ë´Ĳ": 6328,
      "å¤ķ": 6329,
      "ãĤĮãĤĵ": 6330,
      "æŁ³": 6331,
      "å¤ĸäº¤": 6332,
      "ĠìĹ´ìĩł": 6333,
      "Ġëĩ": 6334,
      "âĢ¦!?": 6335,
      "åĩ¡": 6336,
      "ä½ķãĤĴ": 6337,
      "äº¤éĢļ": 6338,
      "ç¨²": 6339,
      "ãĤ®ãĥ¥": 6340,
      "Ġê¿Ī": 6341,
      "ĠìĻľëĥĲíķĺ": 6342,
      "ãĥģãĥ¥": 6343,
      "æ··": 6344,
      "Ġëª¨ë¥´ê²łìĸ´": 6345,
      "íĶĮ": 6346,
      "ĠìĹĨìĹĪ": 6347,
      "ãĥĪãĥª": 6348,
      "Ġì²¬": 6349,
      "ç¶Ń": 6350,
      "ãģµãģı": 6351,
      "ç¹ģ": 6352,
      "ĠíĮĲ": 6353,
      "Ġì«ĵìķĦëĭ¤ëĭĮê²ĥëıĦ": 6354,
      "ãģĦãĤĪ": 6355,
      "Ġìĺ¹": 6356,
      "å¦¹": 6357,
      "æĵį": 6358,
      "íĳ¸": 6359,
      "ãĤ¶ãĥ¯": 6360,
      "æ¯ıä¸Ģ": 6361,
      "é²ľ": 6362,
      "ãĢįãĢĤ": 6363,
      "ãĤ¬ãĥ³": 6364,
      "ĠìĪł": 6365,
      "ëĲĲìĸ´": 6366,
      "ãģ§ãģįãģªãģĦ": 6367,
      "ĠëĤļìĭ¯ëĮĢë¥¼": 6368,
      "ĠëĤ¡": 6369,
      "ãĤĵãģĺãĤĥãģªãģĦ": 6370,
      "ìĻľ": 6371,
      "ç´¹": 6372,
      "ĠíħĮìĿ´íĶĦìĹĲ": 6373,
      "ãģªãģįãĤĥ": 6374,
      "ë§ĲìĿ´": 6375,
      "Ġëª¸": 6376,
      "ãĥ¼ãĥĭ": 6377,
      "íĦ°ê°Ģ": 6378,
      "ĠìŀĪìĸ´ìĦľ": 6379,
      "ì¸ł": 6380,
      "æĺ¯ä¸ĢåĢĭ": 6381,
      "çµ¶å¯¾": 6382,
      "32": 6383,
      "ãģªãģľ": 6384,
      "ãĤ¤ãĥī": 6385,
      "å®īåħ¨": 6386,
      "ĠìĿ´ê²Į": 6387,
      "Ġê¸°ë»Ĳ": 6388,
      "ĠìĤ´ìĿ¸": 6389,
      "åĹİ": 6390,
      "æī¿èªį": 6391,
      "IE": 6392,
      "IG": 6393,
      "Ġìļ°ëĿ¼ì§Ī": 6394,
      "ìĺ¤ëĬĶ": 6395,
      "å±¤": 6396,
      "ãĤ¢ãĥĭ": 6397,
      "ãĤ·ãĥ¼ãĥĪ": 6398,
      "ĠëĮĢê°ľ": 6399,
      "ãĤ¬ãĥ©": 6400,
      "Ġìĥģì²ĺ": 6401,
      "è®¢": 6402,
      "Ġìĭ¤ì¢ħëĲľ": 6403,
      "ĠìķĦëĤ´ê°Ģ": 6404,
      "èĥ¸": 6405,
      "ãĤµãĥĥ": 6406,
      "ĠëłĪ": 6407,
      "æĺ¯åľ¨": 6408,
      "è½ī": 6409,
      "Ġìĵ¸": 6410,
      "âĢ¥": 6411,
      "ìķ¼ì§Ģ": 6412,
      "è¿·": 6413,
      "Ġê°ľìĿĺ": 6414,
      "ãģİãĤħ": 6415,
      "ãģĲãģ¡": 6416,
      "ĠWITH": 6417,
      "ĵãĤ¹": 6418,
      "ãģĤãģĦãģ¤": 6419,
      "Ġì¤ĳìĹĲ": 6420,
      "çŃĭ": 6421,
      "èĤĮ": 6422,
      "ĠëªħìĿ´": 6423,
      "æ°ĳåľĭ": 6424,
      "ĠìĹ°ëĿ½": 6425,
      "Ġê³³ìĿ´": 6426,
      "ĠëĹ": 6427,
      "ì§ĩ": 6428,
      "ĠìĹĨìŀĸìķĦ": 6429,
      "Ġì²ł": 6430,
      "ãģ¡ãĤĥãģĨ": 6431,
      "æ»Ŀ": 6432,
      "ä»ĺãģį": 6433,
      "è¾¼ãģ¿": 6434,
      "ãģĬãĤĮ": 6435,
      "ìłľê°Ģ": 6436,
      "é¡§": 6437,
      "ãģĦãģŁãģĦ": 6438,
      "æ¤į": 6439,
      "ê¸ĭ": 6440,
      "ãĤīãģ®": 6441,
      "åīµ": 6442,
      "Ġë°ĶëĢ": 6443,
      "ãĤĵãģłãģĭãĤī": 6444,
      "èĤ¥": 6445,
      "æĸ¹ãģĮ": 6446,
      "èĢħãģ®": 6447,
      "ä¼ļåĵ¡": 6448,
      "æĦıåĳ³": 6449,
      "ç¬¬ä¸ī": 6450,
      "ê°Ŀ": 6451,
      "æłĹ": 6452,
      "ĠìĿ´ë¦Ħë§Įíģ¼": 6453,
      "ĠëĶ°ëĿ¼": 6454,
      "Ġãģ»": 6455,
      "ì§Ģê¸Ī": 6456,
      "ãģĻãģĮ": 6457,
      "èªł": 6458,
      "ìĸī": 6459,
      "ìĿ´ìĹĪëĭ¤": 6460,
      "ĠìĺģìĽĲ": 6461,
      "æį·": 6462,
      "Ġê³ĦíļįìĿ´": 6463,
      "ĠíĪ": 6464,
      "ãĥıãĤ¢": 6465,
      "ãģĿãĤĮãģ§": 6466,
      "ãģ¼ãģı": 6467,
      "ë¡ĢìĭĿ": 6468,
      "éľ²": 6469,
      "ĠêµĲëıĦìĨĮë¥¼": 6470,
      "ç»´ä¿®": 6471,
      "Ġìĺ¹íĺ¸": 6472,
      "ãģ¯ãĤĦ": 6473,
      "ëįĺëį°": 6474,
      "ë¸ĲìĿ´": 6475,
      "Ġì¤ĺìķ¼íķ´ìĦľ": 6476,
      "ãģŁãģ®": 6477,
      "åįł": 6478,
      "ãĥ¼ãĥĲ": 6479,
      "Ġë¹ļ": 6480,
      "Ġê·¸ëŁ¬ëĭ¤": 6481,
      "çī¹åĪ¥": 6482,
      "ç¦ģæŃ¢": 6483,
      "ãĤĤãģ¡ãĤįãĤĵ": 6484,
      "Ġì§ľìķ¼": 6485,
      "ëĬĶê²Į": 6486,
      "ìĹĲê²Ĳ": 6487,
      "çĽ£": 6488,
      "åİĤ": 6489,
      "Ġì£½ìĹ¬": 6490,
      "èĬ³": 6491,
      "æ¿Ģ": 6492,
      "ê°Ĳíķľ": 6493,
      "ìĿĳ": 6494,
      "ìĹĩ": 6495,
      "ãģ¨ãģ£ãģ¦": 6496,
      "ãģ¨ãģªãĤĬ": 6497,
      "ãģĮãģ£ãģ¦": 6498,
      "ãģıãģªãģĦ": 6499,
      "ãģįãģ£ãģ¨": 6500,
      "ãĤĴãģ¤": 6501,
      "Ġê°Ģë¸Įë¦¬ìĹ": 6502,
      "ĠìĹĨìĿ´ëĬĶ": 6503,
      "ĠìķĪê·¸ëŀĺ": 6504,
      "å¯Ĵ": 6505,
      "çµ¡": 6506,
      "ìłĦìĿĦ": 6507,
      "çĬ¯": 6508,
      "èİī": 6509,
      "ãģªãģ®ãģĭ": 6510,
      "åĲ«": 6511,
      "çĶŁãģį": 6512,
      "æİ§": 6513,
      "OULD": 6514,
      "ãģ«ãĤĪãģ£ãģ¦": 6515,
      "ĠìĥĿê¸°ë©´": 6516,
      "åĳĺ": 6517,
      "Ġíķľê±°ìķ¼": 6518,
      "íĦ¸": 6519,
      "æİ¡": 6520,
      "ë§īìĿ¸ëį°": 6521,
      "Ġë¹ĦìĽĥ": 6522,
      "åĦĢ": 6523,
      "ä½ľåĵģ": 6524,
      "é¼»": 6525,
      "åĪĿãĤģãģ¦": 6526,
      "Ġìĺģíĺ¼ìĿĦ": 6527,
      "RO": 6528,
      "ìĬ¤íĶ¼ëĶĶ": 6529,
      "ìŀĲë¥¼": 6530,
      "é£¾": 6531,
      "é¶´": 6532,
      "ĠìŀĲìľłë¡Ńê²Į": 6533,
      "èĢĥãģĪãģ¦": 6534,
      "ĠëĨĢëĿ¼ìĽĮ": 6535,
      "ãĤµãĥ¼ãĥĵãĤ¹": 6536,
      "Ġë¬´ìĦľìĽĮë³´": 6537,
      "76": 6538,
      "âĢľ": 6539,
      "ëªĮ": 6540,
      "ĠíĽµ": 6541,
      "ãĥĸãĥŃ": 6542,
      "æĲį": 6543,
      "ãĤ±ãĥĥãĥĪ": 6544,
      "ĠìĻĢìĦľ": 6545,
      "Ġìŀ¥ë¡ĢìĭĿ": 6546,
      "å·²ç¶ĵ": 6547,
      "ĠVCR": 6548,
      "ĠìĿ´ëĿ¼": 6549,
      "å»¶": 6550,
      "ä½ķãĤĤ": 6551,
      "æľªæĺ¯": 6552,
      "èĻ«": 6553,
      "Ġìĵ°ëłĪê¸°": 6554,
      "ĠëĤĺëĪ": 6555,
      "íĸĪêµ°": 6556,
      "å°Ħ": 6557,
      "ä¸Ģå®ļ": 6558,
      "ãģĹãģŁãģĦ": 6559,
      "ĠARE": 6560,
      "çĸĨ": 6561,
      "æĬĹæĪ°": 6562,
      "Ġç¾İ": 6563,
      "ãģħ": 6564,
      "ãĤĬãĤĵ": 6565,
      "åºķ": 6566,
      "æľīçļĦ": 6567,
      "å¡Ķ": 6568,
      "éĸĭå§ĭ": 6569,
      "è¡¨ç¤º": 6570,
      "ëŃĲ": 6571,
      "ãģĺãĤħãĤĵ": 6572,
      "íķĺëŀĢ": 6573,
      "èªĺ": 6574,
      "ç§ĺ": 6575,
      "è©ŀ": 6576,
      "ìĹħìĹĲ": 6577,
      "Ġìŀ¡ìķĦ": 6578,
      "ãģĤãģ¤": 6579,
      "ê±°ëĿ¼ê³ł": 6580,
      "ë¹Ī": 6581,
      "ãĥ¬ãĤ¤": 6582,
      "ç¥ĸ": 6583,
      "ĠìĥĿê°ģëĲĺ": 6584,
      "ãģļãģ¿": 6585,
      "Ġì¢ĭìķĦíķłê±°ìķ¼": 6586,
      "æ°ĳä¸»": 6587,
      "å¥³æĢ§": 6588,
      "ì´Į": 6589,
      "ìļ¯": 6590,
      "ãģįãģ¾ãģĻ": 6591,
      "Ġê°ĢëĤĺ": 6592,
      "Ġëĵ±": 6593,
      "å½¦": 6594,
      "æµ®": 6595,
      "åĩºãģĻ": 6596,
      "Ġê¸°ëĭ¤ëł¤ìļĶ": 6597,
      "Ġìĺ¤ëŀĺëĲľ": 6598,
      "ëĬĶëĭ¤ëĬĶ": 6599,
      "ìĥģìĿ´": 6600,
      "éĤª": 6601,
      "Ġëĵ¤ìĸ´ê°ĢìĦľ": 6602,
      "åĨħæ¶Īè²»ç¨İçŃī": 6603,
      "ãģ§ãģ¯ãģªãģĦ": 6604,
      "Ġê½¤": 6605,
      "Ġë¹ĦëĶĶìĺ¤ë¥¼": 6606,
      "æķµåħ¥": 6607,
      "%)": 6608,
      "ëĵĿ": 6609,
      "äºĳ": 6610,
      "ä»·": 6611,
      "ãģĺãĤįãģĨ": 6612,
      "ë¶Ģë¡ľ": 6613,
      "ãĤ³ãĥ¬": 6614,
      "ç¢ĳ": 6615,
      "íķľëĭ¤êµ¬": 6616,
      "æļĸ": 6617,
      "çĮ«": 6618,
      "ê´ĳ": 6619,
      "ĠìĿ¸ê°Ħ": 6620,
      "å®Įåħ¨": 6621,
      "ĠíĽĮë¥Ń": 6622,
      "ĠëģĬìĹĪ": 6623,
      "ĠíĳľíĺĦìĿ´": 6624,
      "ëĭ¾": 6625,
      "ãģķãģĤ": 6626,
      "ë¶ģ": 6627,
      "ĠìķĮëł¤": 6628,
      "Ġëĭ¤ëĵ¤": 6629,
      "åĬŀ": 6630,
      "åĴ²": 6631,
      "åħīä¸´": 6632,
      "ĠìĿ¸ìĥĿ": 6633,
      "ëŃĶê°Ģ": 6634,
      "ãģĭãĤıãģĦãģĦ": 6635,
      "Ġê²°ìłķíķľ": 6636,
      "íķĺëĭ¤êµ¬": 6637,
      "ĠìķĪëĲľëĭ¤ëĬĶ": 6638,
      "300": 6639,
      "th": 6640,
      "Ġë§Ĳìķ¼": 6641,
      "ä¸Ģç¨®": 6642,
      "ĠìĿ¼ëłĪ": 6643,
      "ãĤŃãĥĥ": 6644,
      "ëĤ´ì¡Įëĭ¤": 6645,
      "åģī": 6646,
      "Ġëĵ¤ìĸ´ê°Ķëĭ¤": 6647,
      "ĠCH": 6648,
      "Ġê·¸ëĤłë°¤": 6649,
      "ĠìŀĲëĦ¤ëĵ¤": 6650,
      "Ġê¼¬ìĭľëįĺ": 6651,
      "ĠãĤĪ": 6652,
      "ëĵ¯": 6653,
      "ĠìķĦëĭ": 6654,
      "çĶļ": 6655,
      "ãģ¤ãģ®": 6656,
      "èħ¹": 6657,
      "ATION": 6658,
      "Ġê³ĦíļįìĿ´ìĹĪ": 6659,
      "íķĺëĤĺ": 6660,
      "ãģĭãģĳ": 6661,
      "Ġê¸´": 6662,
      "å¼ĺ": 6663,
      "ĠìĤł": 6664,
      "ãĥīãĥĥ": 6665,
      "ãģĸãĤĵ": 6666,
      "åŃĺåľ¨": 6667,
      "ë²łëĦ¤ëĶķíĬ¸": 6668,
      "ãģŁãģ¾": 6669,
      "ãģĮãģĤ": 6670,
      "åħĭ": 6671,
      "ãĢĤï¼Ī": 6672,
      "åĪ·": 6673,
      "ĠìķĬìķĦìļĶ": 6674,
      "çī§": 6675,
      "ĠTR": 6676,
      "ë³ĳ": 6677,
      "ãĥ¡ãĥ³": 6678,
      "Ġë¯¼ê°Ĳíķľ": 6679,
      "Ġë°Ľìķĺê±°ëĵł": 6680,
      "Ġë¶Ģë¥´ê¸¸": 6681,
      "IP": 6682,
      "ĠìŀĪëĭ¤ëĬĶ": 6683,
      "ãģĮãģ¿": 6684,
      "äº®": 6685,
      "ìĹĪëĬĶëį°": 6686,
      "ĠìĺĽ": 6687,
      "ç·Ĭ": 6688,
      "ë¦°ëĭ¤êµ¬": 6689,
      "ĠìłĦë¬¸ê°Ģìķ¼": 6690,
      "07": 6691,
      "ê±°ìĿ¸ëĥ¥": 6692,
      "ìĭľëĬĶ": 6693,
      "éĻ°": 6694,
      "è©©": 6695,
      "åİļ": 6696,
      "ĠìĥĿê°ģíĸĪ": 6697,
      "Ġì¤ĳìĹĲìĦľ": 6698,
      "ĠìķĮìķĺê±°ëĵł": 6699,
      "ĠëĪĦêµ¬ê±°ìĿ¸ëĥ¥": 6700,
      "èģŀãģĦãģ¦": 6701,
      "åıªæĺ¯": 6702,
      "Ġë§İìĿ´íĸĪêµ°": 6703,
      "Ġë¶ĪëłĢìĹĪì§Ģ": 6704,
      "çĶ¦ä¿Ħ": 6705,
      "Ġëªħì¹Ńìľ¼ë¡ľ": 6706,
      "ĠëıĻìĿĺíĸĪëįĺ": 6707,
      "Ġê³¤ëŀĢíķĺëĭ¤êµ¬": 6708,
      "Ġê³Ħìķ½íķľëĭ¤êµ¬": 6709,
      "Ġë§ĲíĸĪëĭ¤ë©°": 6710,
      "Ġì£½ëĬĶì¤Ħ": 6711,
      "ĠìĥĿê°ģëĲĺê±°ëĵł": 6712,
      "ĠìĿ¼ëłĪë¸ĲìĿ´": 6713,
      "Ġê³ĦíļįìĿ´ìĹĪìľ¼ëĭĪê¹Į": 6714,
      "ãģĬéĩ£": 6715,
      "åľĸ": 6716,
      "å¥®": 6717,
      "å¦Ļ": 6718,
      "åŃ¦çĶŁ": 6719,
      "Ġê·¸ëĤłìĹĲ": 6720,
      "Ġë¶ĪëłĢëĭ¤ê³ł": 6721,
      "å¹¿å·ŀ": 6722,
      "IKE": 6723,
      "ìłľíķĺëŀĢ": 6724,
      "ëŀĺìĦľ": 6725,
      "ç©´": 6726,
      "138": 6727,
      "çŁ¥ãĤī": 6728,
      "å¯¦é©Ĺ": 6729,
      "ĠìľĦíĹĺíķĺëĭĪê¹Į": 6730,
      "æ°ĳæĹıæĺ¯": 6731,
      "ãģªãģ£": 6732,
      "ãĥ¼ãĥķ": 6733,
      "çķĳ": 6734,
      "æĢĿæĥ³": 6735,
      "ĠìķĦì§ģëıĦ": 6736,
      "é¸¡": 6737,
      "Ġë§ĲìĿ´ì§Ģ": 6738,
      "ãģĻãģĶãģĦ": 6739,
      "Ġê°ĲìłķìłģìĿ´ìĹĪ": 6740,
      "ë§ı": 6741,
      "ãĤĩãģı": 6742,
      "ĠëķĮëıĦ": 6743,
      "ë¬´ìĽĲ": 6744,
      "ê³Ħê°Ģ": 6745,
      "éįĬ": 6746,
      "Ġìĵ´": 6747,
      "ìİĺ": 6748,
      "ĠëĮĢëĭĪëĬĶ": 6749,
      "Â©": 6750,
      "âĿ": 6751,
      "ìĬ¹": 6752,
      "æĿİ": 6753,
      "æķĳ": 6754,
      "ìĤ¬ê°Ģ": 6755,
      "ìłĢìĶ¨": 6756,
      "å¿ĥçĲĨ": 6757,
      "Ġìĸ´ë¨¸ëĭĪ": 6758,
      "ãģªãģĹ": 6759,
      "êµħ": 6760,
      "ĠìķĮìķĦìļĶ": 6761,
      "ĠìķĬìķĺìĸ´": 6762,
      "æĴ®": 6763,
      "æĿ±äº¬éĥ½": 6764,
      "ĠëģĬìĹĪìĹĪì§Ģ": 6765,
      "Ġê²°ìłķíķľê±°ìķ¼": 6766,
      "CO": 6767,
      "Ġæĸ°": 6768,
      "ãģĬãĤģ": 6769,
      "ãĤĦãģ£ãģŁ": 6770,
      "ìĥģíķľ": 6771,
      "åŃĹçļĦ": 6772,
      "Ġë°©ìĭĿ": 6773,
      "ĠìĤ¶ìĿĺ": 6774,
      "ãĤ»ãĥ³ãĤ¿ãĥ¼": 6775,
      "ĠíĻĺìĺģìĿĦ": 6776,
      "ìĦ¬": 6777,
      "ĠìĿĢ": 6778,
      "ãģ«ãĤĥ": 6779,
      "æ²ī": 6780,
      "è¾Ľ": 6781,
      "Ġìĺģìĥģ": 6782,
      "ĠìķĦë²Ħì§Ģ": 6783,
      "åıĭéģĶ": 6784,
      "ìĬĨ": 6785,
      "ãĥīãĥ³": 6786,
      "ç©Ĥ": 6787,
      "Ġê·¸ëŁ¬ë©´": 6788,
      "åĶ¯": 6789,
      "ĠìĹĦì²ŃëĤľ": 6790,
      "Ġis": 6791,
      "ĠìķĦë¦Ħ": 6792,
      "Ġê±°ì§Ģ": 6793,
      "ãģ©ãģį": 6794,
      "ë¶Ĺ": 6795,
      "Ġê¸Ģ": 6796,
      "éĽĳ": 6797,
      "ĠíĥĲ": 6798,
      "æħ¢": 6799,
      "ãĤ¦ãĤ¦": 6800,
      "Ġê·¸ëŁ¬ëĤĺ": 6801,
      "Ġìĭ¶ìĸ´ìļĶ": 6802,
      "Ġë§ĲíĸĪìĿĦì§ĢëıĦ": 6803,
      "ĠYOUR": 6804,
      "ĠëĤ¨ê²¼ì§Ģ": 6805,
      "ill": 6806,
      "éģ©çĶ¨": 6807,
      "93": 6808,
      "¨ê³¼": 6809,
      "íķĺìĹ¬": 6810,
      "ãģ£ãģ½": 6811,
      "ãģłãĤģ": 6812,
      "ê±°ìļĶ": 6813,
      "Ġìĸ´ë¦°": 6814,
      "ãĥ¼ãĥĩ": 6815,
      "ĠìłĢì§Ģ": 6816,
      "ãģ²ãĤī": 6817,
      "ĠìĥĿê°ģíķĺì§Ģ": 6818,
      "ä¾µ": 6819,
      "Ġë¬¼ê±´": 6820,
      "ç½ª": 6821,
      "ëĦ¬": 6822,
      "ĠìĹĲê·¸": 6823,
      "ĠìĦłìĥĿëĭĺ": 6824,
      "Ġë§ĳ": 6825,
      "ìŀĲìļĶ": 6826,
      "ĠíķĺëįĶêµ°ìļĶ": 6827,
      "æ·»": 6828,
      "çĶ¨åĵģ": 6829,
      "çĦ¡çĲĨ": 6830,
      "èĦ±": 6831,
      "Ġì°¨ì§Ģ": 6832,
      "ĠíĨµíķ´": 6833,
      "Ġãģ«ãģĹ": 6834,
      "Ġëª»ëĲľ": 6835,
      "ãĤ¦ãĤ£": 6836,
      "è¾£": 6837,
      "éĮĦ": 6838,
      "ĠëĲĲìľ¼ëĭĪ": 6839,
      "è¡¨çı¾": 6840,
      "å½±éŁ¿": 6841,
      "ãĥ¼ãĥĨãĤ£": 6842,
      "ãĥ¼ãĤ·ãĥ§ãĥ³": 6843,
      "ãģłãģŃ": 6844,
      "å¹¹": 6845,
      "å¹ħ": 6846,
      "ĠëĲłê¹Į": 6847,
      "ë´£": 6848,
      "ĠNE": 6849,
      "ĠãĤ¹": 6850,
      "Ġê°ļ": 6851,
      "ãģ¨ãĤĵ": 6852,
      "å¹ķ": 6853,
      "æĥĳ": 6854,
      "INE": 6855,
      "ONG": 6856,
      "ãģ¸ãģĦ": 6857,
      "Ġê°Ģìł¸ìĻĢ": 6858,
      "ãĥĳãĥĥ": 6859,
      "Ġë¯¸êµŃìĿĢ": 6860,
      "ëĮ¸": 6861,
      "Ġì¹´ìļ´": 6862,
      "ãģ£ãģ±ãģĦ": 6863,
      "ĠìĤ¬ëĿ¼ì§Ħ": 6864,
      "06": 6865,
      "ĠìĹ¬ìłĦíŀĪ": 6866,
      "ĠìŀĲë¥¸": 6867,
      "èª¤": 6868,
      "ãĥ¼ãĥģ": 6869,
      "æ¨¡": 6870,
      "è¨Ģèĳī": 6871,
      "çµĲå©ļ": 6872,
      "Ġãģ²ãĤį": 6873,
      "ä¸Ģåº¦": 6874,
      "ãģ©ãģ®": 6875,
      "Ġë¬´ìĤ¬": 6876,
      "å£ģ": 6877,
      "ãģĵãĤĮãģĮ": 6878,
      "ĠNOT": 6879,
      "ãģĤãģĴãĤĭ": 6880,
      "WHAT": 6881,
      "ãģ£ãģıãĤĬ": 6882,
      "ä¼¸": 6883,
      "ĠìħĪìĿ´": 6884,
      "Ġë¿ĲìĿ´ì£ł": 6885,
      "âĿ¤": 6886,
      "ëŀµ": 6887,
      "å°Ĭ": 6888,
      "Ġì§ĳìĤ¬ëŀĮ": 6889,
      "è±ª": 6890,
      "ãĥįãĥĥãĥĪ": 6891,
      "ë¦¬ëĭ¤": 6892,
      "ãģ¯ãģ¾": 6893,
      "åħĲ": 6894,
      "ìĭľê³ł": 6895,
      "ãĤ¯ãĥĪ": 6896,
      "ëŀĮìĿ´": 6897,
      "íĺ¹": 6898,
      "ä»¥çĤº": 6899,
      "ãģµãģ¿": 6900,
      "è¼ķ": 6901,
      "è¨Ģãģ£ãģŁ": 6902,
      "åħ¬å¼ı": 6903,
      "å¯¾è±¡é¡į": 6904,
      "ä¸²": 6905,
      "ãģĮãĤĬ": 6906,
      "ĠìĭŃ": 6907,
      "å°¼": 6908,
      "ãĤ¢ãĥª": 6909,
      "Ġê²ĥê³¼": 6910,
      "åĥį": 6911,
      "ìĹ¬ê¸°": 6912,
      "ãģ¨ãģĨãģĴ": 6913,
      "ĠíĬ¸ëŁ¼íĶĦëĬĶ": 6914,
      "Ġë¨¹ìĸ´": 6915,
      "********": 6916,
      "æĿī": 6917,
      "ãĥ¼ãĥĳ": 6918,
      "ĠëĦĪë¥¼": 6919,
      "ĠìĬ¤íĨ¤": 6920,
      "ĠìķĦëĭĪê²łì§Ģ": 6921,
      "è¼Ŀ": 6922,
      "ï¼īï¼Į": 6923,
      "Ġme": 6924,
      "èĬ¸": 6925,
      "Ġë§Ľ": 6926,
      "å®ı": 6927,
      "æ¸¬": 6928,
      "ãĥķãĥķ": 6929,
      "æ¬¾": 6930,
      "æıļ": 6931,
      "ĠíĬ¸ëŁ¼íĶĦë¥¼": 6932,
      "Ġä¸Ģ": 6933,
      "ä¸¹": 6934,
      "ëĿĪ": 6935,
      "å¥ĳ": 6936,
      "çİĸ": 6937,
      "ãģļãģĭ": 6938,
      "ãĥŀãĤ¸": 6939,
      "åľ°åĿĢ": 6940,
      "åŃ¸éĻ¢": 6941,
      "ãĤ¨ãĥ³": 6942,
      "art": 6943,
      "ĠHAVE": 6944,
      "Ġe": 6945,
      "ìľ¡": 6946,
      "ãĤ«ãĥ©": 6947,
      "ĠìĤ¬ëŀĮëĵ¤ìĿĦ": 6948,
      "Ġìłķì§ģ": 6949,
      "ãģĵãģ¨ãģ§": 6950,
      "ç¸¾": 6951,
      "çĮ¿": 6952,
      "å®ŁéļĽ": 6953,
      "æĻ®éĢļ": 6954,
      "ĠìĿ´íĽĦ": 6955,
      "ãĤ¤ãĤ¹": 6956,
      "Ġì£½ìĿ´": 6957,
      "ãĤ´ãĥŃ": 6958,
      "ĠìĹ°ê¸°": 6959,
      "Ġì£½ìĿ¸ëĭ¤ëĬĶ": 6960,
      "Ġì¹´ìļ´íĭ°": 6961,
      "51": 6962,
      "íį": 6963,
      "ãģŃãĤĵ": 6964,
      "ãģ°ãģĭãĤĬ": 6965,
      "åľĭéļª": 6966,
      "ãĤ³ãĥ¼ãĥī": 6967,
      "çĵ¦": 6968,
      "å¯¾è±¡åķĨåĵģ": 6969,
      "ë¨¸ëĭĪ": 6970,
      "Ġê¶Į": 6971,
      "43": 6972,
      "łê³ł": 6973,
      "Ġë¼": 6974,
      "å±Ĭ": 6975,
      "æĹ¥ãģ¯": 6976,
      "ç´ħ": 6977,
      "ĠëĲĺëĬĶì§Ģ": 6978,
      "ìĪĺë¥¼": 6979,
      "ãĤŃãĥ£ãĥ³": 6980,
      "ãĤıãģĦ": 6981,
      "åĢį": 6982,
      "çį²": 6983,
      "ãĥĵãĤ¯ãĥĥ": 6984,
      "ãĥĩãĥ¼ãĤ¿": 6985,
      "ĠìĪĺìĹħëıĦ": 6986,
      "ê±°ë¦¬": 6987,
      "ìŀĲë©´": 6988,
      "ìŀ¥ìĹĲìĦľ": 6989,
      "Ġê±¸ìĸ´": 6990,
      "ìĹħìĿĦ": 6991,
      "Ġê´ĳ": 6992,
      "ãģĹãģ¾ãģĨ": 6993,
      "ĠìĮĵ": 6994,
      "ĠìķĦëĶĽì£ł": 6995,
      "ãģĬãĤĵ": 6996,
      "ãģ¡ãĤĵ": 6997,
      "ãĤıãģĭãģ£ãģŁ": 6998,
      "ãĥĪãĥ©": 6999,
      "çīĻ": 7000,
      "ë¸¯": 7001,
      "ĠìºĲ": 7002,
      "ĠêµŃë¯¼": 7003,
      "è²¬ä»»": 7004,
      "åĭīå¼·": 7005,
      "ãģ«ãģĻãĤĭ": 7006,
      "ãģ«ãĤĪãĤĬ": 7007,
      "ãģ¾ãģ£ãģ¦": 7008,
      "ëªĢ": 7009,
      "è¬Ŀ": 7010,
      "æŁľ": 7011,
      "ä¿ĿåŃĺ": 7012,
      "Ġë¿Ĳ": 7013,
      "åıĹãģĳ": 7014,
      "è³¼åħ¥": 7015,
      "Ġìļ¸íĥĢë¦¬ìĹĲ": 7016,
      "SU": 7017,
      "ìķŀ": 7018,
      "ê³łë¥¼": 7019,
      "ãĤĬãĤħãģĨ": 7020,
      "íķľëĭ¤ê³ł": 7021,
      "å·´": 7022,
      "ĠìŀĲê¸°ëĬĶ": 7023,
      "ĠëķĮê¹Įì§Ģ": 7024,
      "íĶĦëłĪ": 7025,
      "æı¡": 7026,
      "åĦ¿": 7027,
      "ì¸µ": 7028,
      "ĠíĬ¹": 7029,
      "Ġand": 7030,
      "å®ľ": 7031,
      "ĠìĦ¹ìĭľ": 7032,
      "åĬª": 7033,
      "ãģ°ãģ£": 7034,
      "ãģ¶ãģ¤": 7035,
      "ç¤¾ä¼ļ": 7036,
      "íıī": 7037,
      "Ġë¶Īì¾Įíķľ": 7038,
      "ãģķãģ¦": 7039,
      "ä¼ĺ": 7040,
      "Ġë¬´ìĹĩ": 7041,
      "ĠíķľëĮĢìļĶ": 7042,
      "æĥł": 7043,
      "ä»ĸãģ®": 7044,
      "éŁ»": 7045,
      "ãģĿãĤĮãĤĴ": 7046,
      "Ġë´ĲìĦľ": 7047,
      "Ġëħ¸ëł¥": 7048,
      "ê½ľ": 7049,
      "ãģ¾ãģĹãĤĩãģĨ": 7050,
      "Ġì¤ı": 7051,
      "çĽ¡": 7052,
      "Ġíķľë²Ī": 7053,
      "ë³Ģ": 7054,
      "æ¡Ĥ": 7055,
      "'t": 7056,
      "QU": 7057,
      "ìķ¼ì£ł": 7058,
      "ãģĻãĤĮãģ°": 7059,
      "æķı": 7060,
      "ĠíķľìŀĶ": 7061,
      "æħ¶": 7062,
      "ãĤ¬ãĤ¿": 7063,
      "å¿ĥéħį": 7064,
      "çį¨": 7065,
      "ĠëĨįëĭ´": 7066,
      "ĠìŀĳìĹħìĿĦ": 7067,
      "éĵ¶": 7068,
      "Ġë¶Ģë¥´ê¸°ë¡ľ": 7069,
      "æĺłçĶ»": 7070,
      "res": 7071,
      "ãģ®ãģ¿": 7072,
      "ãģĭãģŁ": 7073,
      "åŃĿ": 7074,
      "å¹¼": 7075,
      "ç¨¿": 7076,
      "ãĤ«ãĥ«": 7077,
      "ä»Ĭåº¦": 7078,
      "ĠìĦľë¡ľ": 7079,
      "æ¿ĥ": 7080,
      "Ġê³µê²©": 7081,
      "ĠíĽĶì¹ĺ": 7082,
      "æĺĩ": 7083,
      "åįĢ": 7084,
      "Ġêµīìŀ¥": 7085,
      "ç´Ĺ": 7086,
      "èĬĿ": 7087,
      "ãĥĬãĥ«": 7088,
      "æļĹ": 7089,
      "Ġê³µëıĻ": 7090,
      "Ġê·¸ëŁ¬ëł¤ë©´": 7091,
      "ĠìĺģìĽĲíŀĪ": 7092,
      "ë¦ħëĭĪëĭ¤": 7093,
      "ĠìķĪíĸĪìĸ´": 7094,
      "æ¨Ĥ": 7095,
      "ĠíĸĪëĬĶëį°": 7096,
      "æĤ²": 7097,
      "çĶµåĬ¨": 7098,
      "ĠíķĺëĤĺìķ¼": 7099,
      "ight": 7100,
      "íķ´ì¤¬": 7101,
      "ĠìĤ´ê°Ĺ": 7102,
      "ä»Ĭå¹´": 7103,
      "ë£¹": 7104,
      "åĮĹäº¬": 7105,
      "ãģªãģ®ãģ§": 7106,
      "å»ºè¨Ń": 7107,
      "ê¸°ë¡ľëĬĶ": 7108,
      "äºĪå®ļ": 7109,
      "Ġì¥Ĳ": 7110,
      "å°¤åħ¶": 7111,
      "ĠìŀĪê¸°ìĹĲëĬĶ": 7112,
      "ãģĮãģŁ": 7113,
      "è¨ª": 7114,
      "çķ«": 7115,
      "ê»Ħ": 7116,
      "Ġê²Įëĭ¤ê°Ģ": 7117,
      "å¡©": 7118,
      "ãĥ¼ãĥ¼ãĥ¼": 7119,
      "ĠìĻĦìłĦíŀĪ": 7120,
      "ãĤ·ãĥ³": 7121,
      "ìľłë¡ľìĽĮì¡Įëĭ¤": 7122,
      "è°ĥ": 7123,
      "æĬķæĦı": 7124,
      "ë¦ĩ": 7125,
      "ãģ®ä¸Ģ": 7126,
      "ìĦģ": 7127,
      "ĠëĭŃ": 7128,
      "ãģķãģĽ": 7129,
      "ãģ¤ãĤĤãĤĬ": 7130,
      "Ġìĸĩ": 7131,
      "ä¿Ĭ": 7132,
      "ê·¸ìĿĺ": 7133,
      "å¦»": 7134,
      "íı´": 7135,
      "ĠãģĹãĤĤ": 7136,
      "åĪĩãĤĬ": 7137,
      "æĬĢè¡ĵ": 7138,
      "86": 7139,
      "ARE": 7140,
      "ĠëĤĺë¨¸": 7141,
      "ìĬ¤ëĬĶ": 7142,
      "Ġê±°ìļĶ": 7143,
      "ìĬµëĭĪ": 7144,
      "Ġëĭ¹ìĭłëĵ¤ìĿĦ": 7145,
      "ç§ģãģŁãģ¡": 7146,
      "æį¨": 7147,
      "ç£¨": 7148,
      "ëĥĪìĸ´ìļĶ": 7149,
      "Ġê·¸ìłĢ": 7150,
      "ìĬ¤ìĹĲ": 7151,
      "Ġê²ĥì²ĺëŁ¼": 7152,
      "Ġë¬´ê¸°ë¥¼": 7153,
      "Ġë§ŀìķĦ": 7154,
      "Ġê±¸ê¹Įë£²": 7155,
      "ĠìŀĲìĭłìĿĦ": 7156,
      "AKE": 7157,
      "Ġëĺĳê°ĻìĿĢ": 7158,
      "ãģĭãģ£ãģ¦": 7159,
      "ãģłãģ£": 7160,
      "ãĥĥãĤ·ãĥ¥": 7161,
      "ĠìĹĨì£ł": 7162,
      "ĠìĹĨëįĺ": 7163,
      "Ġê¸°ëĮĢ": 7164,
      "ãģĭãĤīãģ®": 7165,
      "ãĤŃãĥ³": 7166,
      "ãģ²ãģĵ": 7167,
      "èį¯": 7168,
      "Ġì¦Ŀëªħ": 7169,
      "å°»": 7170,
      "Ġì¢ģ": 7171,
      "ĠëıĦìĻĢ": 7172,
      "è¿ŀ": 7173,
      "çº¢": 7174,
      "ĠGO": 7175,
      "Ġê·¸ëŀ¬ëįĺê±°ìķ¼": 7176,
      "ãģķãģ£ãģį": 7177,
      "IL": 7178,
      "PO": 7179,
      "ee": 7180,
      "ĠĠ": 7181,
      "ì£¼ìĿ¼": 7182,
      "èĩ¨": 7183,
      "åľ°æĸ¹": 7184,
      "çĳŀ": 7185,
      "¾±": 7186,
      "ãģ¾ãģģ": 7187,
      "ãģĬæ¯į": 7188,
      "ãģ¤ãģı": 7189,
      "ç«ľ": 7190,
      "Ġìŀħì¦Ŀ": 7191,
      "å®ĩå®Ļ": 7192,
      "Ġê°ĳìŀĲê¸°": 7193,
      "ĠãĦ": 7194,
      "ĠìĤ¬ìĿ¸": 7195,
      "ĠëĤ¨ìķĺìĸ´": 7196,
      "ìĦłìĥĿ": 7197,
      "ĠìĹ¬ìŀĲìķ¼": 7198,
      "Ġë§ŀëĬĶ": 7199,
      "ìĤ´ìĿ´": 7200,
      "ce": 7201,
      "ãģĭãĤĤãģĹ": 7202,
      "å¤ł": 7203,
      "ìĬ¤ëŁ¬": 7204,
      "Ġë¹Ľ": 7205,
      "ĠëĲĺì§Ģ": 7206,
      "ë°Ķë§Ī": 7207,
      "Ġëĵ£ê¸°ë¡ľëĬĶ": 7208,
      "ĠëĮĢìĭł": 7209,
      "è¦ĭãģŁ": 7210,
      "çĲĨçĶ±": 7211,
      "END": 7212,
      "ãģĭãģªãģĦ": 7213,
      "ë§Ļ": 7214,
      "ãģĮãĤĭ": 7215,
      "äºĴ": 7216,
      "ĠìłĦìĹĲëĬĶ": 7217,
      "å¿į": 7218,
      "ç¯Ħ": 7219,
      "æļ´": 7220,
      "ĠëħĦ": 7221,
      "Ġê¹¨ëĭ¬": 7222,
      "Ġê½ī": 7223,
      "ĠêµĲíļĮ": 7224,
      "çµĦç¹Ķ": 7225,
      "ĠìĬ¤íĨ¤ìĽĶ": 7226,
      "ãĤīãģı": 7227,
      "ãĤ·ãĥĥ": 7228,
      "åħĥæ°Ĺ": 7229,
      "ãģ¯ãģªãģĦ": 7230,
      "ãģ¡ãģĮ": 7231,
      "å°Ĥ": 7232,
      "çļĩ": 7233,
      "ãģķãĤĵãģ«": 7234,
      "ĠìĨįìĿĺ": 7235,
      "åŁºæľ¬": 7236,
      "ë·°": 7237,
      "éĿŀå¸¸": 7238,
      "ãĤĪãĤįãģĹãģı": 7239,
      "æľŃ": 7240,
      "ĠìķĦìłĢìĶ¨": 7241,
      "ãĤıãģŃ": 7242,
      "ĠíķĺìĿ´": 7243,
      "Ġëĭ¤ìĨĮ": 7244,
      "çĶŁåĳ½": 7245,
      "ìļ°ë¦¬ê°Ģ": 7246,
      "è£ı": 7247,
      "åĩºãģĹ": 7248,
      "éĤ¦": 7249,
      "ìłĢê¸°": 7250,
      "éĳ«": 7251,
      "Ġby": 7252,
      "Ġê°Ģìĭ¤": 7253,
      "ä¸Ģä¹Ŀ": 7254,
      "ãģ¤ãģ¾ãĤĬ": 7255,
      "ãģĽãģ£": 7256,
      "è¶£": 7257,
      "ìĶ¬": 7258,
      "ang": 7259,
      "Ġê·Ģë¥¼": 7260,
      "éĤ£äºĽ": 7261,
      "ë¥Į": 7262,
      "ì°Į": 7263,
      "ìŀ¥ìĿĦ": 7264,
      "Ġë§ĮëĵľëĬĶ": 7265,
      "2026": 7266,
      "æ¡Ĳ": 7267,
      "æĸĩåŃ¸": 7268,
      "ãĥĶãĥ¼": 7269,
      "ëľ¨": 7270,
      "ãģ¨æĢĿãģ£ãģ¦": 7271,
      "ìĵ°": 7272,
      "ĠìĦ¤ëªħíķł": 7273,
      "íİķìĸŃ": 7274,
      "54": 7275,
      "ĠãĤĢ": 7276,
      "ä»į": 7277,
      "ëħĲ": 7278,
      "ĠìĹĨìĿĦ": 7279,
      "åľĭæĺ¯": 7280,
      "çİĦ": 7281,
      "ãģµãģĺ": 7282,
      "Ġíİ´": 7283,
      "ãģªãģ®ãģ«": 7284,
      "ãģĮãĤĵãģ°": 7285,
      "52": 7286,
      "Ġit": 7287,
      "ãģĭãģ®": 7288,
      "ãģĮãģĤãĤĬãģ¾ãģĻ": 7289,
      "åħ´": 7290,
      "ìķ¼ê²łëĭ¤": 7291,
      "ãģįãģ¿": 7292,
      "ĠëĤĺìĻĢ": 7293,
      "æµ©": 7294,
      "çľ¾": 7295,
      "ãģµãģĨ": 7296,
      "æĩĤ": 7297,
      "ãģ¸ãĤĵ": 7298,
      "ĠëĤĺìĺ¤ëĬĶ": 7299,
      "ĠìŀĪëĤĺìļĶ": 7300,
      "ìķĦì£¼": 7301,
      "ĠëĤĺì¤ĳìĹĲ": 7302,
      "æĻ¶": 7303,
      "éļł": 7304,
      "åĲįåľĭ": 7305,
      "æŃ£æĺ¯": 7306,
      "çĶ¦éĢ£": 7307,
      "ãĥģãĤ§ãĥĥãĤ¯": 7308,
      "Ġìĺ¤ìħĺìĬ¤": 7309,
      "09": 7310,
      "ãĤ¯ãĥ³": 7311,
      "ä¸įä½Ĩ": 7312,
      "éĻ¶": 7313,
      "Ġì£½ê³ł": 7314,
      "ãĥĨãĥ¬": 7315,
      "çŀ¬": 7316,
      "ãģĤãģĤãģĤãģĤ": 7317,
      "Ġì°¾ìĿĢ": 7318,
      "å¸°ãģ£ãģ¦": 7319,
      "Ġê°ĲìłķìłģìĿ´ìĹĪëĭ¤ëĬĶ": 7320,
      "ĠãģĿãģĨ": 7321,
      "ìĿ´ëŀĳ": 7322,
      "ìĬ¤íĭ°": 7323,
      "ãģ©ãĤĤ": 7324,
      "æ²ĸ": 7325,
      "Ġëĭ¹ìĭłìĹĲ": 7326,
      "Ġì¡°ìĤ¬": 7327,
      "Ġì°¨ìĿĺ": 7328,
      "æ±½è½¦": 7329,
      "Ġê³ģìĹĲ": 7330,
      "ãģįãģ¾ãģĹãģŁ": 7331,
      "åĲ¸": 7332,
      "ãĤıãĤĭ": 7333,
      "Ġë§Ĳíķĺê³ł": 7334,
      "ìĿ¼ì¯¤ìĿ´ìļĶ": 7335,
      "ëĲĺê²Į": 7336,
      "çıŃ": 7337,
      "Ġëį°ìĿ´íĬ¸": 7338,
      "ĠìĿ¸íĦ°": 7339,
      "ëķĮë¡ľ": 7340,
      "Ġê°Ħëĭ¨": 7341,
      "Ġbe": 7342,
      "åħ¼": 7343,
      "åīĽ": 7344,
      "ç´«": 7345,
      "íħĶ": 7346,
      "Ġë¯¸ì³Ĳ": 7347,
      "ê·¹": 7348,
      "ê·Ģ": 7349,
      "ì¡°ì°¨": 7350,
      "ë°°ê°Ģ": 7351,
      "Ġì¦Ĳ": 7352,
      "ĠëĮĢëĭĪê°Ģ": 7353,
      "ll": 7354,
      "ìĿ´ìłľ": 7355,
      "éĢĲ": 7356,
      "æķ¢": 7357,
      "åĭ¤": 7358,
      "Ġë³´íĺ¸": 7359,
      "ãĥķãĥĪ": 7360,
      "ĠìĨĮê°ľ": 7361,
      "ĠíĽĦíļĮ": 7362,
      "çĪ±": 7363,
      "èĸĦ": 7364,
      "ãĥĶãĥ³": 7365,
      "Ġíı¬ëıĦ": 7366,
      "ĠëĬĲëĤĮìĿĦ": 7367,
      "//": 7368,
      "Ġãģ®": 7369,
      "ï¼ĵ": 7370,
      "ãĤ¢ãĥĥãĥĹ": 7371,
      "è²¸": 7372,
      "Ġì²Ń": 7373,
      "é«ª": 7374,
      "Ġë§Įëĵł": 7375,
      "Ġë¬¼ìĹĲ": 7376,
      "åĲįåīį": 7377,
      "çĹķ": 7378,
      "åĲĦç§į": 7379,
      "åıĤåĬł": 7380,
      "æĹ§": 7381,
      "ãĤ¤ãĥ©": 7382,
      "ĠíķĺëĬĶëį°": 7383,
      "ãģĹãģ¦ãĤĤ": 7384,
      "ĠìĽ¨": 7385,
      "æ¡ĥ": 7386,
      "èĻ¹": 7387,
      "ìİĦ": 7388,
      "Ġë¬¼ìĸ´ë³¼": 7389,
      "89": 7390,
      "Ġìĸ´ëĶ": 7391,
      "ë¥´ê²Į": 7392,
      "èĪŁ": 7393,
      "ëĲĺìĸ´": 7394,
      "ä½ķãģ§": 7395,
      "ç¾İå®¹": 7396,
      "çŁ¥èŃĺ": 7397,
      "ãĥ¯ãĤ¤": 7398,
      "éı¡": 7399,
      "éľĢè¦ģ": 7400,
      "##": 7401,
      "ik": 7402,
      "Ġãģ¨ãģĨ": 7403,
      "ëĭ¤ëĦ¤": 7404,
      "ãģĤãģķ": 7405,
      "ãģĤãĤı": 7406,
      "ãĥªãĤ«": 7407,
      "ãĤģãĤĵ": 7408,
      "ä»¥å¤ĸ": 7409,
      "ãģ²ãģ§": 7410,
      "ĠíĸĪì£ł": 7411,
      "ì¶§": 7412,
      "åİŁåĽł": 7413,
      "Ġë¬¼ìĸ´ë´¤": 7414,
      "æ¬¢è¿İåħīä¸´": 7415,
      "AB": 7416,
      "ãģ¾ãģį": 7417,
      "Ġìĺ®": 7418,
      "ì¡´": 7419,
      "æŀĲ": 7420,
      "æīĭãģ«": 7421,
      "æļ®": 7422,
      "å®Łãģ¯": 7423,
      "ëŀľëĵľ": 7424,
      "Ġê·¸ê²ĥëıĦ": 7425,
      "ãģªãģ£ãģŁ": 7426,
      "ĠìĿ´ìłł": 7427,
      "æ³Ĭ": 7428,
      "íĺĳ": 7429,
      "æĻĤãģ®": 7430,
      "äºĭãĤĴ": 7431,
      "ĠìķĦëĭĪì£ł": 7432,
      "éĹ´": 7433,
      "ìĺĢìĸ´ìļĶ": 7434,
      "ANK": 7435,
      "ë°ĶìĹĲìĦľ": 7436,
      "Ġë¬¼ìĸ´ë´Ĳ": 7437,
      "od": 7438,
      "ãģĨãĤĭ": 7439,
      "åºĦ": 7440,
      "ë³´ìĿ´": 7441,
      "ĠëĮĢì²´": 7442,
      "ĠìłĢê±´": 7443,
      "íŀĪëıĦ": 7444,
      "ëĿ¼ê³łìļĶ": 7445,
      "å®¶æĹı": 7446,
      "ãģĵãģĨãģĦãģĨ": 7447,
      "Ġìĭ¶ìĬµ": 7448,
      "ä¸»å¼µ": 7449,
      "ãģĵãģĵãģ§": 7450,
      "em": 7451,
      "ĠãĤı": 7452,
      "Ġíĵ": 7453,
      "æľ±": 7454,
      "ãģĭãĤīãģªãģĦ": 7455,
      "ë²Ħì§Ģ": 7456,
      "éĿľ": 7457,
      "åįģäºĶ": 7458,
      "çºĮ": 7459,
      "ãĥĽãĥ³ãĥĪ": 7460,
      "ĠíŀĲëŁ¬ë¦¬ê°Ģ": 7461,
      "ĠìłĬìĿĢ": 7462,
      "Ķì§ģ": 7463,
      "çĴĥ": 7464,
      "åł´åĲĪãģ¯": 7465,
      "53": 7466,
      "hat": 7467,
      "Ġë§ĲëıĦ": 7468,
      "Ġì§ĢíĤ¤": 7469,
      "ĠìĿ¼ì£¼ìĿ¼": 7470,
      "çĨĬ": 7471,
      "åļ´": 7472,
      "Ġìĸ¸ìłľëĤĺ": 7473,
      "ãĥ©ãĥ³ãĥī": 7474,
      "ä¸ģçĽ®": 7475,
      "ĠãĤª": 7476,
      "Ġãģ¾ãģķ": 7477,
      "Ĳë¦¬": 7478,
      "ìĸ´ì§Ħ": 7479,
      "ãģĭãģĪ": 7480,
      "ãģ¤ãģĦãģ¦": 7481,
      "ãĥ¼ãĥŃ": 7482,
      "ĠëķĮëķĮë¡ľ": 7483,
      "ãĤŃãĥŁ": 7484,
      "ìłķìĿ´": 7485,
      "åĸ®": 7486,
      "íİ²": 7487,
      "çī¹ãģ«": 7488,
      "Ġì¸µ": 7489,
      "Ġìĸ¼êµ´ìĿ¸ëį°": 7490,
      "ãģĬéĩ£ãĤĬ": 7491,
      "ĠìĦ¹ìĭľíķľ": 7492,
      "ä¸Ģå¹´": 7493,
      "åĢ¼": 7494,
      "ĠìĭľëıĻìĿĦ": 7495,
      "ãĤįãģı": 7496,
      "ãĤ¿ãĥ«": 7497,
      "ãĥĲãĥ«": 7498,
      "èŃī": 7499,
      "åľ°çĲĥ": 7500,
      "ãģ¶ãĤĬ": 7501,
      "ãĥĬãĥ¼": 7502,
      "ĠíİĺìĿ´": 7503,
      "Ġë´¤ëĭ¤ê³ł": 7504,
      "Ġì§ĵìĿĦ": 7505,
      "st": 7506,
      "ãģĹãģĬ": 7507,
      "ĠìŀĪê±°ëĵł": 7508,
      "íķ´ëĿ¼": 7509,
      "ä»¥ä¸ĭ": 7510,
      "å¢¨": 7511,
      "ãģªãĤĵãģłãĤĪ": 7512,
      "ëĸ»": 7513,
      "çľĭè¦ĭ": 7514,
      "Ġ1077": 7515,
      "ãģ®ãĤĤ": 7516,
      "ê²ģ": 7517,
      "éĢ£çµ¡": 7518,
      "Ġì§ĢëĤľë²ĪìĹĲ": 7519,
      "ĠìŀĪëĭ¤ê³łìļĶ": 7520,
      "ĠìļĶì²ŃìĿĦ": 7521,
      "ĠìħĪìĿ´ì§Ģ": 7522,
      "ëĭ¥": 7523,
      "ìĦľë¥¼": 7524,
      "Ġê³¨": 7525,
      "ãĥ¼ãĥĢ": 7526,
      "ĠìľĦìĽĲ": 7527,
      "ëĨ¨": 7528,
      "ä¸»æĦı": 7529,
      "Ġìĭľì²´ê°Ģ": 7530,
      "Ġê³µëıĻì²´": 7531,
      "Ġå±±": 7532,
      "Ġíį¼": 7533,
      "ê³łìļĶ": 7534,
      "åı¬": 7535,
      "ï¼ģãĢį": 7536,
      "ì£¼êµĲ": 7537,
      "æĢķ": 7538,
      "ë¶Ģíķľ": 7539,
      "æĸ°èģŀ": 7540,
      "äºĮäºº": 7541,
      "Ġë§ĲíĸĪëįĺ": 7542,
      "å¦ĤæŃ¤": 7543,
      "ĠìĭĿìĤ¬": 7544,
      "íĤ¬": 7545,
      "Ġå®ī": 7546,
      "ãģĦãĥ¼": 7547,
      "ìĿĦê±°ìķ¼": 7548,
      "Ġëĭ¤ìĸĳ": 7549,
      "æİĺ": 7550,
      "ĠëĲĺë©´": 7551,
      "è¾¾": 7552,
      "ç¿»": 7553,
      "åŀ£": 7554,
      "ê²¼ëĭ¤": 7555,
      "ĠíŀĲëŁ¬ë¦¬ìĹĲê²Į": 7556,
      "ãģĶãĤģãĤĵãģª": 7557,
      "ä¾¡æł¼": 7558,
      "Ġë°Ķê¿Ģ": 7559,
      "ĠìĺĽëĤł": 7560,
      "ĠëķĮê°Ģ": 7561,
      "å¦ĸ": 7562,
      "ãģ¡ãĤĥãĤĵãģ®": 7563,
      "íķ´ë³´": 7564,
      "Ġìļ°ë¦¬ëŀĳ": 7565,
      "ãĥ©ãĤ¤ãĥ³": 7566,
      "çĤİ": 7567,
      "ĠìĥĪíģ¬ëĿ¼ë©ĺíĬ¸": 7568,
      "ì¶°": 7569,
      "ç¤¾åĮº": 7570,
      "ãĤ»ãĥĥãĥĪ": 7571,
      "ì·Ĳ": 7572,
      "ìĸ´ì£¼ìĦ¸ìļĶ": 7573,
      "ë¢°": 7574,
      "ĠëĤĺìĻĶëĬĶëį°": 7575,
      "110": 7576,
      "ãģ¨ãģ¿": 7577,
      "Ġëĭ¦": 7578,
      "ãĤĦãĤī": 7579,
      "ãģĽãģ¤": 7580,
      "è²¯": 7581,
      "ĠíķľëĳĲ": 7582,
      "ëĭ¤ê³łìļĶ": 7583,
      "ĠAT": 7584,
      "çĭĹ": 7585,
      "ãĥĸãĥ³": 7586,
      "ëįĶëĭĪ": 7587,
      "Ġë§ĲíĸĪì£ł": 7588,
      "ëģĶ": 7589,
      "Ġìķłê°Ģ": 7590,
      "Ġìĭ¬ê°ģ": 7591,
      "æ¯İæĹ¥": 7592,
      "âĨĴ": 7593,
      "çĶ³ãģĹ": 7594,
      "Ġê±ĶëĬĶ": 7595,
      "ãģĬãģı": 7596,
      "èĪĬ": 7597,
      "ãģ§ãģĻãģĭãĤī": 7598,
      "ãĥģãĥĥ": 7599,
      "ãĤ°ãĥ«": 7600,
      "HER": 7601,
      "ĠìĽĲìĭľ": 7602,
      "Ġëª¨ëĳĲëĬĶ": 7603,
      "Ġíİĺ": 7604,
      "ãģĺãĤĥãģªãģĦãģĭ": 7605,
      "ĠLIKE": 7606,
      "ĠìĹ¬ìŀĲìķłê°Ģ": 7607,
      "ĠíĶĮë¡ľ": 7608,
      "Ġë¬»íŀĮ": 7609,
      "ĠíĽµë§īìĿ¸ëį°": 7610,
      "UD": 7611,
      "ĠìĿĳ": 7612,
      "ëł´": 7613,
      "äºŃ": 7614,
      "ãģķãģĪ": 7615,
      "ĠìŀĲìłľíķĺëŀĢ": 7616,
      "çĤ¸": 7617,
      "ĠAB": 7618,
      "Ġëĵ¤ìĸ´ìĺ¤": 7619,
      "ìĺĢì£ł": 7620,
      "å¬ī": 7621,
      "Ġì¼Ģ": 7622,
      "ì¨į": 7623,
      "Ġê°Ħëĭ¤": 7624,
      "Ġëª°ëŀĲëĭ¤": 7625,
      "ĠìŀĬìĸ´": 7626,
      "Ġìķķì¶ķ": 7627,
      "her": 7628,
      "ãģĦãģĪ": 7629,
      "Ġê·¸ì¹ĺ": 7630,
      "ãģ¾ãģĹãģ¦": 7631,
      "ĠìĿ´ë¯¼": 7632,
      "ãĤĴä½ľ": 7633,
      "åĪº": 7634,
      "è£ģ": 7635,
      "æ¶²": 7636,
      "æ¹¾": 7637,
      "ì¼°": 7638,
      "Ġìŀłê¸´": 7639,
      "Ġë¯¿ìĹĪìĸ´": 7640,
      "ç¢ºãģĭãģ«": 7641,
      "OOD": 7642,
      "67": 7643,
      "ai": 7644,
      "ìŀĺ": 7645,
      "éĸī": 7646,
      "ãģªãģĦãĤĪ": 7647,
      "ìĻ¬": 7648,
      "çĶŁãģ¾": 7649,
      "Ġë§ĮëĤľ": 7650,
      "åı¯æĦĽ": 7651,
      "ãĥĿãĥ³": 7652,
      "å¥³ãģ®åŃĲ": 7653,
      "íķĺë©´ìĦľ": 7654,
      "Ġìı´": 7655,
      "ĠFR": 7656,
      "Ġìŀ¬ë°Įê²Į": 7657,
      "ver": 7658,
      "ĠãģĶ": 7659,
      "ĩê¸Īê»ı": 7660,
      "å¤§å¤ī": 7661,
      "ãģŃãĤ§": 7662,
      "å¯©": 7663,
      "ãĤ¢ãĤ¯": 7664,
      "åĮł": 7665,
      "Ġìłľê³µ": 7666,
      "å£Ĭ": 7667,
      "èģĺ": 7668,
      "æŁĶ": 7669,
      "ãĥ¡ãĥ¼ãĥ«": 7670,
      "å©¦": 7671,
      "èħ°": 7672,
      "ĠìĨįìĥģíķľ": 7673,
      "ĠíĨłë¡ł": 7674,
      "ê°ĲìĿĦ": 7675,
      "Ġëį°ëł¤ê°Ģ": 7676,
      "Ġëį°ìĿ´ëĵľ": 7677,
      "Ġìĺ·ìŀħ": 7678,
      "éĩĿ": 7679,
      "ĠíĽħ": 7680,
      "æħ£": 7681,
      "æĤŁ": 7682,
      "çı¾ä»£": 7683,
      "é±¼": 7684,
      "ç¨ĭåº¦": 7685,
      "Ġë¹ĦëĶĶìĺ¤ê°Ģ": 7686,
      "ĠìĿĮìķħ": 7687,
      "Ġê±°ë¦¬ìķ¼": 7688,
      "AIN": 7689,
      "ë¦¬ë©´": 7690,
      "ĠìĪĺìŀĳìĹĶ": 7691,
      "ä¹¾": 7692,
      "ĠìŀĲë§Ĳ": 7693,
      "ãģĹãģ¦ãģĦãģŁ": 7694,
      "Ġëĵ¤ë¦°ëĭ¤êµ¬": 7695,
      "éĸĵãģ«": 7696,
      "ãĥŃãĥľ": 7697,
      "éŃħ": 7698,
      "çģ¯": 7699,
      "æįķ": 7700,
      "Ġê³µë°±": 7701,
      "èŀį": 7702,
      "ĠìļĶêµ¬": 7703,
      "æ³¨æĦı": 7704,
      "Ġê±°ì£¼ìŀĲìļĶ": 7705,
      "Ġë³´ìĿ´ëĬĶì§Ģ": 7706,
      "ACK": 7707,
      "ĠìĤ¬ë¬´ìĭ¤ìĹĲ": 7708,
      "Ġìĭ¹": 7709,
      "ä½Ľ": 7710,
      "åłĨ": 7711,
      "ìĿĮìĿĦ": 7712,
      "ĠìĥĪì²ĺëŁ¼": 7713,
      "çĭĢ": 7714,
      "Ġê¸Īìķ¡": 7715,
      "Ġë¬¸íĻĶìĹĲìĦľëĬĶ": 7716,
      "å®ĮæĪĲ": 7717,
      "Ġì¤ĳìĿ´ëŀĺ": 7718,
      "ĠìķĮìķĦë³´ëĭĪê¹Į": 7719,
      "Ġíı¬ëıĦì£¼": 7720,
      "ãģĬéłĲ": 7721,
      "åĽ²": 7722,
      "ĠëŃĲìĺĢìĸ´": 7723,
      "ä»Ĭãģ¯": 7724,
      "ëħ¸íĶĦ": 7725,
      "æ©Łæ¢°": 7726,
      "Ġê¸°ëĭ¤ë¦¬ê³ł": 7727,
      "ĠìĻĢëıĦ": 7728,
      "ì±ħ": 7729,
      "è¶ħå¸Ĥ": 7730,
      "Ġë°Ķë³´ëĵ¤ìĿĦ": 7731,
      "ëĭŀ": 7732,
      "ãģĭãģĽ": 7733,
      "å¾¹": 7734,
      "ãĤ¹ãĥŀ": 7735,
      "ãģµãģ£": 7736,
      "ĠíĮ¨": 7737,
      "ãĥĬãĤ¤": 7738,
      "ëĲľëĭ¤": 7739,
      "ĠìŀĪëĭ¤ìŀĸìķĦ": 7740,
      "ãĤĮãģ¦ãĤĭ": 7741,
      "Ġë§ĲíĸĪê³ł": 7742,
      "Ġì½ĶëĵľìĹĲ": 7743,
      "ä¾¿åĪ©": 7744,
      "ĠHER": 7745,
      "ãģĤãĤĬãģĮãģ¨ãģĨãģĶãģĸãģĦãģ¾ãģĻ": 7746,
      "Ġë°¸ë¦¬ëĿ¼ëĬĶ": 7747,
      "ĠìĿ´ë¯¸ì§Ģëĵ¤ë§Į": 7748,
      "ĠìĿ´ë¯¸ì§Ģëĵ¤ìĿ´ìķ¼": 7749,
      "Ġìļ¸ì§Ģë§Ī": 7750,
      "ĠíĹĽëĲĺê²Į": 7751,
      "Ġê³³ìĿ´ëįĶêµ°": 7752,
      "ĠìĺģìĥģìĿ¼": 7753,
      "Ġê°Ģìł¸ìĻĢìķ¼ê²łëĭ¤": 7754,
      "åĬªåĬĽ": 7755,
      "Ġìķķì¶ķëı¼": 7756,
      "ìĿ´íģ¬": 7757,
      "å°ĭ": 7758,
      "å±¥": 7759,
      "å±ŀ": 7760,
      "ĠëĮĢë¶Ģë¶Ħ": 7761,
      "æĻĤãģ¯": 7762,
      "ì¹ĺëħ¸": 7763,
      "ãĥŃãĥ³": 7764,
      "ans": 7765,
      "ĠãģĭãĤĵ": 7766,
      "é®®": 7767,
      "ĠëĨĢëŀį": 7768,
      "Ġë§¤ìĿ¼": 7769,
      "Ġëªħì¹ŃìĿĢ": 7770,
      "ĠíĭĢìĸ´ì£¼ìĦ¸ìļĶ": 7771,
      "OH": 7772,
      "ãģ®ãģĶ": 7773,
      "ãĤĤãģĹãģĭ": 7774,
      "Ġëıĭ": 7775,
      "íĸĪìŀĸìķĦ": 7776,
      "ĠìłĦíķł": 7777,
      "ä¸ĢåĪĩ": 7778,
      "ê²łëĦ¤": 7779,
      "è²«": 7780,
      "çĶŁæ³ģ": 7781,
      "è³¢": 7782,
      "åľ°åŁŁ": 7783,
      "çģ½": 7784,
      "ç³¸": 7785,
      "æĥħå½¢": 7786,
      "ĠìķķëıĦìłģ": 7787,
      "æħĭåº¦": 7788,
      "Ġëª©íĳľë¡ľ": 7789,
      "RY": 7790,
      "åħĴ": 7791,
      "ëį©": 7792,
      "ãģĿãĤĬãĤĥ": 7793,
      "Ġê°Ģê²©ìĿ´": 7794,
      "å·¡": 7795,
      "èĩŃ": 7796,
      "ãģ²ãģķ": 7797,
      "éŃĤ": 7798,
      "Ġê±´ê°ĢìļĶ": 7799,
      "æ°ĹãĤĴ": 7800,
      "ãģ¹ãģ¤": 7801,
      "ãĤ¶ãĥ¼": 7802,
      "Ġì¹´íĳ¸": 7803,
      "ĠìĹŃìŀĦ": 7804,
      "é£Ľæ©Ł": 7805,
      "ìĸ¼ë¦¬ìķĦ": 7806,
      "çĴ°å¢ĥ": 7807,
      "ĠíķĺìĿ´ìĸ¼ë¦¬ìķĦ": 7808,
      "ãģ¨ãģ¦ãĤĤ": 7809,
      "ãģĤãģģ": 7810,
      "ãģĿãĤĤ": 7811,
      "ä¸Ĭè¨ĺ": 7812,
      "éłĳ": 7813,
      "èģ½": 7814,
      "ĠìĦłíĥĿ": 7815,
      "ĠëıĮìķĦë³´ì§Ģ": 7816,
      "ëľ©": 7817,
      "æĸĻçĲĨ": 7818,
      "Ġë¢Ķ": 7819,
      "íĶĦëłĪìĨĮ": 7820,
      "ìŀ©": 7821,
      "ãģ¨ãģĬ": 7822,
      "ãĤīãĤĮãģªãģĦ": 7823,
      "ä»®": 7824,
      "åĲ¦": 7825,
      "å¥ı": 7826,
      "ĠALL": 7827,
      "ĠìłĪë§Ŀ": 7828,
      "ìłĢíĿ¬": 7829,
      "åŃ¦åľĴ": 7830,
      "ãĥ¯ãĥ³": 7831,
      "ì¯¥": 7832,
      "ĠìĦłë¬¼": 7833,
      "éŃĶæ³ķ": 7834,
      "ra": 7835,
      "Ġì¯": 7836,
      "ãģ«åĩº": 7837,
      "ëĤĺë©´": 7838,
      "ä¸Ģåħ«": 7839,
      "ãĤ¤ãĥĻ": 7840,
      "æķĪ": 7841,
      "ãĤ³ãĥĪ": 7842,
      "æĮī": 7843,
      "ãĤ°ãĥĥ": 7844,
      "ç¯ĩ": 7845,
      "èºį": 7846,
      "èĦ©": 7847,
      "Ġì±±": 7848,
      "ĠíĶ¼íķ´": 7849,
      "Ġì¹´íĳ¸ì¹ĺëħ¸": 7850,
      "åıĥ": 7851,
      "ìĬ¤ìĻĢ": 7852,
      "Ġëª¨ìĬµ": 7853,
      "ãĥ¼ãĥĿ": 7854,
      "Ġì£½ìĿĦ": 7855,
      "Ġë§ĮëĤ¬ìĸ´ìļĶ": 7856,
      "æŁĦ": 7857,
      "æĸ°å®¿": 7858,
      "Ġê°ĻìĿĢëį°": 7859,
      "ä½ľæĪ°": 7860,
      "Ġì§Ħë¶Ģíķľ": 7861,
      "Ġë¦¬ë§īìĿ¸": 7862,
      "Ġê²ĮìŀĦ": 7863,
      "ì°¨ë¥¼": 7864,
      "åĮĸåŃ¸": 7865,
      "ëĹ³": 7866,
      "ë½Ĳ": 7867,
      "ĠëĶĶì§Ģ": 7868,
      "ĠìķĦíĶĪëį°": 7869,
      "--": 7870,
      "ĠçľŁ": 7871,
      "ĠìĿ½": 7872,
      "ãģŁãģį": 7873,
      "Ġìĸ´ìłľ": 7874,
      "ç´ĭ": 7875,
      "ĠëĳĲëĬĶê²Į": 7876,
      "ãĥĳãĤ¤": 7877,
      "èħĲ": 7878,
      "ëĭµëĭ¤ê³ł": 7879,
      "ĠìłĦíĻĶíķ´ìĦľ": 7880,
      "ĠíĨłìļĶìĿ¼ëĤł": 7881,
      "ãģ¯ãĤĬ": 7882,
      "ãģ«å¯¾": 7883,
      "ãĤĪãģĵ": 7884,
      "Ġìļ°ë¦¬ëĵ¤ìĹĲ": 7885,
      "ãģ¿ãģ¦": 7886,
      "ë°©ê°ĻìĿ´": 7887,
      "æĭĵ": 7888,
      "åĸļ": 7889,
      "èĤ©": 7890,
      "ä½ķãģĮ": 7891,
      "ĠëĳĲë°°ê°Ģ": 7892,
      "å¿ħéłĪ": 7893,
      "Ġíĸīíĥľ": 7894,
      "ĠìķĦì¹¨ìĹĲ": 7895,
      "ëĥĲê³łëıĦìļĶ": 7896,
      "ĠëģĶì°įíŀĪëıĦ": 7897,
      "Ġëĸ¨ìĸ´ìł¸": 7898,
      "Ġê°Ģë¸Įë¦¬ìĹĺ": 7899,
      "Ġìĺ·ìŀħëĬĶëĭ¤ëĬĶ": 7900,
      "Ġì¹´íĳ¸ì¹ĺëħ¸ëĤĺ": 7901,
      "ĠíĸīíĥľëĥĲê³łëıĦìļĶ": 7902,
      "å°ĩ": 7903,
      "ä¸Ńèı¯": 7904,
      "ãĤ«ãĤ¿": 7905,
      "æ±¤": 7906,
      "ĠìŀĪìĹĪì£ł": 7907,
      "ĠëıĦëĳĳëĵ¤ìĸŃ": 7908,
      "Ķì§ģíŀĪ": 7909,
      "HU": 7910,
      "íķĺëįĺ": 7911,
      "ãĤ¹ãĥĥ": 7912,
      "Ġë²½": 7913,
      "çļĦåŃĹ": 7914,
      "èĲĮ": 7915,
      "ĠíĸĪìĬµëĭĪëĭ¤": 7916,
      "ç¿¼": 7917,
      "ãĤĨãĥ¼": 7918,
      "ç³ĸ": 7919,
      "ĠìĿ´ìĥģíķĺê²Į": 7920,
      "Ġê²°íĺ¼": 7921,
      "Ġê±Ķê°Ģ": 7922,
      "ë¦½ëĭĪëĭ¤": 7923,
      "Ġfor": 7924,
      "Ġì°½ë¬¸": 7925,
      "è¿ŀéĶģ": 7926,
      "://": 7927,
      "YA": 7928,
      "tp": 7929,
      "ĠãģĿ": 7930,
      "íķĺêµ°": 7931,
      "åĲ§": 7932,
      "ë¶Ļ": 7933,
      "æŃ´": 7934,
      "åĬĩ": 7935,
      "è²¼": 7936,
      "å·¥åł´": 7937,
      "ĠêµĲìĪĺ": 7938,
      "Ġëĥĩê¸Īê»ı": 7939,
      "Ġíľ«": 7940,
      "Ġëį°ìĿ´íĦ°ê°Ģ": 7941,
      "ãģķãĤīãģ«": 7942,
      "ë°ĸìĹĲ": 7943,
      "Ġëħ¼ìŁģ": 7944,
      "ĠìĿ¼ëłĪë¸ĲìĿ´ëĿ¼": 7945,
      "ĠãĤĨãģĨ": 7946,
      "ĠìĿ´ê²¼": 7947,
      "ĠìĭľëĮĢëĬĶ": 7948,
      "íĬ¸ë¥¼": 7949,
      "çŁ¥ãĤīãģªãģĦ": 7950,
      "ë¬¼ìĿ´": 7951,
      "ä¿ºãģ®": 7952,
      "Ġëª°ëŀĲìĸ´": 7953,
      "Ġì¡´ìŀ¬ë¥¼": 7954,
      "US": 7955,
      "įëĭĪëĭ¤": 7956,
      "ĠìĹĨìĹĪëĭ¤": 7957,
      "ìŁ»": 7958,
      "ãĥŀãĤ¤": 7959,
      "ìĸµëĤĺëĬĶ": 7960,
      "çĸ²": 7961,
      "ãģ¹ãģį": 7962,
      "ãĤŃãĥ£ãĥ©": 7963,
      "íĶķ": 7964,
      "Ġëī´ìļķ": 7965,
      "ìĿ¸ëĭ¤": 7966,
      "ãĤĦãģĹ": 7967,
      "Ġë¯¸ì¹ľ": 7968,
      "ç¶¾": 7969,
      "çĦ¡ãģĦ": 7970,
      "ĠìĻĶìĸ´": 7971,
      "ESS": 7972,
      "ãģĦãģĹãģ¾ãģĻ": 7973,
      "æºĸåĤĻ": 7974,
      "Ġìį¼ìľ¼ëĭĪê¹Į": 7975,
      "LO": 7976,
      "ĠíĲ": 7977,
      "ìļ±": 7978,
      "ãĤıãģĹ": 7979,
      "ãĤĵãģłãĤį": 7980,
      "Ġë§Įíķľ": 7981,
      "Ġëªħë¨¾": 7982,
      "è£ħé¥°": 7983,
      "ìĭ¸": 7984,
      "ãģĮåĩº": 7985,
      "ãĥ¬ãĤ·ãĥ¼ãĥĪ": 7986,
      "é£İ": 7987,
      "æ»¿": 7988,
      "ĠWAS": 7989,
      "Ġì°¾ê³ł": 7990,
      "ì´Ŀ": 7991,
      "ê²½íĹĺ": 7992,
      "Ġëľ»ìĿ¸ê°Ģ": 7993,
      "åĸ¶æ¥Ń": 7994,
      "ãģĬé¡ĺãģĦ": 7995,
      "íķĦëĵľ": 7996,
      "ë¦Ń": 7997,
      "ãģŁãģ¤": 7998,
      "æĹŃ": 7999,
      "Ġê¸°ëĳ¥": 8000,
      "íħĲ": 8001,
      "ìĤ¬ë³¸": 8002,
      "åīįãģ®": 8003,
      "ãĤ¦ãĤ¹": 8004,
      "è¢ĸ": 8005,
      "éĻĲå®ļ": 8006,
      "ä»ĺãģĳ": 8007,
      "íĺķìłľ": 8008,
      "Ġìłĳê·¼": 8009,
      "42": 8010,
      "UL": 8011,
      "ãģ«éĸ¢": 8012,
      "ìĭľìķĦ": 8013,
      "ãĥĪãĥ¬": 8014,
      "ĠëĲ©ëĭĪëĭ¤": 8015,
      "ãĥªãĥ³ãĤ°": 8016,
      "Ġë¶Ģì¡±": 8017,
      "ãĥŀãĥ¼": 8018,
      "ä½ķãģł": 8019,
      "æ¹ĺ": 8020,
      "èĻİ": 8021,
      "ë°ķìĿ´": 8022,
      "ãĤīãģ£": 8023,
      "Ġê°Ģì§Ħ": 8024,
      "ãĤ¹ãĥĿ": 8025,
      "Ġê±¸ìĿĮ": 8026,
      "Ġì§Ģê¸Īê¹Įì§Ģ": 8027,
      "ĠìĥĪìķ¼": 8028,
      "ĠëªħìĿĢ": 8029,
      "ĠìĹ¬ìŀĲëĵ¤ìĿĦ": 8030,
      "ãĥĨãĥ³": 8031,
      "Ġë§ŀìķĦìļĶ": 8032,
      "ì¼±": 8033,
      "ĠìĶ¨ê°Ģ": 8034,
      "ĠìĤ¬ì§ĦìĿĦ": 8035,
      "ĠWHAT": 8036,
      "up": 8037,
      "ĠãĤ¨": 8038,
      "ĠìĿ´ê¸´": 8039,
      "íķ´ë´Ĳ": 8040,
      "ãģ¿ãģ®": 8041,
      "ĠëĪķ": 8042,
      "Ġë¬´ë£Į": 8043,
      "ëĲĺìĹĪ": 8044,
      "ìĦ±ìĿ´": 8045,
      "æºľ": 8046,
      "æĺİæĹ¥": 8047,
      "äºĶåįģ": 8048,
      "çķ¶æĻĤ": 8049,
      "Ġë§¤ëł¥": 8050,
      "Ġãģ¦": 8051,
      "ĠãĤĤ": 8052,
      "ãģ¯ãģĬ": 8053,
      "ìĦľëĬĶ": 8054,
      "ä»Ļ": 8055,
      "ãĤĴãģĻãĤĭ": 8056,
      "ìĽĳ": 8057,
      "ãĥĪãĥ«": 8058,
      "ìĥģìĿĦ": 8059,
      "äººãĤĴ": 8060,
      "ä»Ĭãģ¾ãģ§": 8061,
      "éķ¿": 8062,
      "Ġêµ°ëĮĢìĹĲ": 8063,
      "ãģĿãĤĵãģªãģ«": 8064,
      "ë³µìĤ¬ë³¸": 8065,
      "ĠëģĮìĸ´": 8066,
      "ĠìĿ´íĽĦë¡ľ": 8067,
      "Ġë°±": 8068,
      "ä¼´": 8069,
      "è¿°": 8070,
      "çıį": 8071,
      "å»·": 8072,
      "ĠCO": 8073,
      "é¼ĵ": 8074,
      "æ¨ªæµľ": 8075,
      "å»£å·ŀ": 8076,
      "ĠëĶĶì§ĢíĦ¸": 8077,
      "EM": 8078,
      "ĠìŀŃ": 8079,
      "ãģŁãĤįãģĨ": 8080,
      "ĠëĤ´ìļ©": 8081,
      "ĠìŀĪëĬĶëį°": 8082,
      "éĻµ": 8083,
      "éĻĦ": 8084,
      "íķĺëĬĶê±°ìķ¼": 8085,
      "åŁ¹": 8086,
      "ëĭ¹íŀĪ": 8087,
      "ĠSP": 8088,
      "ç¹¼": 8089,
      "å¤ĸç¨İ": 8090,
      "æ¦Ĥ": 8091,
      "ìĤ·": 8092,
      "æķ´åĢĭ": 8093,
      "íĸĪëĭ¤ê³łëıĦìļĶ": 8094,
      "ì§«": 8095,
      "ä¸°": 8096,
      "ãģ«ãģ¦": 8097,
      "ãĤĴä½¿": 8098,
      "...\"": 8099,
      "å±Ī": 8100,
      "å¼¾": 8101,
      "Ġì£½ìĿĢ": 8102,
      "ĠìłķíĻķ": 8103,
      "Ġê±´ê°ķ": 8104,
      "Ġê½ĥ": 8105,
      "éĽĸçĦ¶": 8106,
      "nd": 8107,
      "ry": 8108,
      "ĠåįĹ": 8109,
      "ãģ®ãģŁãĤģ": 8110,
      "ìĸ´ëıĦ": 8111,
      "ãģĻãģ¹ãģ¦": 8112,
      "ç©¿": 8113,
      "èĬ½": 8114,
      "è¼¸": 8115,
      "æľĢé«ĺ": 8116,
      "ä¸»èĲ¥": 8117,
      "Ġëª©ìĪ": 8118,
      "Ġë°ľìĿĮ": 8119,
      "è§£æ±º": 8120,
      "è¨ĵéįĬ": 8121,
      "Ġê³łíĨµìĿĦ": 8122,
      "ãĤ¤ãĥĻãĥ³ãĥĪ": 8123,
      "ly": 8124,
      "ï¼¯": 8125,
      "ëł¿": 8126,
      "ëĵ¤ìĹ¬": 8127,
      "å¹£": 8128,
      "èĢķ": 8129,
      "ãĥªãĥĥ": 8130,
      "Ġì¢ĭì§Ģ": 8131,
      "ç¬ł": 8132,
      "è®°": 8133,
      "ĠëħĢ": 8134,
      "Ġë¯¸ëŀĢìĿĢ": 8135,
      "å¾ħãģ¡": 8136,
      "æĮĩå®ļ": 8137,
      "å¨ģè¦º": 8138,
      "éĹľä¿Ĥ": 8139,
      "Ġëį°ìĿ´ë¹Ħ": 8140,
      "çĬ¶æħĭ": 8141,
      "ĠìĤ¬ëĿ¼ìł¸": 8142,
      "éĢĻäºĽåŃĹ": 8143,
      "ëıĮìķĦê°Ģ": 8144,
      "Ġê±°ì§ĵë§Ĳ": 8145,
      "Ġë¹ĦìĽĥìĿĦ": 8146,
      "æµħ": 8147,
      "ãģ¶ãĤįãģĨ": 8148,
      "ĠíĿ¥": 8149,
      "ì¯ķ": 8150,
      "Ġë¶ĪëłĢëĭ¤": 8151,
      "ĠíİĺìĿ´ìĬ¤": 8152,
      "ĠíĶĮë¡ľë¦¬ëĭ¤": 8153,
      "NOW": 8154,
      "ãģĦãģĮ": 8155,
      "Ġê·¸ë¦¬": 8156,
      "ĠìĹ¬ê²¼ëĭ¤": 8157,
      "ãĤ¤ãĥ¤": 8158,
      "Ġëĭ¹ìĦł": 8159,
      "ë¬´ë¶Ģ": 8160,
      "åŁ·": 8161,
      "ĠíĿĺ": 8162,
      "ãĥ©ãĥ³ãĤ¹": 8163,
      "ãģĤãģªãģŁãģ®": 8164,
      "Ġë¯¼ì£¼ëĭ¹ìĿĦ": 8165,
      "å¤±æķĹ": 8166,
      "çĬ¶æ³ģ": 8167,
      "ìĸ´ëĤĺ": 8168,
      "ãģĹãģ¦ãģŁ": 8169,
      "íĥĳ": 8170,
      "æľīäºº": 8171,
      "ĠíĽĦìĹĲ": 8172,
      "Ġì¡°ì¹´": 8173,
      "ãĥĹãĥ«": 8174,
      "æĤł": 8175,
      "ìŀĳìĿĦ": 8176,
      "íı¿": 8177,
      "íļŁ": 8178,
      "150": 8179,
      "ARD": 8180,
      "ä¸¼": 8181,
      "ĠëĤĺë³´ëĭ¤": 8182,
      "ìĭľíĤ¤": 8183,
      "ĠìĿ¼ìĿ´ìķ¼": 8184,
      "ãģªãģĦãģ®": 8185,
      "ê²łìĨĮ": 8186,
      "å¼Ħ": 8187,
      "åħ¥ãĤĮ": 8188,
      "ìłķìĿĢ": 8189,
      "åĿĲ": 8190,
      "ĠíĶĦëłĮ": 8191,
      "çĦ¡è«ĸ": 8192,
      "ĠìĿ´ë¦ĦìĿ´": 8193,
      "ëķŁ": 8194,
      "Ġê·¸ë§Įíķ´ìļĶ": 8195,
      "ĠëĬĻìĿĢ": 8196,
      "è²©å£²": 8197,
      "ĠëħĢìĦĿ": 8198,
      "IA": 8199,
      "ãĢĪ": 8200,
      "Ġê²ĥìľ¼ë¡ľ": 8201,
      "ìŀ¥ìĹĲ": 8202,
      "Ġ15": 8203,
      "åħ¥ãĤĬ": 8204,
      "ĠìłĢíķŃ": 8205,
      "è¡Įãģ£ãģ¦": 8206,
      "ãģĸãģĦ": 8207,
      "ãĥĢãĥ¼": 8208,
      "è´¹": 8209,
      "è¨ĺå¿µ": 8210,
      "ĠìĻĢìļĶ": 8211,
      "ãģĦãģ¡ãĤįãģĨ": 8212,
      "ĠìĹ¬ìŀĲìķłë¥¼": 8213,
      "ĠìŀĬì§Ģ": 8214,
      "ĠìŁ¤ëĬĶ": 8215,
      "ĠëĦĪíĿ¬ëĵ¤ìĿ´": 8216,
      "Ġìĺ¬ëĿ¼ìĻĢ": 8217,
      "SO": 8218,
      "Ġæ°´": 8219,
      "ê°Ģë¥¼": 8220,
      "ëĤłìĿ´": 8221,
      "ë¡ľì§Ģ": 8222,
      "ëĵ¤ìĿ¼": 8223,
      "ëĵ¤ìĺĢ": 8224,
      "åı«": 8225,
      "è²¨": 8226,
      "ìľ¼ë¡ľìĦľ": 8227,
      "æĬ¤": 8228,
      "èĥŀ": 8229,
      "ç«¶": 8230,
      "é¨İ": 8231,
      "Ġ200": 8232,
      "139": 8233,
      "ĠìķĮìķĦìĦľ": 8234,
      "Ġê°ĢëĬ¥íķł": 8235,
      "ĠìĤ¬ìĿ¸íķĺê³ł": 8236,
      "íķĺìŀĸìķĦ": 8237,
      "æĹº": 8238,
      "æĹĹ": 8239,
      "è¨º": 8240,
      "ĠìłĢê¸°ë¡ľ": 8241,
      "ì¹ĺê³ł": 8242,
      "ĠëĤľíıŃ": 8243,
      "æĸ°ãģĹãģĦ": 8244,
      "ç¿Į": 8245,
      "è¨ĪåĬĥ": 8246,
      "ĠìŀĲìĭłìĿ´": 8247,
      "Ġìī½": 8248,
      "Ġë¨¹ìĸ´ëĿ¼": 8249,
      "if": 8250,
      "¬ë¦¬": 8251,
      "ãĤĻ": 8252,
      "äºĢ": 8253,
      "å®´": 8254,
      "ç¬¦": 8255,
      "ĠìķĦìĿ´ëĬĶ": 8256,
      "çī©ãģ®": 8257,
      "åĬłçĽŁ": 8258,
      "Ġìŀ¥ë¹Ħë¥¼": 8259,
      "ĠíĸīëıĻ": 8260,
      "å¸°ãĤĬ": 8261,
      "ĠìĦ¸ìĥģìĿ´": 8262,
      "ãģ«ãĤĪãĤĭ": 8263,
      "ĠìķĦë¦Ħëĭµëĭ¤ê³ł": 8264,
      "ãģĮãģ£": 8265,
      "ãĤıãĤĵ": 8266,
      "Ġì§Ģê»Ħ": 8267,
      "ì¹Ļ": 8268,
      "åĽ¢": 8269,
      "ä¼ı": 8270,
      "ç¨ħ": 8271,
      "Ġì£½ìĿ´ëĬĶ": 8272,
      "ç¸®": 8273,
      "ãģ¸ãģ¸": 8274,
      "Ġë°©ìĹĲ": 8275,
      "ART": 8276,
      "åĭĿåĪ©": 8277,
      "ĠJUST": 8278,
      "ãģĬéłĲãĤĬ": 8279,
      "AA": 8280,
      "ok": 8281,
      "ĠíĮĢ": 8282,
      "ï¼ħ": 8283,
      "ãģĨãģ¾": 8284,
      "æĹ¦": 8285,
      "åĨĴ": 8286,
      "ìľ¼ë¡ľëĬĶ": 8287,
      "åĳª": 8288,
      "ãģĵãģ¨ãĤĤ": 8289,
      "ĠìĽĮ": 8290,
      "łìĿ´ëĭ¤": 8291,
      "ĠëķĮë¬¸ìĿ´ìĹĪëĭ¤": 8292,
      "è¦ģæ±Ĥ": 8293,
      "åĢĭäºº": 8294,
      "ĠCOM": 8295,
      "ãĥ¢ãĥİ": 8296,
      "éŀĭ": 8297,
      "IME": 8298,
      "å¥ĳç´Ħ": 8299,
      "ãģĨãģĪ": 8300,
      "ãģ«ãģĦ": 8301,
      "ãģ«ãģĭ": 8302,
      "ĠìŀĪìľ¼": 8303,
      "ĠìĿ´ê¸¸": 8304,
      "Ġëıķ": 8305,
      "ãĤĦãģı": 8306,
      "ãĤ¤ãĥ¬": 8307,
      "ä¸Ńãģ«": 8308,
      "æĬ±": 8309,
      "åĳ¢": 8310,
      "ìĤ¬ë§Ī": 8311,
      "åŁľ": 8312,
      "æŁ±": 8313,
      "ãģĦãģĦãĤĪ": 8314,
      "ì¶ĺ": 8315,
      "ãĤĵãģ§ãĤĵ": 8316,
      "ä¿¡ãģĺ": 8317,
      "Ġìĭ¸ìĽłëĭ¤": 8318,
      "èĩªåĪĨãģĮ": 8319,
      "Ġë³µìĭ±": 8320,
      "ĠíİĺìĿ´ìĬ¤ë¶ģ": 8321,
      "ìĺµ": 8322,
      "çĽĹ": 8323,
      "æ®Ĭ": 8324,
      "èĳ¬": 8325,
      "Ġì¶¤": 8326,
      "Ġëĭ¬ëĿ¼": 8327,
      "ì¿Ļ": 8328,
      "ĠìĻ¸ë¬´ë¶Ģ": 8329,
      "www": 8330,
      "65": 8331,
      "ĠåĮĹ": 8332,
      "Ġre": 8333,
      "éĽľ": 8334,
      "ãĥĳãĥĳ": 8335,
      "çĪ¾": 8336,
      "........": 8337,
      "ãĤºãĤº": 8338,
      "ĠNO": 8339,
      "ë¿ĲìĿ´": 8340,
      "ì¤ĺìĦľ": 8341,
      "ĠìĿ´ë³µ": 8342,
      "Ġìĸ¬": 8343,
      "å¤§äºĭ": 8344,
      "ä¸Ńãģ®": 8345,
      "ĠìķĬìľ¼": 8346,
      "ìļ°ë¦°": 8347,
      "ãĥŀãĥ«": 8348,
      "æº«": 8349,
      "çĦ¡æĸĻ": 8350,
      "ìĩ¡": 8351,
      "çĽ¸è«ĩ": 8352,
      "è¿ĳä»£": 8353,
      "ĠëĬĲëģ¼": 8354,
      "åĥķãģ®": 8355,
      "åıªæľī": 8356,
      "ãģ£ãģ¡ãĤĥãģ£ãģŁ": 8357,
      "íīħ": 8358,
      "ĠëĥĦìĥĪê°Ģ": 8359,
      "ĠëĨĢëŀįêµ°": 8360,
      "áĩ": 8361,
      "ê°ĳ": 8362,
      "Ġì§ĢëıĦ": 8363,
      "åĬ´": 8364,
      "Ġë³´ìĿ´ëĬĶ": 8365,
      "Ġ11": 8366,
      "ç·£": 8367,
      "Ġë¶Īëł¸ëĭ¤": 8368,
      "å·¥åħ·": 8369,
      "ĠëģĿëĤĺê³ł": 8370,
      "ĠìĥĿê²¼ê³ł": 8371,
      "ĠìĿ´ë³µíĺķìłľ": 8372,
      "ĠæĹ¥": 8373,
      "äºī": 8374,
      "ãģ©ãĤĮ": 8375,
      "ĠìķĬëĭ¤": 8376,
      "ç¤İ": 8377,
      "ìŁĩ": 8378,
      "èıħ": 8379,
      "ëĳĳíİķìĸŃ": 8380,
      "æģĴ": 8381,
      "ãĤ¬ãĥģãĥ£": 8382,
      "ĠíĽĦìĦłìĥĿ": 8383,
      "ëįĶëĿ¼": 8384,
      "èĶ£": 8385,
      "Ġê·¸ëħĢì¡°ì°¨": 8386,
      "ìľłë²łìĿ´íİĺìĿ´": 8387,
      "íĽµ": 8388,
      "Ġë¶Ļë°ķìĿ´": 8389,
      "Ġë°ľìĥĿ": 8390,
      "ì¥¬": 8391,
      "ìħ¨ìĸ´ìļĶ": 8392,
      "Ġìľłë²łìĿ´íİĺìĿ´ëĿ¼ê³ł": 8393,
      "Ġë¥ĺìĿ´ì¿łìĿ´ëĭ¤": 8394,
      "Ġìį©ìĹĪìĸ´": 8395,
      "Ġë°ľìĿĮëĲľëĭ¤": 8396,
      "ãģªãģİ": 8397,
      "ãģĤãĤĦ": 8398,
      "å¤´": 8399,
      "ãģįãģŁãģĦ": 8400,
      "å¹»": 8401,
      "ìķĺëĭ¤": 8402,
      "ç¨Ģ": 8403,
      "ĠíĽ¨": 8404,
      "ĠíķľêµŃ": 8405,
      "æĤĶ": 8406,
      "ĠìĦľë¥ĺ": 8407,
      "åħ¨çĦ¶": 8408,
      "Ġì£½ìĹĪê½ľ": 8409,
      "Ġëª°ëŀĺ": 8410,
      "æĪ°æĻĤ": 8411,
      "çĤ¹æķ°": 8412,
      "æķ£æĸĩ": 8413,
      "ĠíĶĦëłĮëĵľ": 8414,
      "æĺ¯æĺ¯": 8415,
      "ëĳĶ": 8416,
      "ĠìĦŃ": 8417,
      "åľ¨éĢĻ": 8418,
      "Ġì¡°ê¸Ī": 8419,
      "Ġë§ĮëĤ¬": 8420,
      "èĩªèº«": 8421,
      "Ġê²½íĹĺ": 8422,
      "æ¼Ĩ": 8423,
      "ãĤĨãģ¿": 8424,
      "ãĥĬãĥĬ": 8425,
      "ĠëĪĪìķŀ": 8426,
      "ick": 8427,
      "Ġê³¼ê±°": 8428,
      "Ġë¸Ķ": 8429,
      "Ġìŀ¬ëĬ¥ìĿ´": 8430,
      "ï¾": 8431,
      "ãģ¯ãĥ¼": 8432,
      "ê¸°ìĹĲ": 8433,
      "ãĤıãĤĮ": 8434,
      "æĹģ": 8435,
      "è²ŀ": 8436,
      "èĤ¡": 8437,
      "æ·ĭ": 8438,
      "éĢĻæ¨£": 8439,
      "ç¸«": 8440,
      "æħ§": 8441,
      "Ġìĥģëĭ¹íŀĪ": 8442,
      "èĦļ": 8443,
      "Ġì£½ìĹĪìĿĦê±°ìķ¼": 8444,
      "çĻ¼å±ķ": 8445,
      "Ġìĺ¨íĨµ": 8446,
      "ĠëĮĢíĨµëł¹ì§ģ": 8447,
      "ĠUP": 8448,
      "Ġìĭłë¶ĢëĭĺìĿĢ": 8449,
      "ãĤ¢ãĥĭãĥ¡": 8450,
      "mov": 8451,
      "ãģįãĤĪ": 8452,
      "åįĴ": 8453,
      "ãĤ¹ãĤ±": 8454,
      "Ġìĭľê³Ħê°Ģ": 8455,
      "ãĥ¼ãĥĴ": 8456,
      "ĠìľĦíĺĳ": 8457,
      "æ®ĸ": 8458,
      "Ġì§Ħìĭ¬": 8459,
      "äºĨä¸Ģ": 8460,
      "ĠìĿ¼ìĸ´ëĤĺê¸°": 8461,
      "éłĺåıİæĽ¸": 8462,
      "Ġë¶ĪëŁ¬ëĵ¤ìĺĢ": 8463,
      "Ġì±±ëĳĳíİķìĸŃ": 8464,
      "hin": 8465,
      "Ġéķ·": 8466,
      "ãģŁãģŁ": 8467,
      "åľ§": 8468,
      "éĢı": 8469,
      "æľīåĬ¹": 8470,
      "ìļ°ìĦł": 8471,
      "Ġë¬´ê³ł": 8472,
      "ãĥ¡ãĥ³ãĥĪ": 8473,
      "æĩ¸": 8474,
      "çĸ¾": 8475,
      "íıĲ": 8476,
      "æķĻãģĪãģ¦": 8477,
      "ĠìĹ´ê³ł": 8478,
      "ê½ĳ": 8479,
      "âĶĢâĶĢâĶĢ": 8480,
      "ĠíĦ¸": 8481,
      "å¢ŀåĬł": 8482,
      "ç»ıèĲ¥": 8483,
      "ĠìĻĦë²½íķľ": 8484,
      "ĠìķĦëĭĻ": 8485,
      "CK": 8486,
      "¿ìķĦ": 8487,
      "ĠãĤ³": 8488,
      "ĠãĤĦãģ¾": 8489,
      "ĠìĿ´íĥĪ": 8490,
      "Ġê±°ëĭ¤": 8491,
      "Ġíķ´ìĦľ": 8492,
      "çĶŁå¾Ĵ": 8493,
      "HEN": 8494,
      "çĥ§": 8495,
      "ì©§": 8496,
      "ãģ§ãģįãģŁ": 8497,
      "ìĬ·": 8498,
      "ãģ¨ãģĹãģŁ": 8499,
      "ëį¯": 8500,
      "ĠìķĮê²Į": 8501,
      "è©°": 8502,
      "Ġì£½ìĹĪëĭ¤": 8503,
      "çİ©": 8504,
      "ãģµãĤĵ": 8505,
      "ãģĿãģĨãģĭ": 8506,
      "ĠëıĦëĳĳëĵ¤ìĿĢ": 8507,
      "OUN": 8508,
      "èĽĭ": 8509,
      "ATE": 8510,
      "ê¾º": 8511,
      "èº«ä½ĵ": 8512,
      "Ġê·¸ëŀ¬ëįĺ": 8513,
      "ëĸ»ê²Į": 8514,
      "ĠëĤ«": 8515,
      "ĠìĹī": 8516,
      "ĠìŀĪëĭ¨": 8517,
      "ãģĪãĤĬ": 8518,
      "ãĤ¹ãĤ«": 8519,
      "åĩºãģĹãģ¦": 8520,
      "ĠAS": 8521,
      "æ½°": 8522,
      "ãĥĢãĥĢ": 8523,
      "Ġë¶Īê°ĢëĬ¥íķĺ": 8524,
      "ç´ĦæĿŁ": 8525,
      "ĠìĹĲìĬ¤": 8526,
      "ãģĿãģĵãģ§": 8527,
      "UMP": 8528,
      "Ġë°ľê²¬íķľ": 8529,
      "Ġï½ŀ": 8530,
      "ìĦ¯": 8531,
      "ãĤĴãģĶ": 8532,
      "Ġíķĺë£¨": 8533,
      "ä¸įåĲĮ": 8534,
      "å¼ĵ": 8535,
      "ĠìłĢê±°": 8536,
      "ãģļãģ«": 8537,
      "è·Ŀ": 8538,
      "ãĥıãĤ¡": 8539,
      "ç±ł": 8540,
      "æĶ¿çŃĸ": 8541,
      "èĴ¸": 8542,
      "are": 8543,
      "ëĴĢ": 8544,
      "ãĥ´ãĤ¡": 8545,
      "ìĭŃìĭľìĺ¤": 8546,
      "Ġê¸ģìĸ´": 8547,
      "Ġê¸Īìķ¡ìĿĺ": 8548,
      "ãģĦãģĪãģ°": 8549,
      "æīĺ": 8550,
      "å¤§äºº": 8551,
      "Ġì£½ê²Į": 8552,
      "Ġê·¸ëłĩëĭ¤ê³ł": 8553,
      "å®¶ãģ®": 8554,
      "èĵ®": 8555,
      "é©ļ": 8556,
      "ãĥĶãĥĥ": 8557,
      "est": 8558,
      "ICE": 8559,
      "Ġíĸīë³µ": 8560,
      "ĠëĤĺëĿ¼ìĹĲ": 8561,
      "02": 8562,
      "Ġãģĺ": 8563,
      "ì§Ģê³ł": 8564,
      "íķĺìĭ¤": 8565,
      "Ġê²©": 8566,
      "å¤§åĪ©": 8567,
      "ç·ł": 8568,
      "çŃĴ": 8569,
      "èĹ¥": 8570,
      "è®¡": 8571,
      "èĻŁ": 8572,
      "ĠWOR": 8573,
      "ç«ĭãģ¡": 8574,
      "ëł¥ê³¼": 8575,
      "ĠìĿ´ìĥģìĿ´ëĿ¼ëĬĶ": 8576,
      "ĠíĻįìĪĺ": 8577,
      "ĠãģįãĤĩãģĨ": 8578,
      "ãģĬãĤĬãģ¾ãģĻ": 8579,
      "ãĥĹãĥ¬ãĤ¼": 8580,
      "Ġëį°ìĿ´íĬ¸íĸĪì§Ģ": 8581,
      "Ġì£½ìĹĪê½ľëĤĺ": 8582,
      "Ġon": 8583,
      "ĠãģįãģŁ": 8584,
      "æĺ¼": 8585,
      "ä¸Ģéĥİ": 8586,
      "ãĥ«ãĥī": 8587,
      "Ġë²Ĺ": 8588,
      "è¿Ľ": 8589,
      "ì¹ĺë¥¼": 8590,
      "åķĵ": 8591,
      "å¢ĵ": 8592,
      "é«ĺæł¡": 8593,
      "ãģ¡ãĤĥãĤĵãģĮ": 8594,
      "å¦Ĥä½ķ": 8595,
      "AME": 8596,
      "èª²ç¨ĭ": 8597,
      "åĬ¹æŀľ": 8598,
      "çĻ»éĮ²çķªåı·T": 8599,
      "ìħĶìĦľ": 8600,
      "ĠëĮĢëĭ¨íķĺëĭ¤ê³ł": 8601,
      "ĠìĤ¼ì´Į": 8602,
      "120": 8603,
      "ĠìĨĶì§ģíŀĪ": 8604,
      "ãĤ¢ãĥ¬": 8605,
      "ãĤ·ãĤ¹ãĥĨ": 8606,
      "ìĨĮë¦¬": 8607,
      "ìĨĮìĤ¬": 8608,
      "æŁı": 8609,
      "æīĭãĤĴ": 8610,
      "éĹĺ": 8611,
      "Ġë¹¨ëĿ¼": 8612,
      "ì·¨": 8613,
      "ĠìĪĺìĹħìĿĦ": 8614,
      "ĠëĬĲëĤĢ": 8615,
      "ë·´": 8616,
      "AYS": 8617,
      "ãĥķãĤ¡ãĥ³": 8618,
      "ãĤ³ãĥŁãĥ¥": 8619,
      "85": 8620,
      "ĢìĿĢ": 8621,
      "Ġê·¸ìķł": 8622,
      "åĲ¾": 8623,
      "å·¨": 8624,
      "ãģ°ãģŁ": 8625,
      "éļ¨": 8626,
      "ì§Ħì§ľ": 8627,
      "ĠíķĺëĤĺìĿĺ": 8628,
      "ĠBY": 8629,
      "ãĤ®ãĥĥ": 8630,
      "ì¯¤": 8631,
      "ãģĵãģĵãģ¯": 8632,
      "ä»ĬåĽŀãģ¯": 8633,
      "ãģªãģĳãĤĮãģ°": 8634,
      "ãģŁãĤĭ": 8635,
      "Ġìĸ´ì°Į": 8636,
      "ãģ£ãģ¦ãģĦãģŁ": 8637,
      "ìŀ¥ê³¼": 8638,
      "ìŀ¥ëĭĺ": 8639,
      "åŃĲãģ®": 8640,
      "çĲ´": 8641,
      "è¬¹": 8642,
      "æħ®": 8643,
      "èĹĿ": 8644,
      "åĨħç¨İ": 8645,
      "ãĥĭãĥ¥": 8646,
      "èĢĮä¸į": 8647,
      "ĠìķĦë¬´ê²ĥëıĦ": 8648,
      "ĠêµŃê°Ģ": 8649,
      "ĠëĮĢíĻĶë¥¼": 8650,
      "Ġì²¬ë¦¬ê°Ģ": 8651,
      "ìĿ´ëĵł": 8652,
      "ìķĿ": 8653,
      "ï¼ķ": 8654,
      "ë¦¿": 8655,
      "ëĵ±": 8656,
      "Ġíķµ": 8657,
      "äº«": 8658,
      "ãĤĪãģĦ": 8659,
      "å¤§åĪĩ": 8660,
      "ì°¹": 8661,
      "ä¾ĳ": 8662,
      "éľĩ": 8663,
      "æ»ĳ": 8664,
      "è¯ģ": 8665,
      "åŀĤ": 8666,
      "ãģĹãĤĩãģı": 8667,
      "Ġì»¸": 8668,
      "ãģªãģ©ãģ®": 8669,
      "Ġì§ĵìĿ´ìķ¼": 8670,
      "ëŀįëĭĪëĭ¤": 8671,
      "Ġê°Ĳìĺ¥ìĹĲ": 8672,
      "ĠìĿ´ê¸´ëĭ¤ë©´": 8673,
      "¼ìĸ´": 8674,
      "ãĤ¤ãĥĥ": 8675,
      "ìĻķ": 8676,
      "Ġìĺ¤ë°Ķë§Ī": 8677,
      "Ġìĺ¤ë¡ľì§Ģ": 8678,
      "ãĤ¯ãĥ«": 8679,
      "åīª": 8680,
      "ãĥķãĥ«": 8681,
      "çł²": 8682,
      "éĹĩ": 8683,
      "å´©": 8684,
      "ĠëĲłê±°ìķ¼": 8685,
      "ì¼Ģ": 8686,
      "ĠíĹ¤": 8687,
      "ãģĿãĤĵãģªãģĵãģ¨": 8688,
      "ãĢľãĢľãĢľ": 8689,
      "äºĪç´Ħ": 8690,
      "Ġë³ĢíĸĪëĭ¤ë¦ĺ": 8691,
      "Ġì¿ł": 8692,
      "ĠìĿ´ëģĮëł¤": 8693,
      "ĠìĭŃìŀĲê°Ģ": 8694,
      "BUT": 8695,
      "ëŁ²": 8696,
      "åį¡": 8697,
      "ìĬµëĭĪê¹Į": 8698,
      "åºı": 8699,
      "ĠìĭľíĹĺ": 8700,
      "åĭĺ": 8701,
      "ãĥĲãĥª": 8702,
      "èıĬ": 8703,
      "ĠìĹ¬ìŀĲëıĦ": 8704,
      "ĠíĽĦë¡ł": 8705,
      "çľŁæĺ¯": 8706,
      "Ġê¼¼": 8707,
      "ëľ¼": 8708,
      "ĠìĭľìĦłìĿ´": 8709,
      "å¿ħãģļ": 8710,
      "ëĦĪìĬ¤": 8711,
      "å¾·åľĭ": 8712,
      "Ġì¸±ë¦¬ê³ł": 8713,
      "ãģıãģĿ": 8714,
      "åıĮ": 8715,
      "ãģ£ãģ¦ãģĦãģĨ": 8716,
      "ãģĳãģªãģĦ": 8717,
      "åį«": 8718,
      "ĠíķĺëĭĪê¹Į": 8719,
      "æŃĲ": 8720,
      "ĠëĮĢíķ´ìĦľ": 8721,
      "ãĥģãĥ³": 8722,
      "èģļ": 8723,
      "è¬Ģ": 8724,
      "ĠìĽĢ": 8725,
      "ãģĦãģĦãģ®": 8726,
      "Ġê³µë¶Ģ": 8727,
      "ì¼°ìĸ´": 8728,
      "ant": 8729,
      "ë²Ħëł¸ê³ł": 8730,
      "å¹³æĪĲ": 8731,
      "ãģĹãģĭãĤĤ": 8732,
      "éĢ£ãĤĮãģ¦": 8733,
      "æ¡ĪåĨħ": 8734,
      "ĠëĢĶ": 8735,
      "æĽľæĹ¥": 8736,
      "ãģĶãĤģãĤĵãģªãģķãģĦ": 8737,
      "ĠìŀĬìĸ´ë²Ħëł¤": 8738,
      "ĠíĽ¨ìĶ¬": 8739,
      "åı¶": 8740,
      "éģ£": 8741,
      "éģ¿": 8742,
      "ãĤ¯ãĤ¹": 8743,
      "å¿Ļ": 8744,
      "ĠíĺĲ": 8745,
      "ç´¯": 8746,
      "è²°": 8747,
      "Ġë¯¸ëŀĺ": 8748,
      "åľĭæ°ĳ": 8749,
      "ë¶Ģìĭľ": 8750,
      "ç¦®": 8751,
      "ãĤ°ãĥª": 8752,
      "è®ļ": 8753,
      "åħ¨åľĭ": 8754,
      "èĦ³": 8755,
      "íĳĪ": 8756,
      "180": 8757,
      "ê¶Ĩ": 8758,
      "ãĥĴãĥ¥": 8759,
      "ãģĵãĤĵãģªãģ«": 8760,
      "å¹¿åĳĬ": 8761,
      "ç´¹ä»ĭ": 8762,
      "ãģ«ãģĦãĤĭ": 8763,
      "ëĵ¤ë¶ĢíĦ°": 8764,
      "æĺ¯è©±": 8765,
      "å¤§éĺª": 8766,
      "ĠìķĬìŀĸìķĦ": 8767,
      "ç´Ľ": 8768,
      "ãĤ·ãĤ§": 8769,
      "ãĥīãĥ©": 8770,
      "ãĤ¸ãĤ¸": 8771,
      "íĤº": 8772,
      "Ġë¹ĦìĬ·": 8773,
      "ç²¥": 8774,
      "ãĥĨãĥ«": 8775,
      "çĭ¬": 8776,
      "çĭĻ": 8777,
      "ĠëĲłê¹ĮìļĶ": 8778,
      "èħķ": 8779,
      "ãģĦãģ¦ãĤĭ": 8780,
      "åĻ¨çī©": 8781,
      "éĤĦæĺ¯": 8782,
      "Ġê·¸ëŀ¬ìŀĸìķĦ": 8783,
      "ĠìŀĲë¬¼ìĩłê°Ģ": 8784,
      "Ġëĭ¹ìĭľìĹĲëĬĶ": 8785,
      "ãģĬè²·ä¸Ĭ": 8786,
      "ãĤ·ãĤ¹ãĥĨãĥł": 8787,
      "±ìłķ": 8788,
      "ìł¤": 8789,
      "åħļ": 8790,
      "æĺ¯å¤§": 8791,
      "Ġëĭ®": 8792,
      "ëį¦": 8793,
      "åĲĬ": 8794,
      "ë°Ń": 8795,
      "ë¥´ëĭ´": 8796,
      "çķ¢": 8797,
      "Ġì¡°ìĭł": 8798,
      "Ġê±¸ìŀĲë§ĪìŀĲ": 8799,
      "è¨ĢãģĦ": 8800,
      "å´ĩ": 8801,
      "éľŀ": 8802,
      "å¡Ĺ": 8803,
      "éĽ»åŃĲ": 8804,
      "ĠGET": 8805,
      "ëĭ¹ìĭłìĿĢ": 8806,
      "Ġìĭłë¶Ģëĭĺ": 8807,
      "ĠìĥģíĻ©ìĿĦ": 8808,
      "COM": 8809,
      "Ġê·¸ëķĮ": 8810,
      "ä¸Ģä½ĵ": 8811,
      "ìĿ¼ìĿĦ": 8812,
      "åĩºæľª": 8813,
      "ĠêµŃê²½": 8814,
      "ĠìĹ¬ìŀĲìķłëĬĶ": 8815,
      "æ¨Ļæºĸ": 8816,
      "ç·´ç¿Ĵ": 8817,
      "ĠëĤ¡ìĿĢ": 8818,
      "ĠìłĢíķŃíķł": 8819,
      "íķĺê²łëĭ¤": 8820,
      "ĠìĿ´ë¹": 8821,
      "ãģĬåħĦ": 8822,
      "æĻĥ": 8823,
      "ä¼°": 8824,
      "ç§Ĵ": 8825,
      "ìĿĮìĶ¨": 8826,
      "ê°ľìĽĶ": 8827,
      "Ġë§ŀëĭ": 8828,
      "Ġê·¸ëħĢìĹĲ": 8829,
      "ì¼¬": 8830,
      "Ġêµ¬ë£¨": 8831,
      "æĦıèŃĺ": 8832,
      "0001": 8833,
      "Ġìĭ¸ìĽłê³ł": 8834,
      "ï½ŀï½ŀï½ŀ": 8835,
      "Ġì¤Ħë¦¬ìķĦë§ĮìĿĦ": 8836,
      "ĠìĿĺë¯¸ëĬĶ": 8837,
      "ĠíĻķë¥łìĿĢ": 8838,
      "éĵ¶è¡Į": 8839,
      "St": 8840,
      "ãģĦãģ¨": 8841,
      "ãģ®ä¸Ĭ": 8842,
      "Ġê·¸ìłĦìĹĲ": 8843,
      "...?": 8844,
      "éĽ·": 8845,
      "ãģĹãģ¦ãģĦãģ¾ãģĻ": 8846,
      "Ġì£¼ìĦ¸ìļĶ": 8847,
      "ãĤªãĥ¼": 8848,
      "ĠTE": 8849,
      "ëªħìĿĦ": 8850,
      "é¦¨": 8851,
      "ãģĵãģ®ãģ¾ãģ¾": 8852,
      "ãĤ¬ãĤŃ": 8853,
      "åħ¨ãģ¦": 8854,
      "éĬĥ": 8855,
      "åĽĽå¹´": 8856,
      "ãĤĪãĤĬãĤĤ": 8857,
      "åį°ãģ¯è»½æ¸Ľç¨İçİĩ": 8858,
      "Ġì¤ĺìļĶ": 8859,
      "ê³µìĿ´": 8860,
      "Ġëĵ¤ìĹĪìĸ´ìļĶ": 8861,
      "íĺĦìŀ¬": 8862,
      "ì¶ķíķĺëĬĶ": 8863,
      "Ġë°ķìĤ¬": 8864,
      "Ġêµ¬ë£¨ë¬´": 8865,
      "BI": 8866,
      "ĠëĤ³": 8867,
      "Ġë§¥": 8868,
      "ëŀĦ": 8869,
      "æľ¯": 8870,
      "ãĤĴãģĭ": 8871,
      "ä¹±": 8872,
      "ãĤ¯ãĤ¿ãĥ¼": 8873,
      "èī¾": 8874,
      "Ġíķłê±°ìķ¼": 8875,
      "æ§į": 8876,
      "ëł¸ìĸ´ìļĶ": 8877,
      "èĢħãģĮ": 8878,
      "ĠSHE": 8879,
      "ĠíĸĩíķĦëĵľ": 8880,
      "ĠëģĦê³ł": 8881,
      "çŁ¥ãģ£ãģ¦ãĤĭ": 8882,
      "ãģ®ãģĭãģª": 8883,
      "Ġíľĺ": 8884,
      "éĢ±åĪĬ": 8885,
      "ĠìĿ´ë´ĲìļĶ": 8886,
      "Ġìĸĩê²Į": 8887,
      "Ġì£½ìĹĪëĭ¤ëįĶêµ°": 8888,
      "Ġë§ŀëĭ¿ìķĦ": 8889,
      "åį·": 8890,
      "ä¹Ļ": 8891,
      "ì°½": 8892,
      "ãĥ¼ãĥį": 8893,
      "ãĤ«ãĥ©ãĥ¼": 8894,
      "ãĤŃãĤ¹": 8895,
      "Ġëĵ¤ìĸ´ìĻĢ": 8896,
      "æĤ¨": 8897,
      "éŁĵ": 8898,
      "æľªæĿ¥": 8899,
      "å¡Ĭ": 8900,
      "ĠìķĬìķĺëĤĺ": 8901,
      "ãĥĩãĤ¶": 8902,
      "çħĻ": 8903,
      "ĠëĪĪë¶Ģìĭľ": 8904,
      "ãħľ": 8905,
      "Ġíķ¨ì¶ķíķĺëĬĶ": 8906,
      "ĠDON": 8907,
      "æľŁéĻĲ": 8908,
      "ĠëķĲ": 8909,
      "Ġìĥģìĥģëł¥ê³¼": 8910,
      "Ġìĭ«ëĮĢ": 8911,
      "Ġê²°ìłķ": 8912,
      "Ġì¶ľë°ľ": 8913,
      "ãģ²ãģ¨ãģ¤": 8914,
      "ĠëģĿëĤĺë²Ħëł¸ê³ł": 8915,
      "Ġë¶ĢíĥģíķĺëĬĶê±´": 8916,
      "ãģ¨ãģ«ãģĭãģı": 8917,
      "Ġë¬´ìĸ¸ê°ĢìĹĲ": 8918,
      "ãģĬãĤģãģ§": 8919,
      "Ġìĭ¬ê°ģíķĺêµ°": 8920,
      "Ġë§¤ëł¥ìĹĲëĬĶ": 8921,
      "ĠëĪĪìķŀìĹĲëĬĶ": 8922,
      "ãģ¢": 8923,
      "ìĹı": 8924,
      "ìĿ¸ì§ĢëĬĶ": 8925,
      "ĠìĪĺëĬĶ": 8926,
      "íħ¦": 8927,
      "æµª": 8928,
      "åĩĦ": 8929,
      "æĪĳãĢħ": 8930,
      "ç¶Ļ": 8931,
      "æĭ¬": 8932,
      "ìĨįìľ¼ë¡ľ": 8933,
      "é·¹": 8934,
      "çĵ·": 8935,
      "ìŀĪëĬĶ": 8936,
      "ê·¼ëį°": 8937,
      "ãĤıãģĭãĤĭ": 8938,
      "ĠìŀĶëľ©": 8939,
      "ĠìĽĶìļĶìĿ¼": 8940,
      "Ġì°¨ì§Ģíķĺëł¤ê³ł": 8941,
      "ĠìĨĮê°ľìĭľì¼ľ": 8942,
      "Ġíį": 8943,
      "ìļĿ": 8944,
      "ãģĵãģĹ": 8945,
      "å¹¡": 8946,
      "ëł¤ìĽĮ": 8947,
      "æ²¿": 8948,
      "Ġìłľê²Į": 8949,
      "ãĥķãĥĥ": 8950,
      "åĥħ": 8951,
      "æĸ¹å¼ı": 8952,
      "INK": 8953,
      "å²¬": 8954,
      "ãģİãĤĬ": 8955,
      "èĵĭ": 8956,
      "ãĥĽãĥ¼ãĥł": 8957,
      "å¤īæĽ´": 8958,
      "ĠãģŁãģĳ": 8959,
      "äº¤æıĽ": 8960,
      "Ġst": 8961,
      "çİĭåŃĲ": 8962,
      "æ¯Ķè¼ĥ": 8963,
      "ëĭ¹ìĭłìĿ´": 8964,
      "ãģ²ãģ¨ãĤĬ": 8965,
      "ãģ¿ãģŁãģĦãģª": 8966,
      "97": 8967,
      "¨ìĿ´": 8968,
      "Ġéĩĳ": 8969,
      "Ġåįĥ": 8970,
      "íķĺê¸°ë¥¼": 8971,
      "ëĤĢ": 8972,
      "ãģıãģĻ": 8973,
      "æ°Ķ": 8974,
      "ãģ©ãĤĬ": 8975,
      "æķ¦": 8976,
      "å¸ĺ": 8977,
      "ĠëıĦìĭľ": 8978,
      "èĭĳ": 8979,
      "åŁĭ": 8980,
      "èĩªåĭķ": 8981,
      "æŁ´": 8982,
      "ë¨Ī": 8983,
      "ĠìĹ¬ê¸°ê°Ģ": 8984,
      "ãģ¡ãĤĥãĤĵãģ¯": 8985,
      "ãĤ±ãĥ³": 8986,
      "ĠëıĮìķĦëĭ¤ëĭĪ": 8987,
      "ĠìĤ¬ì§ĦìĿĢ": 8988,
      "å¤īãĤı": 8989,
      "Ġë¯¸ëŀĢìĿ´ëĿ¼ëĬĶ": 8990,
      "ĠìĤ¬ë§ĪëĿ¼ìĿĺ": 8991,
      "ĠìĿ´ê±¸ë¡ľ": 8992,
      "ç·¨éĽĨ": 8993,
      "Ġê´´ë¡Ń": 8994,
      "ãģ«ãģ¨ãģ£ãģ¦": 8995,
      "âĢ¦âĻ¥": 8996,
      "ãģĬå§ī": 8997,
      "ìĺ´": 8998,
      "æĿ¯": 8999,
      "ê²łìĬµëĭĪëĭ¤": 9000,
      "ê²łëĭ¤ê³ł": 9001,
      "ä¿Ĺ": 9002,
      "éĻ³": 9003,
      "Ġë¶Ģëĵľ": 9004,
      "íĤ¹": 9005,
      "ãĤ¬ãĤ¬": 9006,
      "çĶ°çĶº": 9007,
      "ëĦĶ": 9008,
      "ãģŀãģı": 9009,
      "çĽ®ãģ®": 9010,
      "ĠëĬĲê¼": 9011,
      "æĿĲæĸĻ": 9012,
      "ĠíĹĪë¦¬": 9013,
      "ĠìŀĬê³ł": 9014,
      "ìĬ¤íħĮë¥´ëĭ´": 9015,
      "600": 9016,
      "VEN": 9017,
      "Ġì©": 9018,
      "Ġìģ": 9019,
      "Ġë¤": 9020,
      "ìĿ´ìĸ´": 9021,
      "íķĺëĥĲê³ł": 9022,
      "ãģłãģŀ": 9023,
      "ãĤıãĥ¼": 9024,
      "ãĤ¤ãĥ¡": 9025,
      "ĠìĿ¼ìĹĲ": 9026,
      "çĤŃ": 9027,
      "ê·¸ëĬĶ": 9028,
      "éĻ£": 9029,
      "ĠëĦĪìĹĲ": 9030,
      "ĠìłľìĻ¸": 9031,
      "æ¸¸": 9032,
      "æ¼ı": 9033,
      "ĠìĻķì¡°ë¥¼": 9034,
      "Ġê¸°ìĸµìĿ´": 9035,
      "Ġìķłëĵ¤ìĿĢ": 9036,
      "å®īå¿ĥ": 9037,
      "Ġë¨¹ê³ł": 9038,
      "Ġë²łìĬ¤íĬ¸": 9039,
      "Ġê°Ķëĭ¤ê°Ģ": 9040,
      "æľĭ": 9041,
      "ìĬ¤ìĿĺ": 9042,
      "ä½ĳ": 9043,
      "æ¯Ģ": 9044,
      "æĭĶ": 9045,
      "èĳµ": 9046,
      "ãģİãĤĥ": 9047,
      "137": 9048,
      "ç±į": 9049,
      "æ¾Ħ": 9050,
      "å¤ļå°ĳ": 9051,
      "éįĭ": 9052,
      "Ġì¹ľêµ¬ê°Ģ": 9053,
      "ĠëĶ¸": 9054,
      "ãĥ¤ãĥĦ": 9055,
      "ê°Ķì§Ģ": 9056,
      "ãģ¥ãģĭ": 9057,
      "ĠìĿ´ìķ¼ê¸°ê°Ģ": 9058,
      "íĸ¥ìĹĲ": 9059,
      "ĠìķĶìĬ¤íħĮë¥´ëĭ´": 9060,
      "ãĥĨãĥ¬ãĥĵ": 9061,
      "Ġë¬¼ìĸ´ë´¤ëĬĶëį°": 9062,
      "TO": 9063,
      "ri": 9064,
      "ä¸½": 9065,
      "ãģĬãģ¯": 9066,
      "Ġëª¨ìķĦ": 9067,
      "ëŀĮëĵ¤ìĿ´": 9068,
      "ëĵłìļĶ": 9069,
      "åīĬ": 9070,
      "è²Ŀ": 9071,
      "æ³¥": 9072,
      "åİ³": 9073,
      "èĭĹ": 9074,
      "ãĥĲãĤ¿": 9075,
      "ç·ĳ": 9076,
      "ãĥŀãĥŀ": 9077,
      "çł¥": 9078,
      "ãĤĮãģ¦ãģĦãĤĭ": 9079,
      "ĠìłĦìĦ¤ìĿ´ìķ¼": 9080,
      "http": 9081,
      "ĠëĶ°ë¥´ë©´": 9082,
      "âĦ": 9083,
      "Ġk": 9084,
      "ìĦľë°©ê°ĻìĿ´": 9085,
      "æĸĹ": 9086,
      "ê¹Ł": 9087,
      "ãģ¤ãģ¿": 9088,
      "ãģ©ãģ©": 9089,
      "ìķĺëįĺ": 9090,
      "æĬĦ": 9091,
      "æ±ģ": 9092,
      "Ġìµľìļ°ìĦł": 9093,
      "çģ°": 9094,
      "è¸ı": 9095,
      "éħĴåºĹ": 9096,
      "æ±ŁæĪ¸": 9097,
      "ãģ¨ãģĵãĤįãģ§": 9098,
      "ĠíĽĮë¦¬": 9099,
      "Ġë¡ľë§Īëħ¸íĶĦ": 9100,
      "áħ¡": 9101,
      "éłĳå¼µ": 9102,
      "ĠìĭŃìŀĲê°Ģê°Ģ": 9103,
      "220": 9104,
      "HH": 9105,
      "ld": 9106,
      "ul": 9107,
      "ãģĥ": 9108,
      "íķĶ": 9109,
      "ãģ®ãģĻãģĳ": 9110,
      "ãģĮè¦ĭ": 9111,
      "ãĤĭãģĭ": 9112,
      "ãģłãĤĮ": 9113,
      "ãĤĤãģªãģĦ": 9114,
      "è¨İ": 9115,
      "ĠìķĪíķ´ì¤¬": 9116,
      "ëĮĢìłģ": 9117,
      "ëĲĺë©´": 9118,
      "Ġíĥĵ": 9119,
      "åģ¶": 9120,
      "æ¼¸": 9121,
      "ãĤµãĥ¼": 9122,
      "éĮ¯": 9123,
      "ĠìĽĲíķĺ": 9124,
      "OUR": 9125,
      "æĿ±è¥¿": 9126,
      "Ġíĥľìļ°ëĬĶ": 9127,
      "çŀ³": 9128,
      "ãģªãģıãģ¦ãĤĤ": 9129,
      "ĠìĺĪìłķ": 9130,
      "Ġê´ĢìłĲ": 9131,
      "Ġëĭ¤ìĿĮìĹĶ": 9132,
      "OOK": 9133,
      "ust": 9134,
      "ì±¤ìĿĺ": 9135,
      "BE": 9136,
      "ģìĿ´": 9137,
      "ĠëĤĻ": 9138,
      "ãĤıãĤı": 9139,
      "å¸Ĩ": 9140,
      "ãĤ·ãĤ¢": 9141,
      "ãĤĵãģłãģĦ": 9142,
      "ĠìķĦëĭĪìĹĪìĸ´ìļĶ": 9143,
      "è¥¿èĹı": 9144,
      "ĠëĨįìŀ¥": 9145,
      "Ġíķ¨ë¶Ģë¡ľ": 9146,
      "ãĥ¼ãĥ¼ãģ£": 9147,
      "åı¤è¦ĭ": 9148,
      "00010": 9149,
      "ãĤ½ãĥ³": 9150,
      "APP": 9151,
      "Ġê·¸ê²ĥìĿĦ": 9152,
      "ãģĬé¡ĺãģĦãģĹãģ¾ãģĻ": 9153,
      "ĠíĿ¬ë§Ŀ": 9154,
      "Ġê·¸ìķłíķľíħĮ": 9155,
      "~~": 9156,
      "ìĦĪ": 9157,
      "ìłµ": 9158,
      "åŃĳ": 9159,
      "æīĩ": 9160,
      "å¾ģ": 9161,
      "å¾ĵ": 9162,
      "ëĿ¼ê³łëĬĶ": 9163,
      "Ġê·¸ëŁ°ê±°ìķ¼": 9164,
      "åĲĪãģĦ": 9165,
      "çĭ©": 9166,
      "çĨŁ": 9167,
      "æ¬¡ãģ®": 9168,
      "ate": 9169,
      "åĲĽãģ¯": 9170,
      "åĭĿè²ł": 9171,
      "Ġê´Ģìĭ¬": 9172,
      "Ġë¿ĲìĿ´ì§Ģ": 9173,
      "ãĤ¯ãĥªãĤ¹": 9174,
      "ãĥĹãĥ¬ãĤ¼ãĥ³ãĥĪ": 9175,
      "CL": 9176,
      "NA": 9177,
      "ĠìĿµ": 9178,
      "ãģĮãģĦãģĦ": 9179,
      "æ´ŀ": 9180,
      "èĥ¡": 9181,
      "èĥİ": 9182,
      "é»ĳ": 9183,
      "åı¯æĺ¯": 9184,
      "æĤ©": 9185,
      "é«ĺãģĦ": 9186,
      "æ³ķå¾ĭ": 9187,
      "ãĤ±ãĥ¼": 9188,
      "ä¹Łä¸į": 9189,
      "ä¿ºãģĮ": 9190,
      "OTO": 9191,
      "ĠìķŀìĹĲìĦľ": 9192,
      "æĹħè¡Į": 9193,
      "ĠìľĦëĮĢíķĺê²Į": 9194,
      "éłĺåıİè¨¼": 9195,
      "ĠìķĪíķ´ì¤¬ê±°ëĵł": 9196,
      "ãģĮãģį": 9197,
      "æĺ¯åĲį": 9198,
      "Ġë¬¶": 9199,
      "ãĤ¢ãĥĥ": 9200,
      "Ġê¸°ìĤ¬": 9201,
      "åĸª": 9202,
      "é¨ı": 9203,
      "ĠëĸłëĤĺ": 9204,
      "è¯ļ": 9205,
      "ãĥĵãĥĥ": 9206,
      "é£Łåĵģ": 9207,
      "éĤĦæľī": 9208,
      "ä¸¦ä¸į": 9209,
      "ĠëĬĻìĸ´": 9210,
      "ëĭ¤ìĭľ": 9211,
      "åŃ¤": 9212,
      "ĠìŀĲëŀĲ": 9213,
      "Ġ14": 9214,
      "ĠëĮĢíĳľ": 9215,
      "è»¸": 9216,
      "ëĤ´ì§Ģ": 9217,
      "éłģ": 9218,
      "åĩºçīĪ": 9219,
      "IND": 9220,
      "èµ«": 9221,
      "Ġë¯¸êµŃìĹĲ": 9222,
      "ãĤ¤ãĥ³ãĤ¿": 9223,
      "Ġì¹ľêµ¬ëĵ¤ìĿĢ": 9224,
      "åł±åĳĬ": 9225,
      "âĹĭ": 9226,
      "ä¼Ŀç¥¨": 9227,
      "orean": 9228,
      "âĦĥ": 9229,
      "ãģ¦ãģį": 9230,
      "ë¡¤": 9231,
      "ãģ«ãĤĵ": 9232,
      "ë²¾": 9233,
      "ä¸Ģé»ŀ": 9234,
      "å±¬": 9235,
      "ëĦ¤ëĵ¤": 9236,
      "ìļ°ë¦¬ëĬĶ": 9237,
      "æİĥ": 9238,
      "ĠìŀĪìĹĪëįĺ": 9239,
      "æı®": 9240,
      "Ġê·¸ëłĩìĨĮ": 9241,
      "ĠëĸĬ": 9242,
      "ĠSE": 9243,
      "éĸĭåĤ¬": 9244,
      "ĠDE": 9245,
      "Ġì§Ħì§ľë¡ľ": 9246,
      "ãĤĴè¦ĭãģ¦": 9247,
      "ä»²éĸĵ": 9248,
      "ç°¡åįĺ": 9249,
      "Ġë¹ļìĿĦ": 9250,
      "ĠêµĲìĪĺëĭĺ": 9251,
      "IST": 9252,
      "korean": 9253,
      "ĠãģķãģĦ": 9254,
      "ëĤ®": 9255,
      "ãģ¯ãģĺãĤģ": 9256,
      "ãĤĦãĤģãģ¦": 9257,
      "Ġìĺ¤ì§Ģ": 9258,
      "Ġíķ´ê²°": 9259,
      "íĻľ": 9260,
      "æĬ½": 9261,
      "åĴ¨": 9262,
      "ãģķãĤĵãģ¨": 9263,
      "ìĨĮê°Ģ": 9264,
      "ãģ»ãģĹãģĦ": 9265,
      "èħĶ": 9266,
      "ĠìłĪëĮĢë¡ľ": 9267,
      "è¨Ńè¨Ī": 9268,
      "éĶĪ": 9269,
      "ĠEX": 9270,
      "Ġì§Ģì§ĢíķĺëĥĲê³ł": 9271,
      "Ġha": 9272,
      "ĠëłĪìĿ´": 9273,
      "å¸¶èĳĹ": 9274,
      "æ¬²ãģĹãģĦ": 9275,
      "ĠãģĺãĤĩãģĨ": 9276,
      "ãĢī": 9277,
      "ìŀł": 9278,
      "ë§«": 9279,
      "ãģ¨ãģªãĤĭ": 9280,
      "ĠìķĦëĵ¤ìĿĦ": 9281,
      "ãģĤãģ¾ãĤĬ": 9282,
      "ãģıãģ¡": 9283,
      "íķ´ë³¼": 9284,
      "åĵĪ": 9285,
      "åĵī": 9286,
      "ç¶±": 9287,
      "åģ½": 9288,
      "å¦ĥ": 9289,
      "çªª": 9290,
      "æĪĲåĬŁ": 9291,
      "æľĢæĸ°": 9292,
[...]
